<unk>	0
<s>	0
</s>	0
<pad>	0
<0x00>	0
<0x01>	0
<0x02>	0
<0x03>	0
<0x04>	0
<0x05>	0
<0x06>	0
<0x07>	0
<0x08>	0
<0x09>	0
<0x0A>	0
<0x0B>	0
<0x0C>	0
<0x0D>	0
<0x0E>	0
<0x0F>	0
<0x10>	0
<0x11>	0
<0x12>	0
<0x13>	0
<0x14>	0
<0x15>	0
<0x16>	0
<0x17>	0
<0x18>	0
<0x19>	0
<0x1A>	0
<0x1B>	0
<0x1C>	0
<0x1D>	0
<0x1E>	0
<0x1F>	0
<0x20>	0
<0x21>	0
<0x22>	0
<0x23>	0
<0x24>	0
<0x25>	0
<0x26>	0
<0x27>	0
<0x28>	0
<0x29>	0
<0x2A>	0
<0x2B>	0
<0x2C>	0
<0x2D>	0
<0x2E>	0
<0x2F>	0
<0x30>	0
<0x31>	0
<0x32>	0
<0x33>	0
<0x34>	0
<0x35>	0
<0x36>	0
<0x37>	0
<0x38>	0
<0x39>	0
<0x3A>	0
<0x3B>	0
<0x3C>	0
<0x3D>	0
<0x3E>	0
<0x3F>	0
<0x40>	0
<0x41>	0
<0x42>	0
<0x43>	0
<0x44>	0
<0x45>	0
<0x46>	0
<0x47>	0
<0x48>	0
<0x49>	0
<0x4A>	0
<0x4B>	0
<0x4C>	0
<0x4D>	0
<0x4E>	0
<0x4F>	0
<0x50>	0
<0x51>	0
<0x52>	0
<0x53>	0
<0x54>	0
<0x55>	0
<0x56>	0
<0x57>	0
<0x58>	0
<0x59>	0
<0x5A>	0
<0x5B>	0
<0x5C>	0
<0x5D>	0
<0x5E>	0
<0x5F>	0
<0x60>	0
<0x61>	0
<0x62>	0
<0x63>	0
<0x64>	0
<0x65>	0
<0x66>	0
<0x67>	0
<0x68>	0
<0x69>	0
<0x6A>	0
<0x6B>	0
<0x6C>	0
<0x6D>	0
<0x6E>	0
<0x6F>	0
<0x70>	0
<0x71>	0
<0x72>	0
<0x73>	0
<0x74>	0
<0x75>	0
<0x76>	0
<0x77>	0
<0x78>	0
<0x79>	0
<0x7A>	0
<0x7B>	0
<0x7C>	0
<0x7D>	0
<0x7E>	0
<0x7F>	0
<0x80>	0
<0x81>	0
<0x82>	0
<0x83>	0
<0x84>	0
<0x85>	0
<0x86>	0
<0x87>	0
<0x88>	0
<0x89>	0
<0x8A>	0
<0x8B>	0
<0x8C>	0
<0x8D>	0
<0x8E>	0
<0x8F>	0
<0x90>	0
<0x91>	0
<0x92>	0
<0x93>	0
<0x94>	0
<0x95>	0
<0x96>	0
<0x97>	0
<0x98>	0
<0x99>	0
<0x9A>	0
<0x9B>	0
<0x9C>	0
<0x9D>	0
<0x9E>	0
<0x9F>	0
<0xA0>	0
<0xA1>	0
<0xA2>	0
<0xA3>	0
<0xA4>	0
<0xA5>	0
<0xA6>	0
<0xA7>	0
<0xA8>	0
<0xA9>	0
<0xAA>	0
<0xAB>	0
<0xAC>	0
<0xAD>	0
<0xAE>	0
<0xAF>	0
<0xB0>	0
<0xB1>	0
<0xB2>	0
<0xB3>	0
<0xB4>	0
<0xB5>	0
<0xB6>	0
<0xB7>	0
<0xB8>	0
<0xB9>	0
<0xBA>	0
<0xBB>	0
<0xBC>	0
<0xBD>	0
<0xBE>	0
<0xBF>	0
<0xC0>	0
<0xC1>	0
<0xC2>	0
<0xC3>	0
<0xC4>	0
<0xC5>	0
<0xC6>	0
<0xC7>	0
<0xC8>	0
<0xC9>	0
<0xCA>	0
<0xCB>	0
<0xCC>	0
<0xCD>	0
<0xCE>	0
<0xCF>	0
<0xD0>	0
<0xD1>	0
<0xD2>	0
<0xD3>	0
<0xD4>	0
<0xD5>	0
<0xD6>	0
<0xD7>	0
<0xD8>	0
<0xD9>	0
<0xDA>	0
<0xDB>	0
<0xDC>	0
<0xDD>	0
<0xDE>	0
<0xDF>	0
<0xE0>	0
<0xE1>	0
<0xE2>	0
<0xE3>	0
<0xE4>	0
<0xE5>	0
<0xE6>	0
<0xE7>	0
<0xE8>	0
<0xE9>	0
<0xEA>	0
<0xEB>	0
<0xEC>	0
<0xED>	0
<0xEE>	0
<0xEF>	0
<0xF0>	0
<0xF1>	0
<0xF2>	0
<0xF3>	0
<0xF4>	0
<0xF5>	0
<0xF6>	0
<0xF7>	0
<0xF8>	0
<0xF9>	0
<0xFA>	0
<0xFB>	0
<0xFC>	0
<0xFD>	0
<0xFE>	0
<0xFF>	0
in	-0
▁t	-1
▁a	-2
er	-3
on	-4
re	-5
at	-6
he	-7
en	-8
or	-9
st	-10
al	-11
▁the	-12
▁c	-13
it	-14
▁s	-15
es	-16
ion	-17
an	-18
le	-19
is	-20
▁o	-21
▁p	-22
ing	-23
▁f	-24
ar	-25
ed	-26
ic	-27
ro	-28
▁in	-29
▁▁	-30
nd	-31
ct	-32
▁d	-33
▁w	-34
▁m	-35
▁b	-36
ent	-37
▁of	-38
et	-39
▁=	-40
se	-41
▁and	-42
▁to	-43
ou	-44
▁e	-45
▁re	-46
▁n	-47
im	-48
om	-49
el	-50
am	-51
as	-52
▁th	-53
ut	-54
id	-55
ation	-56
il	-57
ce	-58
ur	-59
ol	-60
iv	-61
ig	-62
if	-63
▁is	-64
ul	-65
▁l	-66
▁(	-67
ra	-68
--	-69
▁T	-70
ot	-71
ch	-72
▁h	-73
um	-74
▁▁▁▁	-75
od	-76
ate	-77
);	-78
▁g	-79
qu	-80
ly	-81
▁u	-82
ow	-83
▁con	-84
▁{	-85
▁st	-86
▁v	-87
th	-88
ad	-89
pe	-90
▁for	-91
ab	-92
ge	-93
ers	-94
▁S	-95
ist	-96
ith	-97
▁A	-98
res	-99
te	-100
ction	-101
ir	-102
▁as	-103
▁I	-104
un	-105
lo	-106
ter	-107
▁pro	-108
pt	-109
em	-110
▁C	-111
ess	-112
ort	-113
▁on	-114
//	-115
▁be	-116
▁ex	-117
▁"	-118
pp	-119
ue	-120
ck	-121
de	-122
ment	-123
▁that	-124
▁with	-125
ver	-126
ay	-127
()	-128
**	-129
ri	-130
ame	-131
ve	-132
▁an	-133
int	-134
▁or	-135
ity	-136
▁'	-137
iz	-138
us	-139
ive	-140
▁de	-141
##	-142
con	-143
os	-144
igh	-145
▁com	-146
----	-147
▁su	-148
▁The	-149
and	-150
ect	-151
rom	-152
imp	-153
nt	-154
ult	-155
urn	-156
▁are	-157
▁al	-158
ial	-159
▁P	-160
::	-161
▁wh	-162
▁r	-163
▁it	-164
age	-165
est	-166
▁y	-167
op	-168
end	-169
cl	-170
ex	-171
ical	-172
ain	-173
pl	-174
ass	-175
',	-176
turn	-177
▁$	-178
▁by	-179
ine	-180
▁-	-181
▁N	-182
able	-183
per	-184
▁+	-185
▁F	-186
ure	-187
▁M	-188
ore	-189
for	-190
ew	-191
ies	-192
ight	-193
  	-194
__	-195
ant	-196
oc	-197
ag	-198
▁D	-199
ke	-200
art	-201
ap	-202
▁▁▁▁▁▁▁▁	-203
ff	-204
ata	-205
▁R	-206
og	-207
ere	-208
ile	-209
▁E	-210
▁this	-211
our	-212
ub	-213
▁from	-214
),	-215
get	-216
▁B	-217
return	-218
▁en	-219
▁se	-220
▁\	-221
==	-222
ath	-223
ions	-224
sel	-225
ac	-226
act	-227
▁ch	-228
",	-229
▁can	-230
▁res	-231
ign	-232
▁not	-233
ype	-234
rou	-235
str	-236
ance	-237
all	-238
▁at	-239
self	-240
ase	-241
▁L	-242
ud	-243
ated	-244
tr	-245
▁le	-246
umb	-247
ode	-248
▁W	-249
du	-250
put	-251
ip	-252
are	-253
▁*	-254
ations	-255
▁H	-256
ill	-257
to	-258
ence	-259
alue	-260
▁we	-261
ire	-262
unction	-263
▁sh	-264
com	-265
ime	-266
▁us	-267
ind	-268
ib	-269
cc	-270
out	-271
ans	-272
In	-273
▁:	-274
▁ad	-275
import	-276
****	-277
▁he	-278
ld	-279
▁comp	-280
("	-281
ize	-282
ard	-283
ost	-284
ack	-285
▁cont	-286
▁Th	-287
lic	-288
▁O	-289
▁tr	-290
form	-291
▁[	-292
ition	-293
ress	-294
ject	-295
ert	-296
).	-297
ph	-298
--------	-299
▁numb	-300
ide	-301
ents	-302
ust	-303
ace	-304
▁G	-305
one	-306
ach	-307
fer	-308
▁k	-309
ich	-310
xt	-311
ast	-312
ual	-313
ens	-314
ice	-315
ary	-316
ord	-317
ave	-318
def	-319
▁str	-320
gh	-321
..	-322
▁x	-323
hen	-324
ang	-325
low	-326
))	-327
▁<	-328
ork	-329
set	-330
pon	-331
ors	-332
('	-333
▁per	-334
ific	-335
▁un	-336
▁pl	-337
The	-338
▁app	-339
av	-340
rib	-341
▁you	-342
▁ar	-343
ount	-344
▁In	-345
ER	-346
ite	-347
ong	-348
▁&	-349
▁ne	-350
err	-351
pr	-352
vel	-353
▁U	-354
▁which	-355
ption	-356
Con	-357
▁sy	-358
pro	-359
▁function	-360
Re	-361
ak	-362
▁me	-363
text	-364
ft	-365
ces	-366
St	-367
name	-368
▁inter	-369
ould	-370
erv	-371
):	-372
ther	-373
▁ro	-374
▁`	-375
par	-376
ous	-377
▁This	-378
▁cl	-379
▁j	-380
▁dis	-381
▁number	-382
ail	-383
ell	-384
▁ab	-385
ple	-386
lect	-387
();	-388
ient	-389
cre	-390
ys	-391
▁if	-392
ild	-393
val	-394
ax	-395
->	-396
oint	-397
ory	-398
ep	-399
nder	-400
IN	-401
ext	-402
▁int	-403
pec	-404
▁pre	-405
$$	-406
▁have	-407
bject	-408
":	-409
ound	-410
▁V	-411
▁qu	-412
so	-413
ely	-414
ari	-415
stem	-416
eth	-417
oo	-418
    	-419
▁i	-420
ates	-421
oth	-422
▁equ	-423
elf	-424
const	-425
we	-426
▁form	-427
▁out	-428
cess	-429
lement	-430
ative	-431
####	-432
ating	-433
▁pr	-434
▁has	-435
▁such	-436
ange	-437
ree	-438
ry	-439
▁em	-440
this	-441
ater	-442
▁their	-443
eng	-444
▁part	-445
uct	-446
ility	-447
ull	-448
▁==	-449
ribut	-450
gr	-451
],	-452
erm	-453
vent	-454
▁new	-455
}{	-456
▁imp	-457
``	-458
odel	-459
====	-460
▁one	-461
▁self	-462
row	-463
own	-464
ON	-465
▁sc	-466
ps	-467
wo	-468
arg	-469
ss	-470
port	-471
pect	-472
les	-473
ular	-474
▁do	-475
yp	-476
ener	-477
ef	-478
eld	-479
▁}	-480
▁incl	-481
sc	-482
▁value	-483
oid	-484
ield	-485
sh	-486
▁set	-487
▁under	-488
▁data	-489
AT	-490
fig	-491
ublic	-492
ble	-493
tring	-494
ict	-495
▁all	-496
▁was	-497
▁ind	-498
RE	-499
inal	-500
▁col	-501
ia	-502
▁its	-503
▁use	-504
▁will	-505
▁comm	-506
urre	-507
rough	-508
▁des	-509
tt	-510
atic	-511
key	-512
ST	-513
ec	-514
fra	-515
▁requ	-516
▁pos	-517
enc	-518
data	-519
ator	-520
▁acc	-521
▁eff	-522
▁man	-523
▁sign	-524
led	-525
********	-526
LL	-527
▁exp	-528
let	-529
type	-530
▁dist	-531
Ex	-532
ample	-533
▁ass	-534
its	-535
ne	-536
▁_	-537
▁two	-538
app	-539
ues	-540
▁may	-541
▁tra	-542
var	-543
▁get	-544
▁cons	-545
orm	-546
ray	-547
arch	-548
ome	-549
▁so	-550
▁def	-551
rit	-552
ings	-553
▁system	-554
olut	-555
Pro	-556
▁add	-557
ethod	-558
ake	-559
▁J	-560
ll	-561
▁bet	-562
irst	-563
iew	-564
▁more	-565
▁also	-566
▁ac	-567
▁but	-568
▁result	-569
alse	-570
ract	-571
▁spec	-572
up	-573
lock	-574
ov	-575
olog	-576
▁$$	-577
ise	-578
▁rel	-579
▁supp	-580
▁over	-581
add	-582
▁reg	-583
atch	-584
ential	-585
read	-586
▁|	-587
▁into	-588
ied	-589
ool	-590
tern	-591
▁time	-592
ose	-593
▁trans	-594
cul	-595
Id	-596
▁through	-597
▁cal	-598
ivid	-599
ude	-600
ink	-601
ength	-602
uring	-603
")	-604
▁sub	-605
▁stud	-606
ix	-607
▁dif	-608
▁!	-609
▁te	-610
urrent	-611
ars	-612
▁sp	-613
ark	-614
frac	-615
▁val	-616
ource	-617
rr	-618
old	-619
▁@	-620
▁K	-621
Name	-622
che	-623
▁rem	-624
▁when	-625
----------------	-626
▁ev	-627
als	-628
use	-629
ms	-630
ures	-631
LE	-632
Type	-633
▁/	-634
dd	-635
▁these	-636
')	-637
test	-638
bu	-639
ities	-640
ible	-641
over	-642
ween	-643
▁work	-644
AR	-645
ics	-646
ob	-647
iven	-648
▁high	-649
ced	-650
▁>	-651
ational	-652
▁const	-653
ID	-654
OR	-655
▁act	-656
raph	-657
ery	-658
ctions	-659
ized	-660
log	-661
▁▁▁▁▁▁▁▁▁▁▁▁▁▁▁▁	-662
▁rec	-663
▁det	-664
▁vari	-665
pert	-666
▁err	-667
▁ph	-668
▁id	-669
ined	-670
▁between	-671
ove	-672
▁than	-673
duct	-674
▁then	-675
yn	-676
▁li	-677
EN	-678
▁each	-679
▁other	-680
▁test	-681
assert	-682
▁prov	-683
ser	-684
right	-685
String	-686
param	-687
▁point	-688
ook	-689
Th	-690
velop	-691
▁cre	-692
ally	-693
ments	-694
ie	-695
ault	-696
':	-697
ning	-698
ower	-699
resent	-700
▁import	-701
of	-702
ric	-703
ically	-704
▁ra	-705
cept	-706
roup	-707
▁appro	-708
▁It	-709
cond	-710
="	-711
iss	-712
▁using	-713
SE	-714
public	-715
▁includ	-716
▁kn	-717
fo	-718
ULL	-719
load	-720
ollow	-721
requ	-722
▁up	-723
ger	-724
▁St	-725
▁mult	-726
ased	-727
▁differ	-728
▁return	-729
olv	-730
aram	-731
ature	-732
ify	-733
▁how	-734
io	-735
aw	-736
ish	-737
▁fe	-738
▁where	-739
▁fact	-740
ense	-741
▁inst	-742
""	-743
▁any	-744
ask	-745
Res	-746
▁support	-747
ays	-748
To	-749
size	-750
▁ob	-751
▁inte	-752
▁=>	-753
rror	-754
▁used	-755
tem	-756
▁need	-757
fl	-758
▁partic	-759
ability	-760
pre	-761
ache	-762
value	-763
work	-764
▁they	-765
ule	-766
pos	-767
AL	-768
date	-769
▁first	-770
}\	-771
▁find	-772
round	-773
▁develop	-774
▁im	-775
____	-776
▁only	-777
▁co	-778
path	-779
▁am	-780
");	-781
IT	-782
ices	-783
olution	-784
ten	-785
▁true	-786
._	-787
sp	-788
{\	-789
ividual	-790
from	-791
▁min	-792
ument	-793
▁process	-794
class	-795
▁signific	-796
ines	-797
erg	-798
▁line	-799
ponse	-800
line	-801
ng	-802
List	-803
▁el	-804
▁no	-805
ma	-806
eg	-807
dex	-808
▁class	-809
▁ext	-810
ful	-811
</	-812
▁there	-813
▁follow	-814
▁:=	-815
▁method	-816
▁both	-817
ick	-818
essage	-819
▁effect	-820
▁Con	-821
ES	-822
cont	-823
Cl	-824
▁Wh	-825
['	-826
der	-827
Com	-828
ages	-829
cent	-830
sw	-831
ural	-832
uth	-833
▁individual	-834
file	-835
▁your	-836
su	-837
▁should	-838
▁Y	-839
AM	-840
▁->	-841
ersion	-842
new	-843
ood	-844
▁oper	-845
▁z	-846
min	-847
_{	-848
▁pers	-849
▁NULL	-850
▁div	-851
col	-852
Ch	-853
Error	-854
▁gener	-855
print	-856
ains	-857
////	-858
▁cor	-859
▁rep	-860
ins	-861
struct	-862
raw	-863
▁ag	-864
ional	-865
ptions	-866
irect	-867
▁mat	-868
ception	-869
ateg	-870
ader	-871
ock	-872
ider	-873
▁require	-874
atus	-875
▁them	-876
▁significant	-877
ern	-878
▁%	-879
cle	-880
Data	-881
AN	-882
▁calcul	-883
▁Ex	-884
▁Pro	-885
alth	-886
itive	-887
▁inv	-888
ough	-889
ann	-890
▁If	-891
▁pol	-892
left	-893
Ar	-894
},	-895
▁!=	-896
▁mod	-897
CT	-898
math	-899
ash	-900
ross	-901
loc	-902
▁ref	-903
itions	-904
string	-905
fter	-906
RO	-907
the	-908
comm	-909
().	-910
▁For	-911
];	-912
son	-913
,"	-914
^{	-915
AS	-916
esc	-917
air	-918
ases	-919
fil	-920
rite	-921
========	-922
▁bu	-923
arget	-924
▁char	-925
back	-926
▁ent	-927
vir	-928
▁were	-929
▁sur	-930
▁key	-931
▁org	-932
▁about	-933
ian	-934
▁null	-935
DE	-936
▁end	-937
list	-938
ox	-939
])	-940
ug	-941
▁struct	-942
pend	-943
▁Ch	-944
▁ed	-945
chn	-946
imes	-947
by	-948
ency	-949
▁same	-950
case	-951
▁These	-952
rame	-953
▁dec	-954
▁How	-955
▁model	-956
function	-957
ization	-958
▁type	-959
▁list	-960
ames	-961
mb	-962
▁fl	-963
}}	-964
▁cond	-965
eter	-966
▁pat	-967
(),	-968
ey	-969
▁Q	-970
▁cent	-971
time	-972
heck	-973
hed	-974
▁false	-975
▁redu	-976
ause	-977
▁within	-978
Se	-979
anc	-980
▁incre	-981
▁numbers	-982
ody	-983
▁ident	-984
red	-985
ream	-986
num	-987
unc	-988
▁.	-989
].	-990
▁–	-991
ervice	-992
▁Un	-993
ION	-994
Tr	-995
▁sm	-996
af	-997
...	-998
void	-999
tep	-1000
▁long	-1001
▁given	-1002
▁exper	-1003
▁who	-1004
ences	-1005
ious	-1006
▁object	-1007
▁&&	-1008
));	-1009
oci	-1010
fore	-1011
abel	-1012
ape	-1013
▁name	-1014
▁*/	-1015
code	-1016
▁loc	-1017
ience	-1018
▁typ	-1019
ision	-1020
Value	-1021
ified	-1022
▁like	-1023
ides	-1024
▁ser	-1025
▁current	-1026
ward	-1027
▁hel	-1028
viron	-1029
ever	-1030
aint	-1031
py	-1032
▁must	-1033
ron	-1034
▁during	-1035
uc	-1036
▁term	-1037
Set	-1038
ale	-1039
########	-1040
face	-1041
search	-1042
formation	-1043
ner	-1044
lex	-1045
ives	-1046
((	-1047
ier	-1048
▁di	-1049
▁some	-1050
rix	-1051
rol	-1052
'),	-1053
lob	-1054
###	-1055
▁proble	-1056
▁size	-1057
▁off	-1058
ited	-1059
▁anal	-1060
igned	-1061
stand	-1062
map	-1063
▁▁▁▁▁▁	-1064
oad	-1065
hem	-1066
olum	-1067
▁including	-1068
▁adv	-1069
ting	-1070
opy	-1071
loat	-1072
ivate	-1073
itial	-1074
ml	-1075
****************	-1076
play	-1077
args	-1078
ote	-1079
ively	-1080
ness	-1081
util	-1082
▁health	-1083
▁element	-1084
▁arg	-1085
ality	-1086
▁att	-1087
▁)	-1088
wh	-1089
olve	-1090
ared	-1091
▁values	-1092
ables	-1093
▁techn	-1094
▁while	-1095
ression	-1096
und	-1097
ants	-1098
ram	-1099
▁input	-1100
model	-1101
▁met	-1102
▁would	-1103
▁second	-1104
view	-1105
▁example	-1106
emb	-1107
▁particular	-1108
▁void	-1109
tal	-1110
arly	-1111
ok	-1112
iqu	-1113
▁state	-1114
ccess	-1115
▁right	-1116
▁sum	-1117
▁meas	-1118
▁stand	-1119
▁file	-1120
▁range	-1121
mer	-1122
▁ 	-1123
AC	-1124
▁disc	-1125
gram	-1126
ples	-1127
▁med	-1128
▁found	-1129
▁None	-1130
yle	-1131
umber	-1132
▁ye	-1133
        	-1134
▁Com	-1135
▁been	-1136
▁$\	-1137
▁lead	-1138
▁pract	-1139
ector	-1140
LO	-1141
imal	-1142
Get	-1143
ts	-1144
ren	-1145
Cont	-1146
▁else	-1147
ttp	-1148
inter	-1149
']	-1150
▁Re	-1151
▁often	-1152
▁level	-1153
/*	-1154
▁eng	-1155
ta	-1156
../	-1157
other	-1158
CO	-1159
dict	-1160
▁does	-1161
mod	-1162
▁simp	-1163
ton	-1164
▁perform	-1165
}$	-1166
UT	-1167
▁multip	-1168
reg	-1169
())	-1170
not	-1171
▁field	-1172
met	-1173
reat	-1174
▁cir	-1175
reak	-1176
='	-1177
PI	-1178
▁most	-1179
plic	-1180
arent	-1181
▁person	-1182
▁different	-1183
result	-1184
count	-1185
▁dem	-1186
▁allow	-1187
ivity	-1188
▁pot	-1189
abl	-1190
ince	-1191
());	-1192
ank	-1193
▁ins	-1194
Object	-1195
▁environ	-1196
config	-1197
ily	-1198
else	-1199
rc	-1200
▁log	-1201
perty	-1202
index	-1203
pi	-1204
rm	-1205
▁quest	-1206
▁across	-1207
clude	-1208
▁following	-1209
isk	-1210
idth	-1211
ffer	-1212
');	-1213
▁mean	-1214
▁individuals	-1215
lete	-1216
sub	-1217
▁lim	-1218
▁X	-1219
▁contribut	-1220
action	-1221
lection	-1222
▁est	-1223
▁what	-1224
▁integr	-1225
ero	-1226
ware	-1227
▁know	-1228
user	-1229
▁string	-1230
▁max	-1231
co	-1232
itional	-1233
///	-1234
bin	-1235
▁__	-1236
${	-1237
ET	-1238
▁bel	-1239
icense	-1240
▁fil	-1241
ological	-1242
ute	-1243
://	-1244
De	-1245
ism	-1246
inc	-1247
▁We	-1248
ital	-1249
std	-1250
ED	-1251
▁vis	-1252
vice	-1253
▁go	-1254
serv	-1255
ology	-1256
hip	-1257
▁mark	-1258
▁three	-1259
IM	-1260
▁specific	-1261
IC	-1262
▁start	-1263
▁child	-1264
▁involv	-1265
ocument	-1266
ists	-1267
▁research	-1268
▁Al	-1269
sy	-1270
▁non	-1271
length	-1272
▁tem	-1273
▁well	-1274
▁path	-1275
net	-1276
max	-1277
▁An	-1278
pen	-1279
state	-1280
lean	-1281
▁dig	-1282
▁his	-1283
rain	-1284
▁error	-1285
iver	-1286
vert	-1287
▁product	-1288
▁many	-1289
▁num	-1290
ately	-1291
▁squ	-1292
Bu	-1293
ayer	-1294
▁distribut	-1295
AB	-1296
ished	-1297
url	-1298
▁after	-1299
▁+=	-1300
▁#	-1301
point	-1302
++	-1303
For	-1304
input	-1305
define	-1306
▁sk	-1307
▁understand	-1308
▁read	-1309
▁common	-1310
▁pe	-1311
arn	-1312
ush	-1313
▁equation	-1314
▁see	-1315
▁power	-1316
equ	-1317
▁hand	-1318
Node	-1319
ript	-1320
ken	-1321
▁direct	-1322
▁cap	-1323
aking	-1324
▁poss	-1325
EX	-1326
me	-1327
acter	-1328
▁desc	-1329
ulation	-1330
▁del	-1331
▁par	-1332
▁mon	-1333
▁conf	-1334
▁||	-1335
▁length	-1336
▁hum	-1337
omet	-1338
▁produ	-1339
ets	-1340
▁tri	-1341
";	-1342
dis	-1343
▁phys	-1344
Param	-1345
Key	-1346
▁represent	-1347
▁context	-1348
iter	-1349
▁pres	-1350
▁real	-1351
We	-1352
ane	-1353
▁lif	-1354
error	-1355
▁equal	-1356
IS	-1357
aining	-1358
Un	-1359
aterial	-1360
her	-1361
▁cell	-1362
SER	-1363
uid	-1364
Ind	-1365
angle	-1366
pected	-1367
li	-1368
▁development	-1369
OT	-1370
ference	-1371
▁orig	-1372
';	-1373
▁potential	-1374
▁final	-1375
▁show	-1376
mp	-1377
ior	-1378
State	-1379
▁applic	-1380
▁case	-1381
quest	-1382
ently	-1383
▁particularly	-1384
▁enh	-1385
▁contin	-1386
▁text	-1387
▁ang	-1388
▁without	-1389
rt	-1390
Test	-1391
go	-1392
▁help	-1393
apt	-1394
▁“	-1395
Out	-1396
stance	-1397
▁fra	-1398
ouble	-1399
▁even	-1400
cur	-1401
▁count	-1402
▁impro	-1403
▁Tr	-1404
very	-1405
▁av	-1406
ergy	-1407
include	-1408
By	-1409
AD	-1410
["	-1411
▁user	-1412
▁bec	-1413
arm	-1414
Config	-1415
▁access	-1416
ances	-1417
▁ens	-1418
gest	-1419
be	-1420
▁commun	-1421
▁<<	-1422
▁just	-1423
PE	-1424
▁art	-1425
imum	-1426
▁systems	-1427
▁information	-1428
▁IN	-1429
▁As	-1430
Im	-1431
swer	-1432
Add	-1433
nect	-1434
▁?	-1435
▁water	-1436
▁crit	-1437
▁ap	-1438
▁gre	-1439
▁those	-1440
place	-1441
▁standard	-1442
ula	-1443
▁order	-1444
private	-1445
ename	-1446
ources	-1447
▁make	-1448
▁ess	-1449
▁occ	-1450
func	-1451
ather	-1452
▁include	-1453
valu	-1454
This	-1455
ait	-1456
uration	-1457
▁maint	-1458
▁dr	-1459
▁//	-1460
▁students	-1461
arning	-1462
ety	-1463
iod	-1464
json	-1465
▁×	-1466
▁total	-1467
ocus	-1468
ru	-1469
uthor	-1470
An	-1471
▁infl	-1472
rel	-1473
▁param	-1474
▁String	-1475
ogn	-1476
node	-1477
uch	-1478
CH	-1479
dir	-1480
ava	-1481
▁determ	-1482
▁To	-1483
▁hist	-1484
Input	-1485
por	-1486
orld	-1487
sum	-1488
▁consider	-1489
▁study	-1490
ister	-1491
▁beh	-1492
▁indic	-1493
ental	-1494
ailable	-1495
TO	-1496
with	-1497
▁risk	-1498
ref	-1499
({	-1500
▁,	-1501
▁aut	-1502
att	-1503
MA	-1504
Equ	-1505
item	-1506
▁However	-1507
bo	-1508
▁due	-1509
ffic	-1510
ingle	-1511
lose	-1512
valid	-1513
rad	-1514
Exception	-1515
▁car	-1516
ots	-1517
ler	-1518
start	-1519
urther	-1520
▁strateg	-1521
▁our	-1522
ession	-1523
info	-1524
less	-1525
ription	-1526
oun	-1527
rect	-1528
fe	-1529
▁problem	-1530
angu	-1531
▁sim	-1532
"""	-1533
itor	-1534
iled	-1535
ysis	-1536
hes	-1537
Col	-1538
annel	-1539
Time	-1540
light	-1541
▁graph	-1542
lobal	-1543
ift	-1544
sq	-1545
mat	-1546
▁conditions	-1547
pper	-1548
ond	-1549
(&	-1550
▁writ	-1551
▁grow	-1552
ustom	-1553
UN	-1554
▁$$\	-1555
agement	-1556
▁nil	-1557
create	-1558
▁serv	-1559
comp	-1560
ormal	-1561
▁check	-1562
loy	-1563
come	-1564
▁prof	-1565
ystem	-1566
any	-1567
"]	-1568
▁Se	-1569
ained	-1570
ords	-1571
▁organ	-1572
File	-1573
▁exam	-1574
part	-1575
▁complex	-1576
={	-1577
▁less	-1578
▁output	-1579
FF	-1580
med	-1581
ech	-1582
▁call	-1583
▁step	-1584
static	-1585
izing	-1586
umn	-1587
ining	-1588
▁present	-1589
▁energy	-1590
AME	-1591
andom	-1592
init	-1593
▁mov	-1594
array	-1595
▁back	-1596
UR	-1597
default	-1598
▁area	-1599
export	-1600
amp	-1601
▁provid	-1602
ral	-1603
eters	-1604
ons	-1605
ENT	-1606
▁environment	-1607
▁small	-1608
▁pass	-1609
▁chall	-1610
mpt	-1611
ync	-1612
▁Res	-1613
Sh	-1614
▁elect	-1615
▁could	-1616
Text	-1617
ivers	-1618
pub	-1619
▁post	-1620
▁comput	-1621
ead	-1622
IG	-1623
ived	-1624
▁()	-1625
Int	-1626
▁design	-1627
rid	-1628
vest	-1629
▁group	-1630
▁enc	-1631
order	-1632
▁because	-1633
▁every	-1634
aut	-1635
ended	-1636
AG	-1637
▁License	-1638
Info	-1639
▁fin	-1640
▁pop	-1641
▁essential	-1642
▁material	-1643
▁role	-1644
▁What	-1645
▁measure	-1646
▁associ	-1647
ols	-1648
▁public	-1649
▁factor	-1650
▁compon	-1651
▁top	-1652
trans	-1653
gl	-1654
indow	-1655
▁approach	-1656
Field	-1657
▁prim	-1658
▁my	-1659
▁known	-1660
If	-1661
▁nat	-1662
cal	-1663
////////	-1664
ification	-1665
▁respon	-1666
▁program	-1667
▁code	-1668
ffect	-1669
▁--	-1670
Map	-1671
▁config	-1672
ade	-1673
Size	-1674
▁human	-1675
append	-1676
ypes	-1677
bs	-1678
▁request	-1679
ven	-1680
▁Add	-1681
ique	-1682
itle	-1683
ators	-1684
pack	-1685
Index	-1686
ole	-1687
miss	-1688
▁based	-1689
XX	-1690
mathrm	-1691
▁cur	-1692
▁frequ	-1693
▁opt	-1694
comes	-1695
cd	-1696
▁static	-1697
atures	-1698
▁cult	-1699
▁prote	-1700
ww	-1701
olume	-1702
check	-1703
imens	-1704
▁positive	-1705
ement	-1706
egin	-1707
▁points	-1708
▁her	-1709
▁answer	-1710
▁control	-1711
ches	-1712
ually	-1713
uss	-1714
▁spe	-1715
Path	-1716
▁bro	-1717
perties	-1718
▁rad	-1719
GL	-1720
▁required	-1721
Context	-1722
ired	-1723
db	-1724
oss	-1725
Request	-1726
ocial	-1727
ags	-1728
▁target	-1729
ternal	-1730
▁Step	-1731
len	-1732
▁results	-1733
otal	-1734
}$$	-1735
version	-1736
▁solution	-1737
az	-1738
format	-1739
▁bl	-1740
./	-1741
ibility	-1742
inary	-1743
arge	-1744
wn	-1745
ium	-1746
ailed	-1747
▁factors	-1748
▁appe	-1749
roll	-1750
object	-1751
▁change	-1752
anguage	-1753
NAME	-1754
▁address	-1755
▁reflect	-1756
▁std	-1757
idence	-1758
En	-1759
rem	-1760
▁create	-1761
Array	-1762
▁He	-1763
mit	-1764
plit	-1765
▁run	-1766
▁multiple	-1767
▁response	-1768
api	-1769
ATE	-1770
pace	-1771
xim	-1772
>>	-1773
▁build	-1774
aces	-1775
hether	-1776
▁gen	-1777
▁before	-1778
Class	-1779
cing	-1780
anced	-1781
▁sever	-1782
lying	-1783
ients	-1784
rop	-1785
▁consist	-1786
ither	-1787
stru	-1788
current	-1789
▁focus	-1790
▁initial	-1791
True	-1792
▁net	-1793
▁content	-1794
▁prob	-1795
▁block	-1796
▁above	-1797
ination	-1798
uest	-1799
output	-1800
▁observ	-1801
▁table	-1802
▁influ	-1803
plate	-1804
▁percent	-1805
▁So	-1806
=\	-1807
▁express	-1808
break	-1809
org	-1810
▁body	-1811
▁implement	-1812
ploy	-1813
ensor	-1814
"),	-1815
Up	-1816
▁educ	-1817
▁[]	-1818
tings	-1819
▁cr	-1820
})	-1821
▁expl	-1822
quence	-1823
▁ben	-1824
▁formula	-1825
anges	-1826
arr	-1827
View	-1828
div	-1829
▁default	-1830
▁years	-1831
istic	-1832
ynam	-1833
▁square	-1834
▁period	-1835
▁though	-1836
opt	-1837
▁available	-1838
▁way	-1839
▁character	-1840
Pl	-1841
ats	-1842
As	-1843
▁functions	-1844
verse	-1845
request	-1846
odes	-1847
ails	-1848
Al	-1849
▁sug	-1850
▁===	-1851
alle	-1852
▁und	-1853
▁offer	-1854
tml	-1855
eturn	-1856
▁root	-1857
ope	-1858
▁pur	-1859
cor	-1860
▁ret	-1861
ands	-1862
base	-1863
▁index	-1864
▁structure	-1865
▁now	-1866
off	-1867
▁beg	-1868
▁left	-1869
▁personal	-1870
client	-1871
lev	-1872
TR	-1873
mut	-1874
▁cost	-1875
▁(!	-1876
Load	-1877
▁Cl	-1878
dom	-1879
][	-1880
aging	-1881
ival	-1882
ING	-1883
▁evalu	-1884
▁},	-1885
desc	-1886
chan	-1887
$.	-1888
Reg	-1889
▁single	-1890
ager	-1891
▁being	-1892
▁np	-1893
rior	-1894
Element	-1895
field	-1896
IL	-1897
▁ide	-1898
tes	-1899
vious	-1900
ounds	-1901
label	-1902
▁leg	-1903
PRO	-1904
▁behav	-1905
ptr	-1906
None	-1907
▁life	-1908
================	-1909
▁invest	-1910
oolean	-1911
ends	-1912
ules	-1913
word	-1914
}{\	-1915
▁event	-1916
▁gra	-1917
ored	-1918
▁down	-1919
omic	-1920
asing	-1921
uint	-1922
▁open	-1923
▁care	-1924
▁exist	-1925
rag	-1926
▁instance	-1927
▁performance	-1928
acy	-1929
▁dom	-1930
▁pattern	-1931
UL	-1932
▁analysis	-1933
chie	-1934
▁bi	-1935
▁cle	-1936
▁possible	-1937
begin	-1938
Step	-1939
▁rate	-1940
Output	-1941
hand	-1942
ponent	-1943
mon	-1944
▁social	-1945
run	-1946
▁effic	-1947
▁depend	-1948
nection	-1949
olic	-1950
▁position	-1951
Code	-1952
▁space	-1953
▁{}	-1954
User	-1955
▁interest	-1956
▁You	-1957
amb	-1958
▁item	-1959
ights	-1960
▁select	-1961
ration	-1962
Def	-1963
iation	-1964
▁saf	-1965
erc	-1966
▁source	-1967
▁mot	-1968
▁node	-1969
istance	-1970
Message	-1971
ries	-1972
▁question	-1973
▁When	-1974
ember	-1975
▁base	-1976
▁play	-1977
▁treat	-1978
ved	-1979
▁deg	-1980
tra	-1981
http	-1982
▁last	-1983
▁next	-1984
TY	-1985
nal	-1986
▁cy	-1987
igure	-1988
▁neg	-1989
▁physical	-1990
md	-1991
link	-1992
▁view	-1993
ainer	-1994
▁times	-1995
Wh	-1996
▁distin	-1997
IR	-1998
status	-1999
▁frame	-2000
idd	-2001
▁had	-2002
▁Z	-2003
▁Ind	-2004
)(	-2005
oot	-2006
▁force	-2007
Qu	-2008
lib	-2009
Block	-2010
▁understanding	-2011
Event	-2012
float	-2013
itut	-2014
▁effective	-2015
sive	-2016
▁project	-2017
▁len	-2018
call	-2019
▁array	-2020
▁assess	-2021
ason	-2022
jo	-2023
ek	-2024
Pr	-2025
▁prime	-2026
▁elements	-2027
IF	-2028
block	-2029
Result	-2030
▁success	-2031
bra	-2032
▁achie	-2033
ird	-2034
▁der	-2035
echo	-2036
abor	-2037
TE	-2038
ways	-2039
thon	-2040
▁sch	-2041
▁multi	-2042
▁While	-2043
▁critical	-2044
akes	-2045
▁ge	-2046
On	-2047
Sc	-2048
write	-2049
▁ver	-2050
▁cert	-2051
▁side	-2052
▁four	-2053
irection	-2054
da	-2055
ially	-2056
ering	-2057
Val	-2058
ted	-2059
(\	-2060
▁By	-2061
([	-2062
▁mass	-2063
▁dat	-2064
▁report	-2065
emory	-2066
▁low	-2067
▁press	-2068
▁abs	-2069
▁associated	-2070
▁circ	-2071
uture	-2072
▁look	-2073
js	-2074
▁link	-2075
▁approxim	-2076
▁challeng	-2077
\\	-2078
phas	-2079
SS	-2080
▁De	-2081
▁she	-2082
▁terms	-2083
ftware	-2084
App	-2085
Hand	-2086
▁natural	-2087
utton	-2088
icle	-2089
▁typically	-2090
los	-2091
▁row	-2092
▁calculate	-2093
build	-2094
▁significantly	-2095
aj	-2096
▁relations	-2097
▁Sh	-2098
Form	-2099
man	-2100
▁dev	-2101
▁another	-2102
▁limit	-2103
Service	-2104
▁defined	-2105
▁${	-2106
ople	-2107
Over	-2108
rodu	-2109
bug	-2110
▁unit	-2111
eration	-2112
▁zero	-2113
▁trad	-2114
sqrt	-2115
▁draw	-2116
agn	-2117
Log	-2118
▁further	-2119
▁);	-2120
Man	-2121
▁levels	-2122
has	-2123
image	-2124
▁means	-2125
▁whether	-2126
▁divis	-2127
▁describ	-2128
################	-2129
▁own	-2130
SERT	-2131
lease	-2132
pty	-2133
ttps	-2134
▁here	-2135
▁local	-2136
▁opp	-2137
roups	-2138
eq	-2139
▁establ	-2140
▁There	-2141
▁experience	-2142
▁ant	-2143
▁original	-2144
ilities	-2145
▁Ar	-2146
▁fam	-2147
▁law	-2148
message	-2149
.,	-2150
▁gu	-2151
▁let	-2152
ises	-2153
ecut	-2154
sm	-2155
sl	-2156
verage	-2157
IP	-2158
▁suggest	-2159
atform	-2160
way	-2161
lied	-2162
ordin	-2163
▁called	-2164
ubl	-2165
▁iss	-2166
space	-2167
Equal	-2168
▁children	-2169
iving	-2170
▁emphas	-2171
html	-2172
▁mechan	-2173
▁inf	-2174
▁distance	-2175
reate	-2176
color	-2177
vers	-2178
rec	-2179
Or	-2180
CL	-2181
▁continu	-2182
▁solve	-2183
ctx	-2184
hold	-2185
Le	-2186
▁recogn	-2187
▁correct	-2188
CK	-2189
olutions	-2190
US	-2191
ires	-2192
▁document	-2193
▁learning	-2194
▁::	-2195
depend	-2196
▁cases	-2197
▁either	-2198
ication	-2199
▁valid	-2200
onstr	-2201
▁below	-2202
struction	-2203
AP	-2204
eta	-2205
He	-2206
With	-2207
imate	-2208
▁hy	-2209
aus	-2210
mt	-2211
▁various	-2212
group	-2213
gor	-2214
▁take	-2215
alcul	-2216
day	-2217
context	-2218
ouse	-2219
▁account	-2220
bl	-2221
ribute	-2222
▁matrix	-2223
ayout	-2224
style	-2225
update	-2226
no	-2227
ride	-2228
▁again	-2229
gen	-2230
▁methods	-2231
▁remains	-2232
▁br	-2233
MP	-2234
fn	-2235
ont	-2236
term	-2237
gress	-2238
parse	-2239
TH	-2240
query	-2241
________	-2242
▁stre	-2243
▁image	-2244
ixed	-2245
orage	-2246
cast	-2247
▁divid	-2248
▁weight	-2249
Count	-2250
cos	-2251
dat	-2252
Ent	-2253
▁den	-2254
▁concept	-2255
▁task	-2256
▁prom	-2257
null	-2258
▁demonstr	-2259
ograph	-2260
▁ax	-2261
ounter	-2262
▁gover	-2263
▁benef	-2264
▁map	-2265
gorith	-2266
▁amount	-2267
mun	-2268
rows	-2269
▁temper	-2270
▁▁▁▁▁▁▁▁▁▁	-2271
▁variable	-2272
oms	-2273
ctor	-2274
▁refer	-2275
Ser	-2276
    ``	-2277
▁meaning	-2278
Mod	-2279
ik	-2280
▁prevent	-2281
▁respons	-2282
iness	-2283
▁fac	-2284
ording	-2285
▁subst	-2286
top	-2287
▁rece	-2288
ilar	-2289
ident	-2290
xy	-2291
▁distinct	-2292
▁conc	-2293
Not	-2294
▁want	-2295
▁relationship	-2296
itch	-2297
response	-2298
ours	-2299
▁language	-2300
▁Le	-2301
▁On	-2302
target	-2303
Of	-2304
▁among	-2305
icult	-2306
mbol	-2307
ius	-2308
uster	-2309
[]	-2310
INT	-2311
inition	-2312
▁large	-2313
▁port	-2314
Trans	-2315
▁flow	-2316
)$	-2317
▁provided	-2318
OD	-2319
▁indu	-2320
FA	-2321
ling	-2322
gs	-2323
izes	-2324
ention	-2325
instance	-2326
icro	-2327
Sub	-2328
CON	-2329
▁q	-2330
▁impact	-2331
▁princ	-2332
▁light	-2333
pite	-2334
▁height	-2335
▁assum	-2336
>(	-2337
▁emot	-2338
▁angle	-2339
fficient	-2340
src	-2341
▁people	-2342
Is	-2343
box	-2344
Group	-2345
Item	-2346
▁vector	-2347
uments	-2348
▁ill	-2349
core	-2350
tex	-2351
){	-2352
uro	-2353
lim	-2354
hel	-2355
▁since	-2356
▁necess	-2357
▁consum	-2358
}^{	-2359
based	-2360
width	-2361
expect	-2362
ott	-2363
▁vol	-2364
▁coll	-2365
els	-2366
fact	-2367
▁greater	-2368
amples	-2369
ALU	-2370
".	-2371
active	-2372
ready	-2373
▁surface	-2374
▁simple	-2375
▁init	-2376
▁along	-2377
Status	-2378
pha	-2379
now	-2380
gment	-2381
cy	-2382
▁deep	-2383
▁network	-2384
▁air	-2385
▁expression	-2386
flow	-2387
#[	-2388
▁options	-2389
Response	-2390
▁remain	-2391
▁econ	-2392
til	-2393
Loc	-2394
▁distribution	-2395
▁designed	-2396
bit	-2397
▁column	-2398
head	-2399
__(	-2400
true	-2401
▁transform	-2402
respon	-2403
▁higher	-2404
usion	-2405
next	-2406
▁lower	-2407
▁numer	-2408
dr	-2409
At	-2410
alf	-2411
▁fund	-2412
▁lik	-2413
▁plan	-2414
▁speed	-2415
atio	-2416
iff	-2417
▁print	-2418
abled	-2419
▁conduct	-2420
df	-2421
▁DE	-2422
push	-2423
char	-2424
▁color	-2425
▁prior	-2426
Table	-2427
filename	-2428
From	-2429
bool	-2430
filter	-2431
event	-2432
▁behavior	-2433
▁bas	-2434
▁free	-2435
▁compre	-2436
▁dynam	-2437
ids	-2438
▁strong	-2439
▁True	-2440
ifier	-2441
▁sw	-2442
gers	-2443
▁analy	-2444
▁es	-2445
▁AN	-2446
▁changes	-2447
▁sample	-2448
urs	-2449
options	-2450
▁expected	-2451
Post	-2452
stream	-2453
ABLE	-2454
dev	-2455
Call	-2456
▁making	-2457
▁probability	-2458
▁accur	-2459
ustr	-2460
▁connect	-2461
CE	-2462
▁custom	-2463
uestion	-2464
aster	-2465
▁load	-2466
">	-2467
▁volume	-2468
▁Sc	-2469
▁introdu	-2470
find	-2471
mathb	-2472
▁activ	-2473
▁diff	-2474
▁ke	-2475
▁;	-2476
▁obt	-2477
▁food	-2478
ender	-2479
▁tre	-2480
▁copy	-2481
ourse	-2482
▁place	-2483
meric	-2484
ym	-2485
then	-2486
ux	-2487
▁eas	-2488
▁rest	-2489
Build	-2490
▁sit	-2491
ilit	-2492
▁prec	-2493
)]	-2494
env	-2495
module	-2496
▁scient	-2497
▁≤	-2498
amespace	-2499
▁message	-2500
▁primary	-2501
PO	-2502
`,	-2503
▁contra	-2504
vis	-2505
my	-2506
ending	-2507
hib	-2508
▁author	-2509
▁early	-2510
▁models	-2511
▁Find	-2512
rap	-2513
ene	-2514
ges	-2515
long	-2516
table	-2517
▁identify	-2518
▁comprehen	-2519
actions	-2520
../../	-2521
▁previous	-2522
▁experi	-2523
▁Py	-2524
▁quant	-2525
▁gr	-2526
▁provide	-2527
SH	-2528
cket	-2529
▁negative	-2530
▁random	-2531
▁types	-2532
▁sust	-2533
aring	-2534
ULT	-2535
omial	-2536
airs	-2537
select	-2538
▁sequence	-2539
iction	-2540
bar	-2541
▁world	-2542
local	-2543
oop	-2544
do	-2545
▁mathem	-2546
down	-2547
▁cm	-2548
▁histor	-2549
▁much	-2550
▁parent	-2551
▁write	-2552
▁year	-2553
olving	-2554
Model	-2555
omen	-2556
▁discuss	-2557
ves	-2558
▁full	-2559
ledge	-2560
▁dep	-2561
Client	-2562
▁highlight	-2563
just	-2564
apter	-2565
▁employ	-2566
▁condition	-2567
range	-2568
ds	-2569
ideo	-2570
▁version	-2571
tx	-2572
sequ	-2573
models	-2574
▁▁▁▁▁▁▁▁▁▁▁▁	-2575
▁problems	-2576
▁challenges	-2577
mark	-2578
NO	-2579
ards	-2580
king	-2581
▁activity	-2582
▁central	-2583
():	-2584
wise	-2585
obj	-2586
izer	-2587
▁constant	-2588
Desc	-2589
ns	-2590
last	-2591
VER	-2592
▁global	-2593
','	-2594
▁java	-2595
▁They	-2596
▁integer	-2597
ogle	-2598
▁certain	-2599
ah	-2600
▁questions	-2601
params	-2602
▁involves	-2603
ground	-2604
$\	-2605
▁New	-2606
lood	-2607
web	-2608
').	-2609
number	-2610
▁series	-2611
istics	-2612
▁cells	-2613
atory	-2614
Base	-2615
▁bal	-2616
▁dise	-2617
▁clear	-2618
▁exact	-2619
spec	-2620
▁Math	-2621
▁\\	-2622
▁action	-2623
▁lines	-2624
Be	-2625
▁mill	-2626
▁Americ	-2627
sin	-2628
▁similar	-2629
doc	-2630
▁mus	-2631
▁Pl	-2632
ension	-2633
unk	-2634
▁least	-2635
iate	-2636
▁linear	-2637
times	-2638
ection	-2639
▁equations	-2640
▁includes	-2641
▁contains	-2642
attr	-2643
Fil	-2644
nown	-2645
method	-2646
OP	-2647
▁variables	-2648
▁mom	-2649
ging	-2650
,'	-2651
sole	-2652
▁normal	-2653
ump	-2654
HT	-2655
▁book	-2656
▁page	-2657
▁day	-2658
content	-2659
▁provides	-2660
raint	-2661
iency	-2662
▁several	-2663
element	-2664
Att	-2665
▁explo	-2666
)=	-2667
▁ensure	-2668
▁around	-2669
▁et	-2670
▁treatment	-2671
▁head	-2672
iversity	-2673
OL	-2674
atives	-2675
▁OR	-2676
▁reduce	-2677
▁determine	-2678
▁effort	-2679
▁NOT	-2680
Inter	-2681
▁maximum	-2682
▁mut	-2683
▁growth	-2684
que	-2685
▁bo	-2686
body	-2687
\"	-2688
emic	-2689
while	-2690
▁Pr	-2691
itionally	-2692
++)	-2693
adata	-2694
$,	-2695
gebra	-2696
Number	-2697
▁special	-2698
process	-2699
▁increasing	-2700
▁region	-2701
▁fraction	-2702
▁option	-2703
▁sol	-2704
orth	-2705
parent	-2706
oice	-2707
New	-2708
cs	-2709
▁loss	-2710
position	-2711
▁particip	-2712
▁practice	-2713
▁important	-2714
▁close	-2715
▁management	-2716
▁users	-2717
source	-2718
uda	-2719
▁affect	-2720
▁streng	-2721
ajor	-2722
ensity	-2723
ye	-2724
▁kil	-2725
np	-2726
buf	-2727
▁rather	-2728
▁correspon	-2729
▁short	-2730
▁made	-2731
▁don	-2732
All	-2733
exp	-2734
CR	-2735
▁visual	-2736
orem	-2737
▁average	-2738
auto	-2739
▁publ	-2740
▁po	-2741
title	-2742
aving	-2743
▁...	-2744
br	-2745
▁→	-2746
acity	-2747
▁emerg	-2748
▁software	-2749
final	-2750
▁Test	-2751
▁very	-2752
idx	-2753
▁general	-2754
ceed	-2755
▁pressure	-2756
ii	-2757
DB	-2758
▁"$	-2759
▁respect	-2760
▁materials	-2761
▁−	-2762
▁((	-2763
split	-2764
values	-2765
HE	-2766
▁Get	-2767
▁reli	-2768
▁units	-2769
toc	-2770
▁algorith	-2771
▁App	-2772
po	-2773
▁components	-2774
▁outcomes	-2775
aim	-2776
utes	-2777
System	-2778
▁tim	-2779
▁approximately	-2780
▁Set	-2781
mission	-2782
▁comprehensive	-2783
▁math	-2784
▁sl	-2785
▁convert	-2786
impl	-2787
arth	-2788
display	-2789
Mat	-2790
board	-2791
▁framework	-2792
host	-2793
ories	-2794
▁bool	-2795
▁school	-2796
ding	-2797
False	-2798
EY	-2799
pecially	-2800
▁direction	-2801
ogram	-2802
Override	-2803
▁features	-2804
UM	-2805
▁main	-2806
frame	-2807
eturns	-2808
▁device	-2809
Su	-2810
▁teach	-2811
ancial	-2812
▁stat	-2813
▁leading	-2814
ty	-2815
ret	-2816
▁difference	-2817
▁All	-2818
▁triangle	-2819
▁related	-2820
ALUES	-2821
▁sens	-2822
▁bus	-2823
▁/*	-2824
▁platform	-2825
ambda	-2826
pat	-2827
▁operations	-2828
▁fail	-2829
FI	-2830
▁future	-2831
Date	-2832
she	-2833
template	-2834
And	-2835
▁compos	-2836
▁already	-2837
▁might	-2838
orted	-2839
pose	-2840
▁interpre	-2841
server	-2842
root	-2843
▁gl	-2844
▁quality	-2845
Color	-2846
▁emotional	-2847
eloc	-2848
▁think	-2849
So	-2850
▁independ	-2851
▁>=	-2852
▁``	-2853
INSERT	-2854
gener	-2855
▁property	-2856
▁altern	-2857
▁engine	-2858
▁Eng	-2859
ipp	-2860
try	-2861
▁tools	-2862
▁hold	-2863
▁land	-2864
▁cannot	-2865
▁False	-2866
▁shift	-2867
▁comb	-2868
▁supports	-2869
▁recomm	-2870
▁dimens	-2871
req	-2872
~~	-2873
oper	-2874
matrix	-2875
▁coordin	-2876
au	-2877
▁pa	-2878
cer	-2879
signed	-2880
abase	-2881
▁construct	-2882
▁properties	-2883
join	-2884
▁Des	-2885
Pos	-2886
▁temperature	-2887
though	-2888
▁double	-2889
hy	-2890
▁vert	-2891
child	-2892
CA	-2893
▁begin	-2894
▁learn	-2895
side	-2896
▁En	-2897
ising	-2898
▁align	-2899
▁sat	-2900
token	-2901
▁application	-2902
ibr	-2903
ones	-2904
▁float	-2905
etic	-2906
▁caus	-2907
▁At	-2908
)/	-2909
▁still	-2910
option	-2911
▁os	-2912
▁ve	-2913
where	-2914
▁pack	-2915
cp	-2916
▁digital	-2917
▁evidence	-2918
▁govern	-2919
▁broader	-2920
Const	-2921
▁▁▁	-2922
shape	-2923
ury	-2924
▁enhance	-2925
enu	-2926
▁guid	-2927
▁And	-2928
VE	-2929
Check	-2930
open	-2931
]);	-2932
▁collect	-2933
▁groups	-2934
plication	-2935
utils	-2936
▁toward	-2937
ancing	-2938
Manager	-2939
▁turn	-2940
EXT	-2941
era	-2942
Util	-2943
Stream	-2944
▁population	-2945
▁ur	-2946
Str	-2947
level	-2948
onal	-2949
▁month	-2950
step	-2951
It	-2952
OM	-2953
▁major	-2954
▁areas	-2955
▁INTO	-2956
▁ir	-2957
del	-2958
▁always	-2959
rate	-2960
▁service	-2961
(-	-2962
▁Data	-2963
stone	-2964
▁regard	-2965
pc	-2966
","	-2967
▁market	-2968
▁Ph	-2969
Per	-2970
ERR	-2971
▁directly	-2972
lem	-2973
>,	-2974
olumn	-2975
Query	-2976
ometry	-2977
▁allows	-2978
▁match	-2979
ui	-2980
CRE	-2981
▁resources	-2982
").	-2983
enced	-2984
Row	-2985
abling	-2986
▁bound	-2987
▁<=	-2988
Ref	-2989
▁format	-2990
▁solutions	-2991
SI	-2992
Prov	-2993
▁]	-2994
Us	-2995
ured	-2996
rapper	-2997
▁additional	-2998
uit	-2999
▁combin	-3000
rl	-3001
▁consistent	-3002
▁subject	-3003
▁fn	-3004
itude	-3005
▁Is	-3006
▁Im	-3007
ategory	-3008
ming	-3009
UP	-3010
oring	-3011
printf	-3012
UE	-3013
API	-3014
▁did	-3015
sg	-3016
tag	-3017
▁super	-3018
TYPE	-3019
▁unt	-3020
▁**	-3021
▁knowledge	-3022
pass	-3023
▁environmental	-3024
▁integers	-3025
elif	-3026
▁separ	-3027
▁influence	-3028
▁larg	-3029
▁complet	-3030
ube	-3031
▁Calcul	-3032
▁offers	-3033
▁team	-3034
▁financial	-3035
Update	-3036
▁component	-3037
▁word	-3038
▁especially	-3039
▁cultural	-3040
atics	-3041
▁shap	-3042
CP	-3043
pid	-3044
aged	-3045
▁status	-3046
EM	-3047
false	-3048
▁α	-3049
oose	-3050
▁operation	-3051
▁center	-3052
ving	-3053
▁ability	-3054
leg	-3055
▁polic	-3056
▁Not	-3057
IO	-3058
raft	-3059
allel	-3060
Ed	-3061
aling	-3062
vec	-3063
▁red	-3064
▁ratio	-3065
<<	-3066
▁args	-3067
fix	-3068
▁events	-3069
▁strategies	-3070
▁cover	-3071
msg	-3072
elocity	-3073
clud	-3074
▁aw	-3075
Start	-3076
▁figure	-3077
▁old	-3078
Image	-3079
▁update	-3080
▁applications	-3081
Select	-3082
▁distributed	-3083
▁VALUES	-3084
acc	-3085
▁sides	-3086
▁nature	-3087
▁medical	-3088
Dis	-3089
expected	-3090
double	-3091
{}	-3092
▁overall	-3093
▁rot	-3094
creen	-3095
ML	-3096
ills	-3097
)\	-3098
aches	-3099
atter	-3100
▁become	-3101
imin	-3102
IB	-3103
mm	-3104
Ass	-3105
▁needs	-3106
▁interval	-3107
▁five	-3108
efined	-3109
▁moment	-3110
igger	-3111
▁enabling	-3112
thers	-3113
pri	-3114
▁aim	-3115
Options	-3116
ottom	-3117
tot	-3118
oud	-3119
Parameter	-3120
▁resource	-3121
*/	-3122
ares	-3123
▁production	-3124
▁United	-3125
▁shown	-3126
▁effects	-3127
ters	-3128
▁increase	-3129
▁search	-3130
main	-3131
reed	-3132
Function	-3133
ched	-3134
theta	-3135
▁blood	-3136
▁resulting	-3137
Types	-3138
▁species	-3139
span	-3140
▁equival	-3141
Act	-3142
No	-3143
."	-3144
▁avoid	-3145
ised	-3146
cular	-3147
package	-3148
height	-3149
change	-3150
Length	-3151
first	-3152
▁written	-3153
Property	-3154
leep	-3155
▁requires	-3156
▁observed	-3157
www	-3158
ee	-3159
There	-3160
▁clin	-3161
graph	-3162
▁writing	-3163
▁shape	-3164
▁education	-3165
show	-3166
▁label	-3167
▁later	-3168
device	-3169
▁scientific	-3170
book	-3171
MS	-3172
tim	-3173
rees	-3174
lick	-3175
▁reve	-3176
align	-3177
▁break	-3178
etch	-3179
▁concern	-3180
erate	-3181
AND	-3182
▁circle	-3183
▁profess	-3184
aps	-3185
offset	-3186
////////////////	-3187
▁patterns	-3188
▁disease	-3189
▁dam	-3190
▁Inst	-3191
ulti	-3192
anged	-3193
▁continuous	-3194
typ	-3195
End	-3196
▁Reg	-3197
ores	-3198
lice	-3199
▁economic	-3200
iles	-3201
such	-3202
▁section	-3203
train	-3204
▁adapt	-3205
▁IS	-3206
post	-3207
aries	-3208
▁Qu	-3209
fully	-3210
▁memory	-3211
▁expos	-3212
▁returns	-3213
▁OF	-3214
sych	-3215
▁Mat	-3216
Tra	-3217
▁unique	-3218
mock	-3219
rs	-3220
▁Int	-3221
ably	-3222
▁good	-3223
tual	-3224
▁incor	-3225
▁internal	-3226
PL	-3227
Create	-3228
mary	-3229
▁complete	-3230
Point	-3231
remove	-3232
▁say	-3233
▁Cont	-3234
alpha	-3235
Method	-3236
aff	-3237
▁Equ	-3238
▁illustr	-3239
}"	-3240
aset	-3241
▁developed	-3242
'],	-3243
Tem	-3244
▁With	-3245
▁age	-3246
ORT	-3247
vector	-3248
aily	-3249
▁polit	-3250
ached	-3251
▁Or	-3252
▁autom	-3253
Read	-3254
mand	-3255
▁historical	-3256
▁reference	-3257
_,	-3258
arrow	-3259
▁practices	-3260
Button	-3261
clear	-3262
nov	-3263
▁proper	-3264
▁bit	-3265
Line	-3266
encies	-3267
Buffer	-3268
Option	-3269
▁applied	-3270
▁List	-3271
ev	-3272
▁One	-3273
:"	-3274
▁ground	-3275
▁fore	-3276
ql	-3277
tage	-3278
▁Red	-3279
▁core	-3280
▁ful	-3281
Null	-3282
ales	-3283
▁aud	-3284
▁history	-3285
▁appear	-3286
▁stream	-3287
like	-3288
https	-3289
▁effectively	-3290
omin	-3291
You	-3292
▁maintain	-3293
▁cos	-3294
embers	-3295
cel	-3296
can	-3297
pet	-3298
▁game	-3299
cell	-3300
tle	-3301
▁processes	-3302
=>	-3303
equal	-3304
Page	-3305
▁hyp	-3306
▁Col	-3307
▁days	-3308
sk	-3309
▁modern	-3310
resents	-3311
▁Te	-3312
▁against	-3313
▁necessary	-3314
▁kg	-3315
▁try	-3316
aced	-3317
command	-3318
▁University	-3319
▁Additionally	-3320
▁predict	-3321
Let	-3322
Builder	-3323
Fl	-3324
▁wid	-3325
Rec	-3326
▁experim	-3327
▁contrast	-3328
fs	-3329
▁training	-3330
roid	-3331
▁py	-3332
▁vir	-3333
Run	-3334
▁pay	-3335
wargs	-3336
ze	-3337
▁Type	-3338
rypt	-3339
Column	-3340
TP	-3341
▁apply	-3342
▁difficult	-3343
▁contribute	-3344
▁sense	-3345
Acc	-3346
delete	-3347
▁safety	-3348
arily	-3349
vari	-3350
CC	-3351
▁Us	-3352
curity	-3353
▁presence	-3354
▁tree	-3355
ATION	-3356
▁patients	-3357
▁findings	-3358
▁practical	-3359
▁micro	-3360
contin	-3361
buffer	-3362
▁studies	-3363
iple	-3364
▁diag	-3365
▁ther	-3366
▁display	-3367
adr	-3368
BU	-3369
ulations	-3370
▁http	-3371
Oper	-3372
common	-3373
▁published	-3374
pan	-3375
)}	-3376
▁frequency	-3377
▁miss	-3378
olved	-3379
▁Let	-3380
▁move	-3381
Fact	-3382
▁reason	-3383
▁decl	-3384
▁others	-3385
sec	-3386
cles	-3387
resh	-3388
teger	-3389
det	-3390
ulate	-3391
▁client	-3392
nn	-3393
orn	-3394
$(	-3395
▁initi	-3396
ber	-3397
▁track	-3398
project	-3399
▁considered	-3400
orch	-3401
mune	-3402
▁progress	-3403
Address	-3404
ributes	-3405
page	-3406
▁hours	-3407
istry	-3408
▁connection	-3409
isms	-3410
Ext	-3411
cdot	-3412
FAULT	-3413
▁rule	-3414
apping	-3415
▁words	-3416
ring	-3417
-\	-3418
known	-3419
▁detailed	-3420
oding	-3421
location	-3422
▁whole	-3423
▁velocity	-3424
mem	-3425
▁filter	-3426
itable	-3427
Frame	-3428
SON	-3429
▁review	-3430
ront	-3431
}/	-3432
SET	-3433
.__	-3434
▁divided	-3435
When	-3436
irm	-3437
nummer	-3438
AGE	-3439
rays	-3440
▁record	-3441
▁increased	-3442
▁arr	-3443
▁Some	-3444
▁fundam	-3445
abilities	-3446
connect	-3447
Ad	-3448
▁business	-3449
▁resistance	-3450
CM	-3451
Det	-3452
▁scale	-3453
ements	-3454
store	-3455
▁π	-3456
iques	-3457
inst	-3458
▁accel	-3459
}.	-3460
outh	-3461
▁helps	-3462
▁mag	-3463
▁soci	-3464
entry	-3465
opyright	-3466
ensive	-3467
(_	-3468
OUT	-3469
▁decimal	-3470
▁technology	-3471
▁instead	-3472
icial	-3473
▁lack	-3474
stack	-3475
....	-3476
▁appropri	-3477
▁ways	-3478
▁stress	-3479
▁minimum	-3480
▁likely	-3481
QL	-3482
Solution	-3483
hood	-3484
ithub	-3485
vention	-3486
▁investig	-3487
▁Ad	-3488
types	-3489
atal	-3490
)))	-3491
pare	-3492
▁course	-3493
▁divisors	-3494
DA	-3495
land	-3496
▁established	-3497
aken	-3498
▁week	-3499
▁Def	-3500
{"	-3501
Resource	-3502
inner	-3503
▁situ	-3504
▁algorithm	-3505
oriz	-3506
cf	-3507
▁becomes	-3508
throw	-3509
Mode	-3510
dim	-3511
▁Ass	-3512
▁efficiency	-3513
▁plant	-3514
▁host	-3515
▁commonly	-3516
▁third	-3517
lish	-3518
apache	-3519
▁commit	-3520
(*	-3521
▁card	-3522
▁deliver	-3523
▁entire	-3524
tic	-3525
description	-3526
▁tool	-3527
▁acad	-3528
▁op	-3529
▁until	-3530
Default	-3531
insert	-3532
Part	-3533
service	-3534
Token	-3535
INE	-3536
logger	-3537
essages	-3538
▁represents	-3539
match	-3540
▁Fl	-3541
▁family	-3542
▁settings	-3543
▁origin	-3544
Content	-3545
▁feature	-3546
▁forms	-3547
)$$	-3548
ialog	-3549
ias	-3550
IST	-3551
▁width	-3552
stri	-3553
▁No	-3554
▁done	-3555
img	-3556
roller	-3557
iddle	-3558
+\	-3559
ln	-3560
▁CON	-3561
▁issues	-3562
▁itself	-3563
rupt	-3564
▁student	-3565
▁rect	-3566
▁active	-3567
▁better	-3568
px	-3569
▁best	-3570
pol	-3571
▁gas	-3572
ynomial	-3573
except	-3574
debug	-3575
scope	-3576
raise	-3577
super	-3578
Handler	-3579
▁stra	-3580
▁activities	-3581
▁compared	-3582
alk	-3583
console	-3584
▁offering	-3585
▁boolean	-3586
endif	-3587
yond	-3588
▁beyond	-3589
▁valu	-3590
iform	-3591
▁integration	-3592
▁coe	-3593
▁round	-3594
overy	-3595
▁once	-3596
conf	-3597
▁half	-3598
▁bar	-3599
▁Class	-3600
▁reduced	-3601
ectors	-3602
strict	-3603
force	-3604
▁Acc	-3605
dated	-3606
task	-3607
EL	-3608
▁regular	-3609
}}\	-3610
olicy	-3611
▁article	-3612
handle	-3613
'.	-3614
izations	-3615
▁unders	-3616
channel	-3617
ernel	-3618
enum	-3619
▁Function	-3620
▁channel	-3621
Ob	-3622
erse	-3623
,\	-3624
▁yet	-3625
Now	-3626
Pre	-3627
Met	-3628
▁proced	-3629
▁mode	-3630
▁sympt	-3631
▁fractions	-3632
▁American	-3633
)^	-3634
older	-3635
▁definition	-3636
▁identity	-3637
elling	-3638
ina	-3639
hesis	-3640
ians	-3641
▁reducing	-3642
▁extends	-3643
▁States	-3644
▁legal	-3645
abs	-3646
▁Then	-3647
ercise	-3648
ortun	-3649
riter	-3650
▁limited	-3651
icon	-3652
▁specified	-3653
Off	-3654
ATA	-3655
▁exhib	-3656
▁sec	-3657
▁fost	-3658
Instance	-3659
ugin	-3660
▁liter	-3661
▁command	-3662
Gener	-3663
stars	-3664
▁psych	-3665
▁community	-3666
▁encou	-3667
▁sustain	-3668
▁environments	-3669
bon	-3670
Py	-3671
▁adjust	-3672
▁institut	-3673
▁via	-3674
▁allowing	-3675
google	-3676
▁political	-3677
props	-3678
▁objects	-3679
iveness	-3680
▁axis	-3681
. 	-3682
patch	-3683
tempt	-3684
property	-3685
Op	-3686
▁som	-3687
enses	-3688
TER	-3689
pers	-3690
ilt	-3691
totype	-3692
▁regions	-3693
▁feed	-3694
▁execut	-3695
repon	-3696
section	-3697
▁daily	-3698
unit	-3699
Action	-3700
▁$(	-3701
achine	-3702
▁chem	-3703
Vari	-3704
reponame	-3705
empty	-3706
▁▁▁▁▁▁▁▁▁▁▁▁▁▁	-3707
▁innov	-3708
▁arch	-3709
▁Up	-3710
scale	-3711
Source	-3712
▁protect	-3713
▁Su	-3714
▁\$	-3715
        ``	-3716
▁vi	-3717
ites	-3718
lication	-3719
▁nut	-3720
▁US	-3721
Example	-3722
▁needed	-3723
▁addition	-3724
▁Object	-3725
oph	-3726
arser	-3727
going	-3728
▁clean	-3729
▁six	-3730
▁advanced	-3731
▁collabor	-3732
Write	-3733
▁professional	-3734
files	-3735
▁ball	-3736
axis	-3737
Num	-3738
▁query	-3739
▁cross	-3740
▁communication	-3741
▁tw	-3742
column	-3743
▁details	-3744
 `	-3745
▁steps	-3746
▁mor	-3747
rawLoad	-3748
▁online	-3749
fill	-3750
▁narr	-3751
▁equivalent	-3752
▁harm	-3753
▁ut	-3754
!(	-3755
ai	-3756
iting	-3757
▁shared	-3758
What	-3759
▁inform	-3760
oh	-3761
▁Trans	-3762
isf	-3763
▁traditional	-3764
▁lit	-3765
anch	-3766
inline	-3767
=(	-3768
▁Per	-3769
total	-3770
▁toget	-3771
▁angles	-3772
urren	-3773
▁ensuring	-3774
▁academic	-3775
▁Sub	-3776
▁past	-3777
▁['	-3778
NA	-3779
▁clinical	-3780
▁location	-3781
▁together	-3782
▁parameters	-3783
proto	-3784
Vector	-3785
}_{	-3786
▁util	-3787
▁involving	-3788
$$\	-3789
▁substant	-3790
▁serve	-3791
await	-3792
non	-3793
anation	-3794
vm	-3795
▁emb	-3796
▁Value	-3797
ANT	-3798
estamp	-3799
▁repe	-3800
PER	-3801
mathbf	-3802
RA	-3803
DIR	-3804
▁thread	-3805
lines	-3806
▁motion	-3807
erved	-3808
▁products	-3809
blem	-3810
▁maintaining	-3811
▁efficient	-3812
▁techniques	-3813
Exp	-3814
▁digits	-3815
ESS	-3816
iance	-3817
send	-3818
▁sources	-3819
ls	-3820
▁rights	-3821
tmp	-3822
▁handle	-3823
close	-3824
ged	-3825
ishing	-3826
rics	-3827
igen	-3828
▁relev	-3829
▁states	-3830
atical	-3831
▁minutes	-3832
▁oppos	-3833
▁phase	-3834
Hel	-3835
▁occur	-3836
▁Use	-3837
▁expand	-3838
▁accept	-3839
dfrac	-3840
ips	-3841
ifies	-3842
▁generate	-3843
▁parallel	-3844
ership	-3845
▁sizeof	-3846
avig	-3847
free	-3848
}}{	-3849
Arg	-3850
phere	-3851
▁heat	-3852
github	-3853
losed	-3854
▁deriv	-3855
▁Med	-3856
▁frequently	-3857
▁layer	-3858
▁uses	-3859
cert	-3860
hent	-3861
stro	-3862
Version	-3863
▁actual	-3864
should	-3865
▁paper	-3866
▁hard	-3867
▁Fe	-3868
▁ann	-3869
ribe	-3870
Work	-3871
▁included	-3872
▁voltage	-3873
▁Since	-3874
eline	-3875
inite	-3876
icate	-3877
used	-3878
Link	-3879
sig	-3880
▁few	-3881
▁But	-3882
▁home	-3883
hash	-3884
▁contact	-3885
▁fields	-3886
oder	-3887
earch	-3888
▁appropriate	-3889
ponents	-3890
LOG	-3891
▁cut	-3892
header	-3893
▁dynamic	-3894
iring	-3895
▁offset	-3896
▁serves	-3897
▁detect	-3898
▁inc	-3899
▁jour	-3900
tract	-3901
One	-3902
▁Fact	-3903
▁Stud	-3904
▁diverse	-3905
Matrix	-3906
register	-3907
mask	-3908
ios	-3909
▁benefits	-3910
▁enables	-3911
▁install	-3912
anging	-3913
Box	-3914
▁created	-3915
▁optim	-3916
▁domain	-3917
▁interpret	-3918
▁files	-3919
▁expect	-3920
[:	-3921
▁loop	-3922
▁reach	-3923
▁degrees	-3924
▁sent	-3925
▁eth	-3926
UB	-3927
▁why	-3928
▁improve	-3929
ORD	-3930
Max	-3931
▁examples	-3932
pring	-3933
▁System	-3934
▁symbol	-3935
▁odd	-3936
dist	-3937
▁Example	-3938
Component	-3939
▁compet	-3940
mode	-3941
sign	-3942
▁described	-3943
▁existing	-3944
second	-3945
bot	-3946
How	-3947
orizon	-3948
Width	-3949
▁fall	-3950
▁Number	-3951
Var	-3952
zero	-3953
▁obtain	-3954
▁issue	-3955
▁works	-3956
Case	-3957
arl	-3958
▁promot	-3959
DO	-3960
▁sets	-3961
▁binary	-3962
▁Inter	-3963
▁meet	-3964
MO	-3965
▁box	-3966
▁Gener	-3967
enge	-3968
related	-3969
address	-3970
CD	-3971
initial	-3972
▁poly	-3973
▁services	-3974
▁See	-3975
ART	-3976
▁keep	-3977
Question	-3978
efore	-3979
▁importance	-3980
_.	-3981
MENT	-3982
idden	-3983
▁denomin	-3984
▁items	-3985
ASK	-3986
render	-3987
▁conver	-3988
▁theory	-3989
aves	-3990
Spec	-3991
hema	-3992
▁entry	-3993
Dec	-3994
▁engagement	-3995
("./	-3996
▁capt	-3997
dro	-3998
▁multiply	-3999
batch	-4000
▁decision	-4001
▁widely	-4002
IONS	-4003
▁movement	-4004
ney	-4005
▁style	-4006
Graph	-4007
ecute	-4008
▁capacity	-4009
▁follows	-4010
▁exists	-4011
▁rout	-4012
argument	-4013
lambda	-4014
Layout	-4015
make	-4016
▁‘	-4017
▁date	-4018
▁conducted	-4019
ACK	-4020
LA	-4021
▁supported	-4022
more	-4023
▁claim	-4024
▁estim	-4025
▁Returns	-4026
uple	-4027
kg	-4028
▁immed	-4029
cache	-4030
▁experiences	-4031
▁mole	-4032
author	-4033
▁larger	-4034
keys	-4035
ething	-4036
tocol	-4037
▁module	-4038
NULL	-4039
▁incorpor	-4040
ifically	-4041
▁AS	-4042
▁cause	-4043
▁insights	-4044
/**	-4045
▁corresponding	-4046
};	-4047
▁Part	-4048
ARN	-4049
▁la	-4050
▁minim	-4051
ZE	-4052
dx	-4053
ks	-4054
▁monitor	-4055
aws	-4056
ingu	-4057
cuda	-4058
▁server	-4059
▁signal	-4060
▁circuit	-4061
▁Man	-4062
▁thereby	-4063
▁price	-4064
▁gives	-4065
alt	-4066
▁site	-4067
ae	-4068
Ptr	-4069
"))	-4070
avor	-4071
amma	-4072
▁window	-4073
```	-4074
olute	-4075
▁ded	-4076
rical	-4077
imals	-4078
amed	-4079
▁independent	-4080
itory	-4081
atively	-4082
etime	-4083
lies	-4084
▁CO	-4085
▁skin	-4086
Command	-4087
]]	-4088
copy	-4089
▁ID	-4090
▁uint	-4091
▁contain	-4092
Server	-4093
▁shows	-4094
KEY	-4095
▁far	-4096
▁strategy	-4097
ulated	-4098
▁testing	-4099
▁src	-4100
Url	-4101
replace	-4102
points	-4103
▁science	-4104
late	-4105
''	-4106
icles	-4107
ometric	-4108
ACE	-4109
osis	-4110
▁API	-4111
items	-4112
omy	-4113
iples	-4114
Del	-4115
parser	-4116
▁proport	-4117
▁Each	-4118
gn	-4119
ayers	-4120
urope	-4121
grid	-4122
▁compar	-4123
▁interface	-4124
Filter	-4125
Device	-4126
▁pair	-4127
▁symptoms	-4128
▁underlying	-4129
▁++	-4130
▁kilogram	-4131
▁near	-4132
product	-4133
PR	-4134
URL	-4135
Child	-4136
▁sin	-4137
LOCK	-4138
▁Form	-4139
resource	-4140
ili	-4141
▁fundamental	-4142
▁collection	-4143
SW	-4144
alloc	-4145
Sche	-4146
▁{\	-4147
▁damage	-4148
plot	-4149
▁women	-4150
▁After	-4151
▁going	-4152
sys	-4153
▁alternative	-4154
Top	-4155
▁conversion	-4156
assertEqual	-4157
▁whose	-4158
acing	-4159
▁diet	-4160
▁Sim	-4161
▁expert	-4162
▁feet	-4163
kwargs	-4164
▁empty	-4165
ifying	-4166
Task	-4167
auth	-4168
Params	-4169
▁pie	-4170
▁parts	-4171
▁straight	-4172
Style	-4173
▁persist	-4174
▁added	-4175
▁admin	-4176
▁mis	-4177
Err	-4178
▁compl	-4179
▁diagn	-4180
session	-4181
▁Dis	-4182
window	-4183
▁makes	-4184
care	-4185
stoneW	-4186
Entry	-4187
▁hom	-4188
▁advance	-4189
bytes	-4190
cmd	-4191
document	-4192
▁concent	-4193
ronic	-4194
▁store	-4195
▁Despite	-4196
Label	-4197
ung	-4198
eli	-4199
▁except	-4200
▁yield	-4201
Wrapper	-4202
▁plane	-4203
▁Option	-4204
asic	-4205
bind	-4206
▁led	-4207
Right	-4208
$$.	-4209
ulum	-4210
Ph	-4211
▁give	-4212
▁rapid	-4213
comple	-4214
tical	-4215
rea	-4216
byte	-4217
yl	-4218
save	-4219
▁quick	-4220
▁hypot	-4221
imple	-4222
RES	-4223
cat	-4224
ops	-4225
▁efforts	-4226
▁!==	-4227
ologies	-4228
}^	-4229
MAX	-4230
pped	-4231
▁involved	-4232
.)	-4233
stract	-4234
▁media	-4235
bt	-4236
▁video	-4237
Iter	-4238
Handle	-4239
Module	-4240
Listener	-4241
▁highly	-4242
▁argument	-4243
ufact	-4244
▁Can	-4245
▁Therefore	-4246
▁smaller	-4247
▁remov	-4248
aled	-4249
exports	-4250
▁fully	-4251
````	-4252
▁rates	-4253
Dep	-4254
td	-4255
▁linked	-4256
▁Cent	-4257
ATH	-4258
bal	-4259
porary	-4260
▁mental	-4261
TIM	-4262
}(	-4263
▁catch	-4264
▁national	-4265
▁idea	-4266
▁<-	-4267
CODE	-4268
cret	-4269
▁AB	-4270
▁inher	-4271
edia	-4272
PF	-4273
PORT	-4274
▁travel	-4275
▁recommended	-4276
▁Europe	-4277
pir	-4278
lope	-4279
beta	-4280
▁radius	-4281
▁intern	-4282
eral	-4283
▁satisf	-4284
▁– 	-4285
romise	-4286
▁quadr	-4287
▁algebra	-4288
Red	-4289
▁parse	-4290
▁external	-4291
aly	-4292
python	-4293
oy	-4294
▁face	-4295
idget	-4296
tegr	-4297
▁https	-4298
▁increases	-4299
astic	-4300
normal	-4301
▁enter	-4302
Ver	-4303
▁perspect	-4304
▁depth	-4305
apy	-4306
UI	-4307
CF	-4308
OS	-4309
Min	-4310
▁mer	-4311
ros	-4312
temp	-4313
▁opportun	-4314
▁inj	-4315
orizontal	-4316
ITH	-4317
▁prefer	-4318
▁configuration	-4319
▁Bu	-4320
itute	-4321
▁strength	-4322
loss	-4323
DF	-4324
▁digit	-4325
▁Error	-4326
ison	-4327
▁produce	-4328
▁relative	-4329
▁educational	-4330
▁synt	-4331
erial	-4332
PECT	-4333
unsigned	-4334
▁devices	-4335
▁fixed	-4336
plicit	-4337
namespace	-4338
▁remove	-4339
▁members	-4340
▁parameter	-4341
▁Ge	-4342
Current	-4343
▁brain	-4344
▁render	-4345
pu	-4346
▁rein	-4347
OF	-4348
▁basic	-4349
aneous	-4350
thread	-4351
▁policy	-4352
▁creating	-4353
▁generally	-4354
▁Div	-4355
prototype	-4356
isions	-4357
▁polynomial	-4358
TEST	-4359
▁Earth	-4360
▁attention	-4361
hs	-4362
MASK	-4363
expr	-4364
▁Research	-4365
▁edge	-4366
eros	-4367
▁too	-4368
annot	-4369
loor	-4370
()=>	-4371
▁principles	-4372
▁May	-4373
room	-4374
supp	-4375
▁bre	-4376
▁exactly	-4377
arity	-4378
▁Do	-4379
▁risks	-4380
▁Copyright	-4381
)),	-4382
▁spir	-4383
gra	-4384
Fe	-4385
atically	-4386
▁tax	-4387
▁forces	-4388
ERROR	-4389
apply	-4390
▁electric	-4391
▁Sum	-4392
.$	-4393
▁qual	-4394
▁TABLE	-4395
MM	-4396
inder	-4397
FILE	-4398
▁undefined	-4399
▁resid	-4400
▁decre	-4401
aid	-4402
▁broad	-4403
anks	-4404
▁put	-4405
▁actions	-4406
`.	-4407
wrap	-4408
lin	-4409
Cluster	-4410
angles	-4411
prote	-4412
▁iter	-4413
vey	-4414
▁security	-4415
▁exposure	-4416
CS	-4417
▁{@	-4418
▁Now	-4419
continue	-4420
Dir	-4421
oney	-4422
▁balance	-4423
see	-4424
Valid	-4425
{{	-4426
ilarly	-4427
▁define	-4428
oll	-4429
▁measures	-4430
▁selected	-4431
▁reading	-4432
▁inches	-4433
▁supporting	-4434
("./../../	-4435
IFT	-4436
pread	-4437
Offset	-4438
na	-4439
▁according	-4440
%%	-4441
▁sure	-4442
▁veh	-4443
ening	-4444
▁"${	-4445
only	-4446
ga	-4447
Change	-4448
▁company	-4449
II	-4450
structure	-4451
▁useful	-4452
▁phot	-4453
reshold	-4454
stoneWire	-4455
▁plot	-4456
Container	-4457
URE	-4458
▁simply	-4459
GET	-4460
allow	-4461
weight	-4462
▁representation	-4463
aste	-4464
▁simpl	-4465
▁derived	-4466
anel	-4467
▁him	-4468
ORM	-4469
▁>>	-4470
ci	-4471
▁tiss	-4472
▁(-	-4473
▁fig	-4474
▁divide	-4475
▁working	-4476
▁ongoing	-4477
▁vers	-4478
lt	-4479
▁achieve	-4480
IV	-4481
▁mathematical	-4482
▁happ	-4483
neg	-4484
CTION	-4485
Float	-4486
▁Work	-4487
▁json	-4488
exit	-4489
ife	-4490
▁implementation	-4491
▁Dec	-4492
▁meaningful	-4493
esh	-4494
IES	-4495
▁exception	-4496
button	-4497
▁pain	-4498
▁web	-4499
prov	-4500
▁substantial	-4501
▁reflects	-4502
entity	-4503
▁fluid	-4504
Pack	-4505
▁seen	-4506
▁obj	-4507
move	-4508
EXPECT	-4509
dig	-4510
mar	-4511
▁something	-4512
▁assign	-4513
▁division	-4514
dec	-4515
Print	-4516
quare	-4517
itation	-4518
▁skills	-4519
ports	-4520
▁patient	-4521
Rem	-4522
▁growing	-4523
▁ANY	-4524
></	-4525
Utils	-4526
▁degree	-4527
PS	-4528
Height	-4529
▁errors	-4530
icip	-4531
▁aware	-4532
▁indicates	-4533
rep	-4534
fort	-4535
▁segment	-4536
▁processing	-4537
▁curve	-4538
angular	-4539
Co	-4540
icated	-4541
▁State	-4542
ixt	-4543
random	-4544
▁Date	-4545
zz	-4546
BA	-4547
▁mind	-4548
Each	-4549
▁valuable	-4550
▁manufact	-4551
cm	-4552
▁cancer	-4553
▁structures	-4554
▁reported	-4555
▁cho	-4556
▁seconds	-4557
placement	-4558
bor	-4559
ITY	-4560
▁('	-4561
tree	-4562
▁heart	-4563
amera	-4564
▁Further	-4565
Args	-4566
adding	-4567
require	-4568
▁identified	-4569
▁tag	-4570
andid	-4571
▁pounds	-4572
nap	-4573
global	-4574
▁accurate	-4575
ster	-4576
▁cred	-4577
async	-4578
riptor	-4579
sect	-4580
▁density	-4581
▁encourag	-4582
oration	-4583
▁extra	-4584
▁grid	-4585
▁significance	-4586
USER	-4587
des	-4588
Cache	-4589
▁transfer	-4590
▁thought	-4591
▁Me	-4592
▁Key	-4593
▁Dr	-4594
▁advant	-4595
▁government	-4596
Tag	-4597
▁auth	-4598
Entity	-4599
▁having	-4600
STR	-4601
▁throws	-4602
mpty	-4603
DATA	-4604
Process	-4605
▁Question	-4606
▁propos	-4607
script	-4608
▁tests	-4609
rief	-4610
using	-4611
petra	-4612
▁names	-4613
▁km	-4614
▁sort	-4615
txt	-4616
▁mar	-4617
▁ten	-4618
Tim	-4619
hspace	-4620
Back	-4621
▁Rec	-4622
▁counter	-4623
SIZE	-4624
▁~	-4625
▁fr	-4626
▁transformation	-4627
asure	-4628
xml	-4629
tf	-4630
▁First	-4631
▁dimensions	-4632
▁demand	-4633
▁strategic	-4634
▁rules	-4635
crete	-4636
▁^	-4637
SHIFT	-4638
▁attempt	-4639
Aut	-4640
amin	-4641
▁feel	-4642
▁Python	-4643
▁Am	-4644
▁note	-4645
fty	-4646
click	-4647
▁indicating	-4648
Tensor	-4649
▁infe	-4650
PROC	-4651
sets	-4652
okk	-4653
▁aff	-4654
▁generated	-4655
eper	-4656
raints	-4657
▁presents	-4658
dimens	-4659
▁theorem	-4660
afe	-4661
real	-4662
▁multiplication	-4663
Factory	-4664
▁approaches	-4665
icular	-4666
WA	-4667
missions	-4668
▁share	-4669
▁Solution	-4670
?:	-4671
Find	-4672
Range	-4673
▁elev	-4674
swers	-4675
▁English	-4676
▁ult	-4677
▁ask	-4678
▁storage	-4679
▁doesn	-4680
▁callback	-4681
'))	-4682
semb	-4683
▁recent	-4684
▁statement	-4685
fect	-4686
▁sleep	-4687
Channel	-4688
▁vary	-4689
▁params	-4690
▁var	-4691
undred	-4692
▁cruc	-4693
Target	-4694
▁recognized	-4695
Note	-4696
idespread	-4697
▁job	-4698
▁vital	-4699
▁assert	-4700
uel	-4701
▁DEFAULT	-4702
Idx	-4703
IND	-4704
netic	-4705
Access	-4706
metic	-4707
▁nu	-4708
mos	-4709
erve	-4710
infty	-4711
▁THE	-4712
▁Bl	-4713
▁limitations	-4714
BO	-4715
▁relevant	-4716
▁calculated	-4717
▁widespread	-4718
▁•	-4719
okkos	-4720
cir	-4721
▁meters	-4722
▁optimal	-4723
▁session	-4724
▁Over	-4725
ampl	-4726
Vis	-4727
▁upon	-4728
hest	-4729
istory	-4730
▁Note	-4731
▁providing	-4732
java	-4733
▁tail	-4734
▁webs	-4735
▁climate	-4736
Serial	-4737
obile	-4738
▁That	-4739
rist	-4740
▁facilit	-4741
rule	-4742
▁GL	-4743
inv	-4744
▁prop	-4745
▁foundational	-4746
▁functional	-4747
lections	-4748
Attribute	-4749
Next	-4750
▁standards	-4751
▁nodes	-4752
▁throughout	-4753
kit	-4754
▁operational	-4755
▁relationships	-4756
▁fit	-4757
▁occurs	-4758
▁located	-4759
▁className	-4760
▁buffer	-4761
dt	-4762
clus	-4763
▁norm	-4764
SP	-4765
▁structural	-4766
▁analyz	-4767
system	-4768
▁Update	-4769
metric	-4770
foo	-4771
▁She	-4772
▁enhances	-4773
▁flex	-4774
▁magn	-4775
]:	-4776
▁connected	-4777
▁lies	-4778
▁Act	-4779
pop	-4780
▁improved	-4781
names	-4782
Local	-4783
▁continue	-4784
▁foot	-4785
TM	-4786
)+	-4787
▁enhancing	-4788
▁international	-4789
och	-4790
▁rev	-4791
▁challenge	-4792
itual	-4793
Equals	-4794
▁containing	-4795
'])	-4796
▁'/	-4797
▁choose	-4798
faces	-4799
▁wide	-4800
cted	-4801
account	-4802
▁Create	-4803
Host	-4804
FO	-4805
▁relig	-4806
▁stem	-4807
sv	-4808
Control	-4809
▁starting	-4810
structor	-4811
Header	-4812
▁Although	-4813
RL	-4814
Do	-4815
$$,	-4816
▁prompt	-4817
xx	-4818
mu	-4819
center	-4820
that	-4821
▁Sch	-4822
callback	-4823
yles	-4824
▁Check	-4825
partial	-4826
ban	-4827
world	-4828
▁months	-4829
EST	-4830
"));	-4831
><	-4832
SD	-4833
▁million	-4834
▁longer	-4835
Api	-4836
▁moving	-4837
▁belie	-4838
EQ	-4839
▁Pol	-4840
incia	-4841
▁database	-4842
lation	-4843
}=	-4844
▁Array	-4845
ENSE	-4846
▁expressed	-4847
▁costs	-4848
▁Their	-4849
ultip	-4850
▁organizations	-4851
sort	-4852
▁crucial	-4853
▁labor	-4854
▁Sk	-4855
▁await	-4856
▁instr	-4857
ARR	-4858
rams	-4859
Store	-4860
uff	-4861
▁url	-4862
▁Be	-4863
▁upper	-4864
hex	-4865
▁compute	-4866
▁'',	-4867
▁Log	-4868
▁mechanisms	-4869
▁ste	-4870
results	-4871
mathbb	-4872
▁guide	-4873
▁arguments	-4874
draw	-4875
sor	-4876
▁symb	-4877
▁sex	-4878
)*	-4879
stry	-4880
▁taken	-4881
addr	-4882
▁seem	-4883
________,	-4884
▁spect	-4885
EE	-4886
=$	-4887
▁effectiveness	-4888
▁calculator	-4889
▁doc	-4890
▁—	-4891
▁sym	-4892
cons	-4893
▁grad	-4894
▁###	-4895
▁scen	-4896
▁Af	-4897
▁communities	-4898
▁takes	-4899
▁concerns	-4900
uck	-4901
thing	-4902
▁differences	-4903
ooth	-4904
▁kind	-4905
▁syn	-4906
oke	-4907
ibrary	-4908
▁compliance	-4909
Net	-4910
▁torch	-4911
look	-4912
▁aspect	-4913
^{-	-4914
access	-4915
react	-4916
▁async	-4917
Left	-4918
▁Rep	-4919
mitted	-4920
switch	-4921
▁got	-4922
()->	-4923
▁Ne	-4924
▁images	-4925
▁Ed	-4926
APP	-4927
pay	-4928
olver	-4929
fin	-4930
▁easy	-4931
mk	-4932
istration	-4933
CREATE	-4934
▁token	-4935
▁adult	-4936
▁healthcare	-4937
Format	-4938
year	-4939
▁death	-4940
ographic	-4941
Callback	-4942
▁evaluation	-4943
operator	-4944
xi	-4945
DATE	-4946
imeter	-4947
▁primarily	-4948
uler	-4949
▁phen	-4950
▁Line	-4951
NS	-4952
Char	-4953
acters	-4954
▁proof	-4955
rot	-4956
unch	-4957
Empty	-4958
▁sequ	-4959
▁white	-4960
Comple	-4961
igr	-4962
coming	-4963
▁narrative	-4964
ief	-4965
▁Go	-4966
argin	-4967
▁mid	-4968
▁ign	-4969
bound	-4970
▁carbon	-4971
Obj	-4972
Hash	-4973
▁improv	-4974
▁',	-4975
layer	-4976
asc	-4977
▁cop	-4978
pg	-4979
▁chemical	-4980
▁{'	-4981
network	-4982
▁conflic	-4983
phi	-4984
prop	-4985
▁mem	-4986
oman	-4987
itect	-4988
▁choice	-4989
▁forward	-4990
#!	-4991
▁depends	-4992
ithmetic	-4993
First	-4994
▁marked	-4995
▁elimin	-4996
rie	-4997
▁programs	-4998
▁demonstrated	-4999
ba	-5000
settings	-5001
container	-5002
arp	-5003
ipeline	-5004
▁contributing	-5005
Assert	-5006
displaystyle	-5007
duc	-5008
power	-5009
vironment	-5010
encing	-5011
component	-5012
▁Mathem	-5013
▁["	-5014
eric	-5015
▁evolution	-5016
▁potentially	-5017
▁func	-5018
▁vectors	-5019
sql	-5020
pute	-5021
▁slow	-5022
▁indicate	-5023
▁screen	-5024
▁cycle	-5025
CHE	-5026
▁introduced	-5027
▁vertical	-5028
domain	-5029
▁surv	-5030
ICENSE	-5031
▁stri	-5032
▁equals	-5033
▁formal	-5034
dep	-5035
▁Ap	-5036
▁men	-5037
▁able	-5038
}_	-5039
grad	-5040
▁trend	-5041
▁ensures	-5042
onic	-5043
hedu	-5044
▁title	-5045
▁hundred	-5046
▁received	-5047
▁strict	-5048
▁&=	-5049
▁suitable	-5050
▁cogn	-5051
▁setting	-5052
icens	-5053
Delete	-5054
▁denominator	-5055
▁finding	-5056
iet	-5057
Supp	-5058
Thread	-5059
ida	-5060
▁His	-5061
Body	-5062
▁AC	-5063
▁appears	-5064
▁assessment	-5065
norm	-5066
▁accessible	-5067
▁ce	-5068
▁adopt	-5069
▁oil	-5070
quad	-5071
example	-5072
▁inverse	-5073
STAT	-5074
oles	-5075
▁combined	-5076
protected	-5077
▁notation	-5078
Te	-5079
▁vertex	-5080
▁"/	-5081
arlier	-5082
ADD	-5083
Cell	-5084
gle	-5085
ivation	-5086
▁complexity	-5087
▁goal	-5088
▁tasks	-5089
Register	-5090
▁operator	-5091
urable	-5092
Internal	-5093
▁strengthen	-5094
▁tang	-5095
eries	-5096
being	-5097
▁isol	-5098
▁compound	-5099
▁severe	-5100
builder	-5101
▁building	-5102
ario	-5103
LEARN	-5104
▁manage	-5105
▁technical	-5106
▁charge	-5107
▁accuracy	-5108
▁principle	-5109
▁subsequ	-5110
▁measurement	-5111
▁Figure	-5112
▁*)	-5113
▁coordinates	-5114
▁WARR	-5115
Des	-5116
PA	-5117
▁acid	-5118
▁presented	-5119
▁stage	-5120
clusion	-5121
▁Pre	-5122
fd	-5123
▁rational	-5124
oom	-5125
▁green	-5126
Pass	-5127
▁leads	-5128
▁sound	-5129
▁integral	-5130
Tree	-5131
▁actually	-5132
▁Thus	-5133
▁exceed	-5134
inding	-5135
peed	-5136
Session	-5137
▁soil	-5138
Rou	-5139
font	-5140
▁failed	-5141
▁previously	-5142
▁ones	-5143
▁hab	-5144
Values	-5145
▁National	-5146
▁identifying	-5147
Since	-5148
▁Total	-5149
}+	-5150
▁referred	-5151
▁cub	-5152
▁otherwise	-5153
▁failure	-5154
hat	-5155
orig	-5156
aa	-5157
▁sil	-5158
istor	-5159
Return	-5160
prefix	-5161
Sum	-5162
▁lib	-5163
▁thous	-5164
▁register	-5165
ipe	-5166
▁currently	-5167
▁evaluate	-5168
}`	-5169
pool	-5170
Level	-5171
Window	-5172
▁computer	-5173
VAL	-5174
sheet	-5175
Search	-5176
▁protein	-5177
▁plays	-5178
▁refers	-5179
▁suggests	-5180
▁structured	-5181
▁calculation	-5182
admin	-5183
▁slope	-5184
most	-5185
ventional	-5186
rong	-5187
▁represented	-5188
▁diam	-5189
▁combination	-5190
▁imag	-5191
SC	-5192
▁implemented	-5193
▁grav	-5194
▁expans	-5195
▁Given	-5196
role	-5197
drop	-5198
▁Exception	-5199
▁infra	-5200
ANG	-5201
▁Co	-5202
▁From	-5203
▁Here	-5204
ceived	-5205
▁matter	-5206
umbers	-5207
▁followed	-5208
*}	-5209
Sign	-5210
▁fire	-5211
riend	-5212
▁sus	-5213
AMP	-5214
sample	-5215
``    ``	-5216
---	-5217
gments	-5218
Layer	-5219
▁developing	-5220
▁confidence	-5221
▁engage	-5222
cr	-5223
diff	-5224
▁inner	-5225
▁gain	-5226
](	-5227
▁opposite	-5228
ancy	-5229
▁safe	-5230
elihood	-5231
▁sun	-5232
▁precise	-5233
rown	-5234
▁sem	-5235
shared	-5236
Order	-5237
une	-5238
Kokkos	-5239
Initial	-5240
Parser	-5241
Position	-5242
▁Using	-5243
▁medic	-5244
Web	-5245
▁fat	-5246
▁hour	-5247
▁'<	-5248
alled	-5249
dk	-5250
ha	-5251
cknow	-5252
▁ep	-5253
hetic	-5254
▁script	-5255
▁regarding	-5256
)).	-5257
done	-5258
transform	-5259
OST	-5260
interface	-5261
Provider	-5262
▁trigger	-5263
▁que	-5264
OK	-5265
▁EX	-5266
▁purpose	-5267
▁description	-5268
edge	-5269
▁Det	-5270
▁remaining	-5271
~~~~	-5272
FL	-5273
quired	-5274
▁schol	-5275
▁Result	-5276
Dat	-5277
ded	-5278
▁machine	-5279
bf	-5280
di	-5281
▁concepts	-5282
▁sufficient	-5283
▁explore	-5284
ALL	-5285
▁navig	-5286
Invalid	-5287
▁("	-5288
▁info	-5289
▁behind	-5290
istribut	-5291
)?	-5292
jection	-5293
PATH	-5294
▁wave	-5295
▁deeper	-5296
Math	-5297
mean	-5298
▁black	-5299
Last	-5300
▁researchers	-5301
▁earlier	-5302
▁despite	-5303
▁transport	-5304
Par	-5305
▁intended	-5306
▁ec	-5307
▁organization	-5308
ivery	-5309
▁participants	-5310
▁##	-5311
(`	-5312
oded	-5313
Rel	-5314
▁figures	-5315
▁pairs	-5316
ony	-5317
napsh	-5318
▁email	-5319
▁roots	-5320
ried	-5321
into	-5322
▁rig	-5323
▁Par	-5324
boolean	-5325
▁come	-5326
▁capable	-5327
▁drug	-5328
▁dynamics	-5329
▁According	-5330
▁wall	-5331
card	-5332
pository	-5333
ography	-5334
▁guidance	-5335
▁scal	-5336
▁adding	-5337
PFN	-5338
Sl	-5339
Sy	-5340
▁gradu	-5341
▁jo	-5342
Unit	-5343
▁excess	-5344
assertEquals	-5345
chron	-5346
▁""	-5347
▁Its	-5348
▁consumption	-5349
▁produced	-5350
(__	-5351
▁characters	-5352
▁Prop	-5353
▁viol	-5354
otes	-5355
irectory	-5356
PRE	-5357
inant	-5358
Match	-5359
ppgl	-5360
▁acceleration	-5361
▁percentage	-5362
▁century	-5363
mul	-5364
▁resil	-5365
▁surround	-5366
▁late	-5367
Integer	-5368
▁threat	-5369
Click	-5370
▁never	-5371
▁monitoring	-5372
▁milit	-5373
▁prepar	-5374
BLOCK	-5375
▁`    ``	-5376
ROM	-5377
XXXX	-5378
▁selection	-5379
▁reliable	-5380
car	-5381
iers	-5382
rest	-5383
control	-5384
▁creation	-5385
▁responses	-5386
ango	-5387
ellig	-5388
custom	-5389
▁responsible	-5390
▁interactions	-5391
enn	-5392
rier	-5393
NE	-5394
▁(*	-5395
ancel	-5396
▁insert	-5397
▁Rem	-5398
big	-5399
▁IO	-5400
iment	-5401
▁mo	-5402
email	-5403
Calcul	-5404
anes	-5405
rome	-5406
▁spread	-5407
RI	-5408
▁/>	-5409
relation	-5410
▁container	-5411
▁intr	-5412
"],	-5413
▁button	-5414
Non	-5415
▁house	-5416
▁horizontal	-5417
▁little	-5418
▁Out	-5419
Down	-5420
fields	-5421
LINE	-5422
alysis	-5423
toString	-5424
▁construction	-5425
),(	-5426
▁Furthermore	-5427
▁player	-5428
rowser	-5429
bits	-5430
▁'./	-5431
▁Cor	-5432
job	-5433
▁repl	-5434
▁bottom	-5435
lications	-5436
▁applicable	-5437
strial	-5438
▁therm	-5439
planation	-5440
ened	-5441
▁neuro	-5442
▁derivative	-5443
schema	-5444
SY	-5445
▁emphasizes	-5446
▁});	-5447
▁regul	-5448
ND	-5449
PC	-5450
thern	-5451
Mock	-5452
▁shif	-5453
▁supply	-5454
Account	-5455
Open	-5456
metadata	-5457
Stack	-5458
EC	-5459
▁city	-5460
▁awareness	-5461
▁restrict	-5462
▁reduction	-5463
lang	-5464
▁Min	-5465
▁ideal	-5466
▁λ	-5467
▁investment	-5468
▁Const	-5469
ASSERT	-5470
irr	-5471
▁extensive	-5472
▁away	-5473
▁cognitive	-5474
Total	-5475
amm	-5476
▁genetic	-5477
▁enum	-5478
▁determined	-5479
ACT	-5480
▁AND	-5481
▁lett	-5482
▁namespace	-5483
icensed	-5484
istical	-5485
▁planning	-5486
▁Afric	-5487
Ag	-5488
▁extended	-5489
▁respectively	-5490
NV	-5491
▁contributes	-5492
▁industry	-5493
▁transition	-5494
Ok	-5495
Settings	-5496
orph	-5497
▁Dep	-5498
▁relation	-5499
#!/	-5500
pping	-5501
▁Version	-5502
(!	-5503
chain	-5504
pm	-5505
▁trust	-5506
cap	-5507
▁holds	-5508
forward	-5509
mail	-5510
▁Apache	-5511
▁hash	-5512
abet	-5513
▁Intern	-5514
▁];	-5515
PFNGL	-5516
meta	-5517
cfg	-5518
▁requirements	-5519
END	-5520
▁acknow	-5521
urb	-5522
▁mit	-5523
Mon	-5524
▁platforms	-5525
aved	-5526
LECT	-5527
▁WITH	-5528
oto	-5529
unt	-5530
ades	-5531
"`	-5532
Job	-5533
success	-5534
ike	-5535
▁returned	-5536
stop	-5537
▁Base	-5538
ogen	-5539
▁Oct	-5540
lor	-5541
▁fmt	-5542
CHECK	-5543
jac	-5544
▁young	-5545
SA	-5546
▁release	-5547
urred	-5548
▁story	-5549
gt	-5550
▁hydro	-5551
▁lar	-5552
▁categ	-5553
sem	-5554
game	-5555
▁seed	-5556
▁psychological	-5557
▁heav	-5558
vas	-5559
▁assume	-5560
aker	-5561
ecause	-5562
ometimes	-5563
▁complic	-5564
▁fru	-5565
unwrap	-5566
}-	-5567
Here	-5568
▁env	-5569
▁inside	-5570
Delta	-5571
crate	-5572
▁dest	-5573
▁attack	-5574
JSON	-5575
▁specifically	-5576
▁minimal	-5577
▁vit	-5578
effect	-5579
Operation	-5580
ixel	-5581
cores	-5582
▁mathematics	-5583
.”	-5584
ervation	-5585
▁basis	-5586
▁train	-5587
Use	-5588
______	-5589
▁measured	-5590
▁architect	-5591
ilos	-5592
ifications	-5593
flags	-5594
▁religious	-5595
▁characteristics	-5596
/(	-5597
sted	-5598
ume	-5599
▁enough	-5600
▁foundation	-5601
▁precision	-5602
▁squares	-5603
▁samples	-5604
▁subtract	-5605
HER	-5606
\":	-5607
▁running	-5608
▁Mod	-5609
standing	-5610
Ident	-5611
                	-5612
clone	-5613
greg	-5614
▁extract	-5615
Mark	-5616
▁har	-5617
▁theore	-5618
."""	-5619
▁spaces	-5620
▁req	-5621
▁joint	-5622
▁solving	-5623
ommune	-5624
enance	-5625
▁seeking	-5626
▁technique	-5627
▁fib	-5628
▁authent	-5629
urface	-5630
sider	-5631
ho	-5632
('/	-5633
▁decisions	-5634
▁repeated	-5635
▁isinstance	-5636
Inst	-5637
▁member	-5638
▁divisible	-5639
▁fill	-5640
▁thus	-5641
ifest	-5642
▁score	-5643
▁interaction	-5644
gu	-5645
▁Time	-5646
inally	-5647
▁taking	-5648
EMA	-5649
▁More	-5650
Storage	-5651
den	-5652
fit	-5653
▁tit	-5654
▁Mar	-5655
nections	-5656
PT	-5657
▁stability	-5658
▁increasingly	-5659
Document	-5660
▁bin	-5661
▁tend	-5662
▁private	-5663
GO	-5664
orial	-5665
▁"<	-5666
▁fast	-5667
▁military	-5668
urity	-5669
▁fem	-5670
Me	-5671
Comp	-5672
feature	-5673
*)	-5674
||	-5675
▁AR	-5676
SION	-5677
REG	-5678
cut	-5679
▁Fr	-5680
dest	-5681
iffer	-5682
▁absolute	-5683
delta	-5684
▁powerful	-5685
Product	-5686
▁stop	-5687
▁notable	-5688
▁II	-5689
▁send	-5690
▁Inc	-5691
▁circum	-5692
omb	-5693
fold	-5694
andard	-5695
▁periods	-5696
headers	-5697
▁accum	-5698
password	-5699
▁behavi	-5700
▁institutions	-5701
amily	-5702
▁split	-5703
operation	-5704
▁enable	-5705
allest	-5706
▁liqu	-5707
Active	-5708
▁io	-5709
▁chain	-5710
,”	-5711
$('	-5712
▁rows	-5713
Parameters	-5714
▁expressions	-5715
▁populations	-5716
▁biological	-5717
▁protection	-5718
queue	-5719
▁miles	-5720
▁reflecting	-5721
)-	-5722
Rule	-5723
▁website	-5724
Record	-5725
▁phenomen	-5726
si	-5727
ODO	-5728
itors	-5729
▁things	-5730
bi	-5731
properties	-5732
css	-5733
▁Two	-5734
ANTIES	-5735
▁rob	-5736
▁comment	-5737
▁formation	-5738
inf	-5739
safe	-5740
▁landsc	-5741
ohn	-5742
▁background	-5743
▁profession	-5744
allet	-5745
▁Supp	-5746
▁[[	-5747
children	-5748
▁Graph	-5749
▁reduces	-5750
internal	-5751
Sw	-5752
▁metab	-5753
▁exercise	-5754
SQL	-5755
▁dry	-5756
▁mechanism	-5757
▁Rs	-5758
usr	-5759
▁stored	-5760
After	-5761
PUT	-5762
reme	-5763
rout	-5764
napshot	-5765
labels	-5766
ivil	-5767
▁therefore	-5768
orders	-5769
SO	-5770
loader	-5771
▁dedicated	-5772
▁establish	-5773
▁HT	-5774
Configuration	-5775
▁Tri	-5776
(((	-5777
ynamic	-5778
▁Str	-5779
▁allowed	-5780
=[	-5781
▁sustainable	-5782
▁achieved	-5783
▁TODO	-5784
handler	-5785
▁suggesting	-5786
Enc	-5787
▁dict	-5788
▁calculations	-5789
▁auto	-5790
resolve	-5791
▁deeply	-5792
ission	-5793
ocal	-5794
irth	-5795
serial	-5796
▁conventional	-5797
▁uniform	-5798
▁deviation	-5799
▁Chapter	-5800
------------	-5801
making	-5802
▁notice	-5803
which	-5804
fmt	-5805
▁vertices	-5806
UD	-5807
Bytes	-5808
▁plants	-5809
▁WARRANTIES	-5810
▁Table	-5811
▁placed	-5812
▁instruction	-5813
▁mock	-5814
▁trig	-5815
▁outcome	-5816
Bar	-5817
▁Other	-5818
uk	-5819
▁answers	-5820
▁profound	-5821
linear	-5822
▁Spec	-5823
sigma	-5824
▁chart	-5825
▁_,	-5826
jango	-5827
▁solid	-5828
▁};	-5829
osing	-5830
ups	-5831
Ke	-5832
▁db	-5833
▁wire	-5834
▁insight	-5835
pyx	-5836
▁unknown	-5837
▁culture	-5838
gricult	-5839
▁Sy	-5840
▁improving	-5841
":"	-5842
sim	-5843
▁Mon	-5844
▁possess	-5845
▁Read	-5846
player	-5847
▁duration	-5848
▁experiment	-5849
▁Name	-5850
ca	-5851
ressed	-5852
▁beginning	-5853
▁supplement	-5854
MIN	-5855
help	-5856
ECT	-5857
▁Cal	-5858
▁integrated	-5859
▁enhanced	-5860
Grid	-5861
sequence	-5862
License	-5863
▁discussion	-5864
)));	-5865
▁api	-5866
▁Ab	-5867
▁blue	-5868
▁stim	-5869
▁uncert	-5870
ners	-5871
craft	-5872
▁My	-5873
▁Sm	-5874
▁really	-5875
ipment	-5876
▁batch	-5877
▁recovery	-5878
▁quantity	-5879
▁innovation	-5880
▁",	-5881
▁optional	-5882
▁said	-5883
ictionary	-5884
▁focused	-5885
osp	-5886
▁drawn	-5887
equals	-5888
▁logic	-5889
▁therapy	-5890
ino	-5891
>();	-5892
▁pages	-5893
▁raw	-5894
▁pick	-5895
▁contexts	-5896
Variable	-5897
▁Calculate	-5898
gre	-5899
▁perspective	-5900
png	-5901
▁formed	-5902
▁causes	-5903
Sec	-5904
Location	-5905
Names	-5906
▁Tra	-5907
odies	-5908
ellow	-5909
errors	-5910
▁explain	-5911
▁belief	-5912
[-	-5913
▁CA	-5914
▁Jul	-5915
▁healthy	-5916
PROPER	-5917
IAL	-5918
Func	-5919
▁managing	-5920
▁obtained	-5921
 =	-5922
ICE	-5923
▁confir	-5924
=-	-5925
Connection	-5926
▁integrity	-5927
ilon	-5928
▁edges	-5929
▁letters	-5930
FE	-5931
ridge	-5932
▁however	-5933
mount	-5934
▁mask	-5935
▁money	-5936
▁bacter	-5937
▁compare	-5938
▁built	-5939
▁RedstoneWire	-5940
Json	-5941
▁middle	-5942
▁pow	-5943
Policy	-5944
EMAIL	-5945
▁carry	-5946
▁postnummer	-5947
▁directory	-5948
▁closed	-5949
Kode	-5950
Kommune	-5951
Postnummer	-5952
KommuneKode	-5953
▁Sw	-5954
ighest	-5955
▁perfect	-5956
Poststed	-5957
▁customer	-5958
istr	-5959
▁bra	-5960
▁music	-5961
▁performed	-5962
▁likelihood	-5963
BE	-5964
rary	-5965
▁Jan	-5966
▁diagram	-5967
leq	-5968
seq	-5969
omain	-5970
rf	-5971
reset	-5972
Port	-5973
▁describe	-5974
▁File	-5975
▁numerous	-5976
imit	-5977
▁bytes	-5978
depth	-5979
ana	-5980
▁columns	-5981
▁AD	-5982
components	-5983
▁Exp	-5984
▁employed	-5985
▁tissue	-5986
edef	-5987
Vec	-5988
ateral	-5989
▁Health	-5990
▁consult	-5991
▁intellig	-5992
▁hypothesis	-5993
IGN	-5994
▁Christ	-5995
Eng	-5996
▁Gu	-5997
▁cou	-5998
▁World	-5999
▁infrastructure	-6000
▁expansion	-6001
▁coefficient	-6002
▁coordinate	-6003
▁letter	-6004
▁β	-6005
▁@@	-6006
connection	-6007
quir	-6008
}=\	-6009
adow	-6010
tensor	-6011
▁technologies	-6012
▁separate	-6013
▁wait	-6014
▁specialized	-6015
▁Germ	-6016
▁characterized	-6017
Properties	-6018
simp	-6019
▁engaging	-6020
dimensional	-6021
rum	-6022
uous	-6023
▁atmos	-6024
Msg	-6025
urally	-6026
wd	-6027
arith	-6028
augh	-6029
▁representing	-6030
cb	-6031
Opt	-6032
▁West	-6033
.*	-6034
ithy	-6035
storage	-6036
▁Self	-6037
gex	-6038
▁signs	-6039
▁stack	-6040
ley	-6041
▁rise	-6042
▁procedure	-6043
NG	-6044
▁surg	-6045
objects	-6046
dates	-6047
▁positions	-6048
▁highlighting	-6049
▁÷	-6050
▁journey	-6051
▁country	-6052
▁room	-6053
▁tell	-6054
_;	-6055
▁capital	-6056
ARY	-6057
ixture	-6058
osen	-6059
COL	-6060
PAR	-6061
selves	-6062
Given	-6063
▁visible	-6064
▁"\	-6065
▁alter	-6066
▁RE	-6067
▁bur	-6068
▁goals	-6069
▁today	-6070
Stairs	-6071
▁desired	-6072
▁…	-6073
▁msg	-6074
▁consistently	-6075
▁ord	-6076
▁charg	-6077
▁comes	-6078
ipped	-6079
▁receive	-6080
▁delivery	-6081
Returns	-6082
▁living	-6083
Debug	-6084
FS	-6085
▁easily	-6086
dy	-6087
   	-6088
▁front	-6089
Head	-6090
▁imm	-6091
▁implied	-6092
▁nor	-6093
PROPERTY	-6094
FFFF	-6095
ASS	-6096
nodes	-6097
▁requiring	-6098
▁Problem	-6099
NOT	-6100
▁official	-6101
▁underscores	-6102
▁opportunities	-6103
OW	-6104
▁camp	-6105
▁dog	-6106
▁societ	-6107
▁electrical	-6108
Mem	-6109
▁(`	-6110
▁Brit	-6111
▁engineering	-6112
▁PRO	-6113
▁wrong	-6114
▁philos	-6115
Schema	-6116
limit	-6117
uri	-6118
▁save	-6119
words	-6120
vents	-6121
Que	-6122
Helper	-6123
fail	-6124
▁secure	-6125
iam	-6126
Metadata	-6127
Controller	-6128
#####	-6129
▁er	-6130
▁tf	-6131
▁Similarly	-6132
▁Car	-6133
▁header	-6134
ponential	-6135
▁experienced	-6136
▁vul	-6137
imeters	-6138
Long	-6139
kens	-6140
pair	-6141
▁delete	-6142
ools	-6143
exception	-6144
temporary	-6145
▁Instead	-6146
▁Common	-6147
▁depending	-6148
stroy	-6149
▁society	-6150
▁promote	-6151
▁Index	-6152
▁detection	-6153
▁rich	-6154
▁topic	-6155
▁permissions	-6156
elines	-6157
CONF	-6158
wait	-6159
dataset	-6160
▁begins	-6161
▁purch	-6162
▁notes	-6163
cient	-6164
▁GLenum	-6165
score	-6166
vue	-6167
Reader	-6168
Menu	-6169
under	-6170
▁mm	-6171
gy	-6172
▁During	-6173
SU	-6174
Meta	-6175
▁big	-6176
IPT	-6177
▁pul	-6178
▁})	-6179
▁ideas	-6180
▁nearly	-6181
▁signals	-6182
▁muscle	-6183
▁colle	-6184
▁temp	-6185
▁Vari	-6186
▁largest	-6187
ificate	-6188
Template	-6189
▁ctx	-6190
losure	-6191
ulas	-6192
▁reinfor	-6193
▁reaction	-6194
ById	-6195
▁Phys	-6196
parameters	-6197
▁governing	-6198
▁spiritual	-6199
▁intervention	-6200
\$	-6201
bb	-6202
▁live	-6203
▁criter	-6204
Bl	-6205
▁deploy	-6206
Temp	-6207
▁drop	-6208
rq	-6209
!!	-6210
▁quickly	-6211
▁roles	-6212
▁Once	-6213
▁consequ	-6214
▁KEY	-6215
Provincia	-6216
lemma	-6217
Reference	-6218
IGHT	-6219
dot	-6220
anger	-6221
execute	-6222
Ge	-6223
▁updated	-6224
▁feedback	-6225
_[	-6226
catch	-6227
framework	-6228
▁Val	-6229
DI	-6230
▁AI	-6231
▁plus	-6232
▁Ac	-6233
anted	-6234
▁scope	-6235
iler	-6236
oader	-6237
ventions	-6238
▁noted	-6239
iences	-6240
▁favor	-6241
That	-6242
▁recip	-6243
loop	-6244
▁serious	-6245
]),	-6246
▁industrial	-6247
▁records	-6248
▁bond	-6249
▁Id	-6250
yes	-6251
▁hyper	-6252
ada	-6253
Double	-6254
mic	-6255
git	-6256
ampling	-6257
▁successful	-6258
SELECT	-6259
▁detail	-6260
othing	-6261
▁Under	-6262
▁Text	-6263
▁stands	-6264
▁sys	-6265
protobuf	-6266
modules	-6267
▁demands	-6268
▁keys	-6269
slice	-6270
▁estimate	-6271
Kind	-6272
▁war	-6273
▁outside	-6274
(){	-6275
()).	-6276
Props	-6277
▁passed	-6278
PU	-6279
▁absor	-6280
▁cache	-6281
▁rele	-6282
▁driven	-6283
▁contributed	-6284
track	-6285
▁highlights	-6286
}>	-6287
conn	-6288
()))	-6289
DIT	-6290
▁dimension	-6291
rand	-6292
▁category	-6293
▁magnitude	-6294
Byte	-6295
▁Sep	-6296
cover	-6297
▁sal	-6298
▁consists	-6299
UID	-6300
▁European	-6301
▁magnetic	-6302
▁professionals	-6303
Cre	-6304
▁countries	-6305
▁setup	-6306
++;	-6307
^{\	-6308
anner	-6309
,-	-6310
DES	-6311
cho	-6312
iological	-6313
▁etc	-6314
▁candid	-6315
▁absence	-6316
>',	-6317
Render	-6318
imation	-6319
rev	-6320
ado	-6321
▁lbs	-6322
ij	-6323
Impl	-6324
udio	-6325
▁missing	-6326
CRIPT	-6327
▁geometry	-6328
▁idx	-6329
ifact	-6330
▁immediate	-6331
▁quadratic	-6332
▁[];	-6333
▁embed	-6334
▁Write	-6335
▁Any	-6336
▁inputs	-6337
NT	-6338
rices	-6339
Can	-6340
▁continues	-6341
▁bill	-6342
▁explicit	-6343
NC	-6344
Found	-6345
▁capabilities	-6346
structions	-6347
symbol	-6348
▁immune	-6349
ament	-6350
selected	-6351
Expr	-6352
▁reject	-6353
_(	-6354
embed	-6355
iling	-6356
▁remote	-6357
▁animals	-6358
▁recognition	-6359
ua	-6360
tests	-6361
▁mount	-6362
rage	-6363
decode	-6364
▁networks	-6365
▁TH	-6366
win	-6367
▁package	-6368
Ne	-6369
▁transmission	-6370
▁Hel	-6371
Multi	-6372
assign	-6373
▁encounter	-6374
▁diss	-6375
conv	-6376
circ	-6377
▁persistent	-6378
▁ing	-6379
▁rank	-6380
ipal	-6381
ocket	-6382
category	-6383
▁teaching	-6384
▁income	-6385
▁Pat	-6386
▁highest	-6387
▁usage	-6388
▁bul	-6389
have	-6390
predict	-6391
ws	-6392
wner	-6393
▁entity	-6394
CU	-6395
▁became	-6396
▁multipl	-6397
▁prove	-6398
sheets	-6399
▁▁▁▁▁	-6400
▁piece	-6401
licenses	-6402
▁Ag	-6403
▁situation	-6404
▁Science	-6405
webkit	-6406
▁compan	-6407
▁vision	-6408
Root	-6409
▁famil	-6410
▁attribute	-6411
▁μ	-6412
▁Software	-6413
▁reserved	-6414
▁wind	-6415
▁dataset	-6416
▁Open	-6417
▁removed	-6418
▁vehicle	-6419
Po	-6420
eval	-6421
▁behaviors	-6422
▁animal	-6423
▁motor	-6424
▁ST	-6425
erge	-6426
▁electron	-6427
Decl	-6428
Idle	-6429
▁Ste	-6430
▁distingu	-6431
▁occurred	-6432
IVE	-6433
See	-6434
▁vulner	-6435
▁dx	-6436
▁shapes	-6437
none	-6438
▁resilience	-6439
▁usually	-6440
fficients	-6441
Timeout	-6442
atin	-6443
▁operating	-6444
▁differential	-6445
▁topics	-6446
▁kin	-6447
▁proportion	-6448
▁⟨	-6449
bose	-6450
▁Ang	-6451
▁discover	-6452
Some	-6453
Errorf	-6454
▁diameter	-6455
cluding	-6456
uzz	-6457
▁Nov	-6458
▁span	-6459
Enum	-6460
enter	-6461
testing	-6462
hedule	-6463
Collection	-6464
▁infinite	-6465
▁nullptr	-6466
▁thing	-6467
ultaneous	-6468
▁commitment	-6469
▁liquid	-6470
Project	-6471
ipl	-6472
▁User	-6473
▁classes	-6474
]))	-6475
gon	-6476
Constant	-6477
▁affected	-6478
▁mechanical	-6479
>::	-6480
CONT	-6481
▁flag	-6482
MOD	-6483
urrency	-6484
▁Run	-6485
Show	-6486
▁defin	-6487
omega	-6488
quality	-6489
▁recommend	-6490
Second	-6491
ker	-6492
▁eight	-6493
▁cook	-6494
@[	-6495
▁variety	-6496
zip	-6497
LICENSE	-6498
typedef	-6499
ao	-6500
▁doing	-6501
validate	-6502
ultiply	-6503
IA	-6504
}}$	-6505
WS	-6506
▁involve	-6507
▁held	-6508
HA	-6509
BUG	-6510
udo	-6511
▁anti	-6512
▁Method	-6513
Dr	-6514
acro	-6515
▁acknowled	-6516
▁alone	-6517
{-	-6518
report	-6519
▁promin	-6520
▁informed	-6521
▁stable	-6522
▁convers	-6523
cv	-6524
▁piv	-6525
▁applying	-6526
contains	-6527
▁parents	-6528
views	-6529
scious	-6530
▁messages	-6531
itative	-6532
GR	-6533
▁fuel	-6534
▁poor	-6535
▁rare	-6536
ante	-6537
prev	-6538
▁maintenance	-6539
DS	-6540
inity	-6541
▁Gra	-6542
▁objective	-6543
soft	-6544
tems	-6545
ying	-6546
▁themselves	-6547
▁cluster	-6548
full	-6549
▁recur	-6550
▁drawing	-6551
ellect	-6552
READ	-6553
ournal	-6554
▁General	-6555
▁revealed	-6556
▁projects	-6557
▁thinking	-6558
▁subsequent	-6559
VERSION	-6560
▁partial	-6561
▁sustained	-6562
▁limits	-6563
▁mobile	-6564
▁gene	-6565
▁urban	-6566
▁license	-6567
Dialog	-6568
>;	-6569
▁Flag	-6570
▁neigh	-6571
poses	-6572
▁finite	-6573
hi	-6574
/*!	-6575
Parent	-6576
▁successfully	-6577
▁Techn	-6578
produ	-6579
▁esc	-6580
redu	-6581
ship	-6582
▁collaboration	-6583
Logger	-6584
igration	-6585
▁choices	-6586
▁clearly	-6587
▁agricult	-6588
Face	-6589
Ret	-6590
Panel	-6591
▁lock	-6592
iately	-6593
username	-6594
organ	-6595
Compat	-6596
ided	-6597
lower	-6598
▁blocks	-6599
▁appearance	-6600
lut	-6601
ilateral	-6602
▁closely	-6603
menu	-6604
▁Aug	-6605
unique	-6606
▁∈	-6607
▁references	-6608
Pool	-6609
install	-6610
▁equipment	-6611
▁surrounding	-6612
▁board	-6613
)[	-6614
▁React	-6615
ffix	-6616
writ	-6617
▁insp	-6618
▁Map	-6619
▁robust	-6620
▁Cir	-6621
▁cardi	-6622
▁WITHOUT	-6623
▁warm	-6624
calcul	-6625
cls	-6626
▁minor	-6627
Tpetra	-6628
ensions	-6629
▁Comple	-6630
exists	-6631
layout	-6632
required	-6633
▁"%	-6634
▁caused	-6635
▁ok	-6636
images	-6637
defined	-6638
otic	-6639
▁KIND	-6640
▁extend	-6641
▁benefit	-6642
Interface	-6643
MT	-6644
NN	-6645
▁dim	-6646
▁John	-6647
scription	-6648
▁popular	-6649
▁documentation	-6650
▁War	-6651
Script	-6652
>>>	-6653
▁procedures	-6654
▁switch	-6655
▁momentum	-6656
▁thor	-6657
▁roll	-6658
holder	-6659
}$.	-6660
▁enduring	-6661
▁metric	-6662
▁Cre	-6663
▁priorit	-6664
Icon	-6665
▁respond	-6666
SL	-6667
Description	-6668
Selector	-6669
ITE	-6670
ford	-6671
▁rectangle	-6672
`)	-6673
fetch	-6674
▁particles	-6675
IX	-6676
▁glob	-6677
▁CH	-6678
▁commerc	-6679
Sk	-6680
timeout	-6681
eps	-6682
▁crate	-6683
returns	-6684
Execut	-6685
▁constraints	-6686
▁agreed	-6687
rick	-6688
BC	-6689
fg	-6690
kernel	-6691
▁fun	-6692
Ab	-6693
artment	-6694
▁influenced	-6695
agent	-6696
▁connections	-6697
▁won	-6698
▁profile	-6699
ateway	-6700
▁relatively	-6701
Ins	-6702
▁reality	-6703
pendicular	-6704
▁triangles	-6705
▁fostering	-6706
uries	-6707
▁exhibit	-6708
▁numpy	-6709
▁composition	-6710
▁bits	-6711
▁emphasizing	-6712
FORM	-6713
▁JSON	-6714
▁tables	-6715
▁Current	-6716
Title	-6717
▁truth	-6718
uestions	-6719
affe	-6720
enable	-6721
itivity	-6722
utf	-6723
▁tmp	-6724
▁moves	-6725
Sp	-6726
▁smallest	-6727
QUE	-6728
cluster	-6729
▁Algebra	-6730
TC	-6731
▁inquir	-6732
}\\	-6733
*(	-6734
OB	-6735
▁Rel	-6736
▁remainder	-6737
Nice	-6738
▁sometimes	-6739
My	-6740
pred	-6741
▁disrupt	-6742
▁promoting	-6743
icture	-6744
tri	-6745
▁Apr	-6746
▁Net	-6747
▁places	-6748
apeut	-6749
cloud	-6750
▁Just	-6751
▁novel	-6752
gression	-6753
▁jud	-6754
▁conflict	-6755
hol	-6756
▁Her	-6757
▁summary	-6758
Pat	-6759
▁reverse	-6760
Dim	-6761
vol	-6762
▁pen	-6763
▁emerged	-6764
▁cool	-6765
▁rotation	-6766
aign	-6767
▁recognize	-6768
>)	-6769
route	-6770
▁Point	-6771
▁delay	-6772
▁older	-6773
▁replace	-6774
▁Pe	-6775
▁intellect	-6776
aml	-6777
ball	-6778
▁che	-6779
issions	-6780
Area	-6781
Core	-6782
▁shaped	-6783
▁smooth	-6784
▁everyday	-6785
▁"#	-6786
▁download	-6787
▁interpretation	-6788
ama	-6789
Therefore	-6790
Then	-6791
▁advoc	-6792
Tab	-6793
▁balanced	-6794
▁slight	-6795
uent	-6796
QU	-6797
▁utf	-6798
▁initiatives	-6799
▁strings	-6800
▁theoretical	-6801
▁lot	-6802
RC	-6803
Region	-6804
ads	-6805
▁intent	-6806
OC	-6807
specific	-6808
ocker	-6809
region	-6810
println	-6811
Rest	-6812
▁win	-6813
application	-6814
NUM	-6815
xid	-6816
ework	-6817
▁Fra	-6818
equality	-6819
dp	-6820
});	-6821
after	-6822
▁wild	-6823
▁someone	-6824
▁handling	-6825
▁exchange	-6826
▁Mathematics	-6827
hexrays	-6828
▁moral	-6829
▁exploration	-6830
▁weeks	-6831
typename	-6832
▁began	-6833
▁mitig	-6834
▁react	-6835
FR	-6836
plt	-6837
users	-6838
▁enabled	-6839
spring	-6840
logging	-6841
iated	-6842
▁strug	-6843
▁players	-6844
▁North	-6845
▁ancient	-6846
arnings	-6847
▁Theorem	-6848
▁univers	-6849
▁dark	-6850
▁Found	-6851
ourt	-6852
orous	-6853
▁click	-6854
atistics	-6855
▁assigned	-6856
hing	-6857
%.	-6858
Flags	-6859
ailability	-6860
MAT	-6861
ascular	-6862
olar	-6863
appro	-6864
ipher	-6865
▁clock	-6866
▁Prime	-6867
>&	-6868
▁occup	-6869
▁annual	-6870
▁vacc	-6871
▁challenging	-6872
▁concentration	-6873
▁contemporary	-6874
jacent	-6875
▁extreme	-6876
ercises	-6877
essel	-6878
▁Even	-6879
▁fish	-6880
sn	-6881
▁unsigned	-6882
▁simultaneous	-6883
Irq	-6884
Descriptor	-6885
▁nutri	-6886
▁Default	-6887
▁Linear	-6888
▁lab	-6889
]='	-6890
▁geometric	-6891
▁eye	-6892
wards	-6893
▁deb	-6894
PP	-6895
tool	-6896
▁statistical	-6897
▁proposed	-6898
ycle	-6899
invalid	-6900
▁Of	-6901
``````	-6902
▁temperatures	-6903
▁immediately	-6904
(()	-6905
▁Law	-6906
▁Code	-6907
rich	-6908
▁''	-6909
exist	-6910
▁kilograms	-6911
▁Show	-6912
pattern	-6913
chunk	-6914
▁season	-6915
▁execution	-6916
▁Build	-6917
▁seven	-6918
▁byte	-6919
▁library	-6920
▁aimed	-6921
exec	-6922
▁great	-6923
▁android	-6924
▁named	-6925
mid	-6926
▁[],	-6927
features	-6928
▁discipl	-6929
▁contributions	-6930
secut	-6931
▁acqu	-6932
▁tensor	-6933
▁thousand	-6934
▁landscape	-6935
Pay	-6936
[:,	-6937
▁creative	-6938
▁sexual	-6939
tc	-6940
ether	-6941
▁demonstrate	-6942
FT	-6943
▁paint	-6944
▁aspects	-6945
▁dir	-6946
ederal	-6947
ifdef	-6948
▁clarity	-6949
connected	-6950
sr	-6951
▁completed	-6952
generate	-6953
fc	-6954
ils	-6955
▁sorted	-6956
▁eg	-6957
▁Sp	-6958
▁civil	-6959
▁numerical	-6960
INTER	-6961
sync	-6962
arter	-6963
▁attributes	-6964
▁{"	-6965
▁looking	-6966
▁Equations	-6967
EB	-6968
STATUS	-6969
▁chronic	-6970
apeutic	-6971
▁{};	-6972
Global	-6973
gpu	-6974
prim	-6975
▁Mark	-6976
▁gamma	-6977
Keys	-6978
groups	-6979
▁calls	-6980
atial	-6981
ishes	-6982
▁verify	-6983
▁cov	-6984
▁remained	-6985
▁sequences	-6986
▁BAS	-6987
▁statistics	-6988
compass	-6989
cosystem	-6990
lear	-6991
▁extension	-6992
HTTP	-6993
bash	-6994
uman	-6995
▁Comp	-6996
▁Optional	-6997
Queue	-6998
login	-6999
xygen	-7000
UPDATE	-7001
complete	-7002
ran	-7003
<'	-7004
archar	-7005
classes	-7006
Close	-7007
▁particle	-7008
▁consequences	-7009
▁authors	-7010
▁Feb	-7011
▁pan	-7012
Enabled	-7013
▁divers	-7014
▁Public	-7015
` `	-7016
▁South	-7017
▁High	-7018
▁resist	-7019
▁dietary	-7020
▁assist	-7021
▁authority	-7022
▁nan	-7023
▁coefficients	-7024
|\	-7025
FACE	-7026
FC	-7027
plugin	-7028
stats	-7029
%,	-7030
")]	-7031
sed	-7032
▁du	-7033
▁trade	-7034
docs	-7035
iding	-7036
policy	-7037
urance	-7038
▁physics	-7039
grade	-7040
▁arrange	-7041
▁Such	-7042
▁International	-7043
▁Through	-7044
gb	-7045
Http	-7046
cluded	-7047
▁automatically	-7048
Vertex	-7049
▁serving	-7050
▁Multi	-7051
traction	-7052
▁append	-7053
jpg	-7054
oted	-7055
widget	-7056
▁depart	-7057
ummy	-7058
▁emphasized	-7059
nat	-7060
▁exc	-7061
▁calculating	-7062
tools	-7063
▁stock	-7064
▁mirr	-7065
ARB	-7066
▁batter	-7067
Jo	-7068
▁purposes	-7069
fr	-7070
icode	-7071
itution	-7072
▁helping	-7073
ultiple	-7074
Items	-7075
▁eigen	-7076
▁Another	-7077
▁password	-7078
}]	-7079
anguages	-7080
▁varchar	-7081
Cert	-7082
mber	-7083
▁dro	-7084
▁thorough	-7085
▁intake	-7086
▁families	-7087
▁alloc	-7088
Crs	-7089
▁decline	-7090
▁Post	-7091
▁generation	-7092
▁addressing	-7093
▁beneficial	-7094
▁adults	-7095
{(	-7096
when	-7097
▁pal	-7098
▁'.	-7099
▁measurements	-7100
iny	-7101
wide	-7102
▁cards	-7103
gan	-7104
▁flat	-7105
Transaction	-7106
ributed	-7107
▁routine	-7108
attribute	-7109
attributes	-7110
high	-7111
irtual	-7112
▁Excel	-7113
``        ``	-7114
▁sn	-7115
_{\	-7116
▁Factor	-7117
▁observations	-7118
()),	-7119
▁thick	-7120
▁faster	-7121
▁portion	-7122
▁Oper	-7123
▁push	-7124
metry	-7125
virtual	-7126
water	-7127
▁Group	-7128
▁trees	-7129
ILITY	-7130
prec	-7131
Env	-7132
▁lesson	-7133
▁reliability	-7134
DC	-7135
ouch	-7136
=`	-7137
NET	-7138
bounds	-7139
engine	-7140
flag	-7141
▁naturally	-7142
ico	-7143
▁alignment	-7144
▁easier	-7145
▁transc	-7146
▁builder	-7147
▁enjo	-7148
▁native	-7149
▁template	-7150
▁invalid	-7151
▁copyright	-7152
▁ecosystem	-7153
TS	-7154
execut	-7155
GB	-7156
nel	-7157
▁DNA	-7158
olid	-7159
▁contract	-7160
▁molecular	-7161
Rect	-7162
MODE	-7163
ees	-7164
available	-7165
background	-7166
▁modul	-7167
▁impl	-7168
▁Second	-7169
payload	-7170
ollowing	-7171
zon	-7172
▁anxi	-7173
ostic	-7174
iliar	-7175
urations	-7176
▁gather	-7177
▁Count	-7178
timestamp	-7179
▁hot	-7180
cu	-7181
▁achieving	-7182
Struct	-7183
kind	-7184
▁belong	-7185
▁film	-7186
bability	-7187
▁Functions	-7188
▁(\	-7189
record	-7190
▁typical	-7191
▁MA	-7192
cope	-7193
▁Model	-7194
.</	-7195
achment	-7196
▁shifts	-7197
▁serial	-7198
rd	-7199
convert	-7200
deg	-7201
ferences	-7202
DITIONS	-7203
▁composed	-7204
blems	-7205
▁cyl	-7206
essions	-7207
▁neut	-7208
▁targeted	-7209
▁tum	-7210
throws	-7211
rench	-7212
▁asked	-7213
cludes	-7214
ocr	-7215
▁infection	-7216
▁goes	-7217
hidden	-7218
▁resolve	-7219
▁technological	-7220
inputs	-7221
▁threshold	-7222
▁cmd	-7223
▁recorded	-7224
▁games	-7225
Init	-7226
▁tailored	-7227
Shape	-7228
▁describes	-7229
▁capac	-7230
▁dimin	-7231
▁comfort	-7232
rust	-7233
▁BASIS	-7234
▁sector	-7235
UND	-7236
▁regression	-7237
ola	-7238
▁marks	-7239
AA	-7240
shift	-7241
typeof	-7242
dc	-7243
▁arithmetic	-7244
Async	-7245
▁Vec	-7246
▁perceived	-7247
▁Educ	-7248
▁virtual	-7249
=${	-7250
fp	-7251
aper	-7252
) 	-7253
ested	-7254
▁CONDITIONS	-7255
▁conv	-7256
tan	-7257
▁▁▁▁▁▁▁	-7258
Edit	-7259
▁cubic	-7260
▁Additional	-7261
▁properly	-7262
▁perpendicular	-7263
▁policies	-7264
▁hands	-7265
▁retrie	-7266
▁Err	-7267
Before	-7268
________________	-7269
▁centers	-7270
Custom	-7271
▁survival	-7272
▁programming	-7273
▁waste	-7274
trace	-7275
▁excessive	-7276
, 	-7277
aph	-7278
Side	-7279
While	-7280
▁foods	-7281
▁grade	-7282
▁formulas	-7283
cout	-7284
▁showing	-7285
▁sole	-7286
cpy	-7287
events	-7288
found	-7289
icity	-7290
ometers	-7291
umin	-7292
ceive	-7293
▁movements	-7294
▁therapeutic	-7295
(".	-7296
Memory	-7297
▁Bo	-7298
▁tut	-7299
▁metal	-7300
▁integrating	-7301
▁ago	-7302
life	-7303
Selection	-7304
▁dividing	-7305
Expression	-7306
▁freed	-7307
▁measuring	-7308
▁reflection	-7309
!("	-7310
Has	-7311
▁provider	-7312
El	-7313
▁Isl	-7314
▁Service	-7315
▁numerator	-7316
▁explanation	-7317
ear	-7318
orter	-7319
otient	-7320
tab	-7321
▁'\	-7322
▁initiative	-7323
▁advantages	-7324
▁leadership	-7325
abric	-7326
▁`(	-7327
▁nutr	-7328
▁medium	-7329
▁floor	-7330
▁titled	-7331
▁Aut	-7332
ibilities	-7333
=$(	-7334
▁India	-7335
▁sites	-7336
▁Questions	-7337
pk	-7338
VID	-7339
▁veget	-7340
▁please	-7341
cus	-7342
▁commercial	-7343
cursor	-7344
dst	-7345
ONE	-7346
abetes	-7347
pow	-7348
home	-7349
▁Licensed	-7350
Sync	-7351
memory	-7352
▁encouraged	-7353
▁regardless	-7354
▁SET	-7355
LAST	-7356
bmatrix	-7357
Av	-7358
hab	-7359
plement	-7360
decl	-7361
▁colors	-7362
sb	-7363
▁lo	-7364
▁twice	-7365
▁views	-7366
TIME	-7367
▁Web	-7368
manager	-7369
road	-7370
▁bird	-7371
stderr	-7372
gi	-7373
OLD	-7374
▁URL	-7375
▁entries	-7376
digit	-7377
▁complement	-7378
▁cele	-7379
▁mixed	-7380
▁ON	-7381
Auth	-7382
ulumi	-7383
ermine	-7384
MD	-7385
ams	-7386
▁whe	-7387
▁intellectual	-7388
▁teachers	-7389
▁exponential	-7390
▁addresses	-7391
▁sq	-7392
()));	-7393
▁cube	-7394
smithy	-7395
▁chosen	-7396
sued	-7397
▁prolong	-7398
USE	-7399
itis	-7400
▁variance	-7401
▁multiplying	-7402
▁manip	-7403
ette	-7404
csv	-7405
▁orient	-7406
▁jav	-7407
Track	-7408
entials	-7409
ORY	-7410
opts	-7411
▁largely	-7412
LS	-7413
Doc	-7414
coe	-7415
dl	-7416
tip	-7417
▁alpha	-7418
skip	-7419
▁oxygen	-7420
EV	-7421
plicate	-7422
▁ethical	-7423
Pe	-7424
)"	-7425
stood	-7426
ussian	-7427
▁TR	-7428
▁grams	-7429
: 	-7430
Feature	-7431
constructor	-7432
leted	-7433
forEach	-7434
ibly	-7435
▁hair	-7436
rase	-7437
Transform	-7438
('.	-7439
▁antib	-7440
▁pool	-7441
ustral	-7442
Definition	-7443
▁schools	-7444
▁earth	-7445
▁criteria	-7446
▁Control	-7447
▁requests	-7448
arest	-7449
VA	-7450
clean	-7451
UNT	-7452
socket	-7453
toBe	-7454
▁Desc	-7455
▁variation	-7456
▁accomp	-7457
▁documented	-7458
▁focusing	-7459
▁intelligence	-7460
tags	-7461
▁isn	-7462
Another	-7463
Sm	-7464
▁says	-7465
before	-7466
Success	-7467
▁lasting	-7468
Engine	-7469
"},	-7470
▁shaping	-7471
Pref	-7472
imately	-7473
notation	-7474
▁resolution	-7475
cancel	-7476
▁Input	-7477
.\	-7478
▁Many	-7479
profile	-7480
▁evolving	-7481
Draw	-7482
▁anxiety	-7483
▁IP	-7484
▁birth	-7485
▁ice	-7486
▁weak	-7487
describe	-7488
▁Promise	-7489
▁transaction	-7490
"\	-7491
uary	-7492
▁Power	-7493
▁confirm	-7494
▁Jap	-7495
created	-7496
▁craft	-7497
LI	-7498
▁skip	-7499
▁lens	-7500
BD	-7501
setup	-7502
These	-7503
Network	-7504
▁logarith	-7505
▁functionality	-7506
ira	-7507
▁regulatory	-7508
POST	-7509
border	-7510
erialize	-7511
▁stages	-7512
▁British	-7513
lat	-7514
▁Ext	-7515
▁visit	-7516
▁abstract	-7517
Writer	-7518
▁reson	-7519
("/	-7520
sizeof	-7521
▁evaluated	-7522
ala	-7523
▁Node	-7524
Copy	-7525
commit	-7526
▁Program	-7527
▁SE	-7528
attle	-7529
serve	-7530
▁drive	-7531
Profile	-7532
urt	-7533
writer	-7534
▁perception	-7535
▁SQL	-7536
uchos	-7537
▁advantage	-7538
▁prep	-7539
▁showed	-7540
mma	-7541
▁>::	-7542
▁gold	-7543
equation	-7544
▁encompass	-7545
▁Art	-7546
Rad	-7547
▁Unit	-7548
screen	-7549
▁Area	-7550
▁wood	-7551
antic	-7552
▁farm	-7553
▁inequality	-7554
oses	-7555
▁night	-7556
▁prominent	-7557
▁observation	-7558
orse	-7559
tk	-7560
ERS	-7561
site	-7562
▁interventions	-7563
▁manufacturing	-7564
▁correctly	-7565
▁selecting	-7566
dem	-7567
▁actively	-7568
RECT	-7569
claim	-7570
Send	-7571
ilk	-7572
▁layers	-7573
▁lengths	-7574
▁datetime	-7575
Widget	-7576
__,	-7577
▁Start	-7578
▁Config	-7579
Application	-7580
▁peak	-7581
webpack	-7582
requency	-7583
▁tangent	-7584
pkg	-7585
▁-=	-7586
assertTrue	-7587
▁algorithms	-7588
▁transl	-7589
▁fix	-7590
▁Students	-7591
▁radiation	-7592
▁gravity	-7593
▁laws	-7594
bottom	-7595
▁Numbers	-7596
▁boundary	-7597
oly	-7598
▁virus	-7599
Len	-7600
hpp	-7601
▁fa	-7602
▁organic	-7603
▁remember	-7604
rx	-7605
igma	-7606
▁instrument	-7607
edit	-7608
▁Initial	-7609
segment	-7610
▁logical	-7611
ka	-7612
Only	-7613
DEBUG	-7614
apper	-7615
ste	-7616
▁computing	-7617
▁∠	-7618
atest	-7619
▁colon	-7620
Player	-7621
DEFAULT	-7622
▁cold	-7623
▁China	-7624
▁slightly	-7625
▁ultimately	-7626
aching	-7627
▁Square	-7628
▁correlation	-7629
HTML	-7630
▁arbit	-7631
fun	-7632
▁dialog	-7633
▁Make	-7634
▁queue	-7635
▁channels	-7636
▁dental	-7637
▁elevated	-7638
Sim	-7639
arante	-7640
▁brand	-7641
Pointer	-7642
($	-7643
▁FROM	-7644
Program	-7645
▁cast	-7646
Fields	-7647
……	-7648
Attr	-7649
▁exit	-7650
Import	-7651
▁teacher	-7652
▁maxim	-7653
▁subset	-7654
hom	-7655
('./	-7656
▁lost	-7657
▁Solutions	-7658
Div	-7659
ocab	-7660
▁leaves	-7661
▁`        ``	-7662
Ac	-7663
▁Institute	-7664
▁mal	-7665
▁adjacent	-7666
Seg	-7667
▁solar	-7668
Two	-7669
Using	-7670
▁soft	-7671
▁prefix	-7672
Boolean	-7673
▁noise	-7674
▁literature	-7675
▁King	-7676
columns	-7677
▁analyze	-7678
mov	-7679
ategy	-7680
ificial	-7681
▁Ob	-7682
▁agre	-7683
▁chapter	-7684
▁concentr	-7685
rw	-7686
▁rooted	-7687
▁Google	-7688
▁symbols	-7689
▁LO	-7690
erson	-7691
ilation	-7692
▁compat	-7693
▁mg	-7694
▁God	-7695
▁agent	-7696
▁Dig	-7697
▁disorders	-7698
cases	-7699
▁Engine	-7700
▁</	-7701
osed	-7702
Big	-7703
']['	-7704
▁matrices	-7705
▁emerging	-7706
BASE	-7707
▁intense	-7708
IE	-7709
▁proceed	-7710
bus	-7711
ipping	-7712
▁systemic	-7713
bc	-7714
▁Pract	-7715
WN	-7716
eyond	-7717
▁Java	-7718
▁existence	-7719
sion	-7720
Iterator	-7721
Space	-7722
▁Vector	-7723
▁spatial	-7724
MET	-7725
▁ring	-7726
▁NO	-7727
uard	-7728
▁frameworks	-7729
▁minus	-7730
Author	-7731
▁preval	-7732
Domain	-7733
lap	-7734
Identifier	-7735
pin	-7736
uuid	-7737
aur	-7738
▁modified	-7739
▁reasoning	-7740
oon	-7741
▁mach	-7742
▁conven	-7743
            ``	-7744
▁Ver	-7745
Plugin	-7746
▁continued	-7747
▁interactive	-7748
.",	-7749
▁frequent	-7750
icks	-7751
▁spring	-7752
tp	-7753
▁collective	-7754
BIT	-7755
▁CD	-7756
ALSE	-7757
onomy	-7758
▁inhib	-7759
sts	-7760
▁rely	-7761
▁thermal	-7762
TEXT	-7763
ffff	-7764
▁statements	-7765
oken	-7766
zone	-7767
▁AUT	-7768
ENS	-7769
ilib	-7770
▁chunk	-7771
▁lives	-7772
▁Austral	-7773
▁controlled	-7774
▁preserv	-7775
each	-7776
▁locations	-7777
phant	-7778
istent	-7779
▁foster	-7780
▁Image	-7781
▁achiev	-7782
▁claims	-7783
▁partition	-7784
etc	-7785
Media	-7786
▁attr	-7787
folder	-7788
▁objectives	-7789
▁(_	-7790
▁graphs	-7791
▁initially	-7792
some	-7793
▁instances	-7794
▁Hash	-7795
collect	-7796
pher	-7797
chart	-7798
▁hidden	-7799
▁layout	-7800
rew	-7801
arc	-7802
Trace	-7803
xs	-7804
ferred	-7805
}}{\	-7806
▁squared	-7807
▁prolonged	-7808
Self	-7809
▁cit	-7810
▁fair	-7811
ifiers	-7812
annotation	-7813
Ax	-7814
("#	-7815
▁'#	-7816
Failed	-7817
▁changed	-7818
inger	-7819
▁Project	-7820
ainty	-7821
▁composite	-7822
area	-7823
▁served	-7824
▁Free	-7825
▁acceler	-7826
▁campaign	-7827
Scale	-7828
summary	-7829
▁collected	-7830
la	-7831
asons	-7832
iable	-7833
▁Comput	-7834
CHAR	-7835
Required	-7836
▁interested	-7837
Prop	-7838
otion	-7839
▁gets	-7840
▁pure	-7841
>'	-7842
▁'../	-7843
▁although	-7844
MC	-7845
Bit	-7846
cost	-7847
▁apprec	-7848
▁brief	-7849
variables	-7850
▁circular	-7851
Router	-7852
ulating	-7853
▁companies	-7854
▁Black	-7855
▁trial	-7856
\":\"	-7857
CCESS	-7858
ulative	-7859
▁manifest	-7860
▁improvement	-7861
)):	-7862
ench	-7863
▁moist	-7864
▁reveals	-7865
strip	-7866
▁'@	-7867
padding	-7868
ULE	-7869
asm	-7870
▁Less	-7871
(|	-7872
▁experimental	-7873
▁books	-7874
▁oun	-7875
owner	-7876
▁Event	-7877
icker	-7878
▁gender	-7879
estic	-7880
▁qualified	-7881
&&	-7882
Display	-7883
▁rat	-7884
FLAG	-7885
encode	-7886
▁household	-7887
perform	-7888
Package	-7889
comment	-7890
▁Both	-7891
two	-7892
abil	-7893
▁trace	-7894
▁Also	-7895
ME	-7896
cohol	-7897
▁Maths	-7898
▁societal	-7899
rium	-7900
▁export	-7901
▁enjoy	-7902
amount	-7903
▁compounds	-7904
▁glass	-7905
initialize	-7906
▁demonstrating	-7907
▁audio	-7908
▁conclusion	-7909
▁Because	-7910
tty	-7911
Conf	-7912
distance	-7913
/.	-7914
Common	-7915
▁sou	-7916
platform	-7917
▁friction	-7918
ENC	-7919
▁Basic	-7920
▁responsibility	-7921
hr	-7922
Perm	-7923
scrib	-7924
▁onto	-7925
▁pred	-7926
Ip	-7927
endar	-7928
▁treatments	-7929
ARE	-7930
▁implements	-7931
("%	-7932
▁band	-7933
stat	-7934
member	-7935
▁mention	-7936
▁metadata	-7937
▁domains	-7938
▁mission	-7939
'):	-7940
▁"",	-7941
▁audience	-7942
ued	-7943
▁Max	-7944
bed	-7945
▁aims	-7946
urch	-7947
▁hex	-7948
▁pointer	-7949
▁{},	-7950
▁hope	-7951
▁Union	-7952
▁agents	-7953
BlockFace	-7954
lab	-7955
zy	-7956
JECT	-7957
%%%%	-7958
▁humans	-7959
prod	-7960
▁flu	-7961
▁electro	-7962
▁multiplied	-7963
gorithm	-7964
pb	-7965
aser	-7966
▁instant	-7967
▁FOR	-7968
Cond	-7969
URCE	-7970
▁getting	-7971
Explanation	-7972
ucl	-7973
▁preparation	-7974
vars	-7975
oe	-7976
phone	-7977
▁instanceof	-7978
▁kernel	-7979
▁weather	-7980
seed	-7981
▁accounts	-7982
istribution	-7983
▁mix	-7984
VALID	-7985
▁guarante	-7986
▁TO	-7987
bucket	-7988
▁INT	-7989
▁preced	-7990
▁diabetes	-7991
aming	-7992
▁scores	-7993
TRUE	-7994
FUN	-7995
▁surfaces	-7996
▁marketing	-7997
▁Standard	-7998
▁conservation	-7999
▁priv	-8000
iterator	-8001
▁operate	-8002
wer	-8003
xide	-8004
}}$$	-8005
)}{	-8006
▁changing	-8007
variable	-8008
▁factorization	-8009
▁ip	-8010
Mapping	-8011
sufficient	-8012
▁estimated	-8013
▁Among	-8014
▁fresh	-8015
Password	-8016
▁Develop	-8017
Cor	-8018
iat	-8019
▁vast	-8020
Argument	-8021
rightarrow	-8022
▁theme	-8023
▁vec	-8024
Examples	-8025
▁decades	-8026
▁Foundation	-8027
INFO	-8028
******	-8029
PAS	-8030
usive	-8031
▁infections	-8032
what	-8033
called	-8034
Volume	-8035
▁simultaneously	-8036
atalog	-8037
getElement	-8038
▁intersect	-8039
Rep	-8040
elt	-8041
^\	-8042
Batch	-8043
▁prem	-8044
▁intensity	-8045
▁classified	-8046
Full	-8047
arian	-8048
supported	-8049
lig	-8050
Role	-8051
▁anticip	-8052
za	-8053
margin	-8054
▁paths	-8055
▁artistic	-8056
▁physiological	-8057
tog	-8058
ancer	-8059
video	-8060
▁focuses	-8061
▁clar	-8062
▁expertise	-8063
price	-8064
▁Unless	-8065
▁injury	-8066
▁implications	-8067
RT	-8068
fa	-8069
COMP	-8070
stackrel	-8071
▁dependent	-8072
plus	-8073
▁vessel	-8074
▁imaging	-8075
▁distinctive	-8076
runtime	-8077
Fail	-8078
▁oral	-8079
master	-8080
▁exclus	-8081
"/	-8082
Section	-8083
cpu	-8084
▁capture	-8085
▁determining	-8086
}).	-8087
▁sales	-8088
▁swe	-8089
▁male	-8090
agon	-8091
▁seek	-8092
▁segments	-8093
Prim	-8094
▁Product	-8095
\",	-8096
iverse	-8097
security	-8098
▁spectrum	-8099
▁applies	-8100
house	-8101
▁exem	-8102
Real	-8103
Stud	-8104
tics	-8105
▁constructed	-8106
▁doll	-8107
▁rapidly	-8108
▁secondary	-8109
Lock	-8110
Tool	-8111
cean	-8112
torch	-8113
driven	-8114
collection	-8115
▁ecological	-8116
Interval	-8117
'].	-8118
optim	-8119
oval	-8120
▁released	-8121
\,	-8122
rab	-8123
ventory	-8124
▁metabolic	-8125
▁Divis	-8126
▁End	-8127
▁diseases	-8128
▁progression	-8129
CB	-8130
▁haz	-8131
Selected	-8132
▁freedom	-8133
▁aws	-8134
Nodes	-8135
media	-8136
▁Di	-8137
▁Integer	-8138
▁journal	-8139
▁leaf	-8140
▁regional	-8141
vs	-8142
urg	-8143
▁emissions	-8144
▁schem	-8145
▁examined	-8146
▁median	-8147
Bool	-8148
▁mapping	-8149
▁Center	-8150
▁cat	-8151
FFER	-8152
arios	-8153
▁horm	-8154
▁curric	-8155
itud	-8156
▁understood	-8157
perm	-8158
▁School	-8159
Constants	-8160
▁cuda	-8161
▁pars	-8162
▁analyzing	-8163
▁Your	-8164
Loader	-8165
▁driving	-8166
concat	-8167
▁protocol	-8168
equiv	-8169
▁trying	-8170
Hence	-8171
scal	-8172
▁intervals	-8173
▁SD	-8174
▁Met	-8175
▁examination	-8176
factory	-8177
▁Why	-8178
▁sections	-8179
▁intersection	-8180
▁displacement	-8181
epoch	-8182
lined	-8183
▁demonstrates	-8184
Free	-8185
▁arc	-8186
▁operates	-8187
▁era	-8188
▁chance	-8189
▁breath	-8190
▁sensitivity	-8191
best	-8192
▁Factors	-8193
▁utility	-8194
▁variations	-8195
)',	-8196
Font	-8197
ospital	-8198
ALUE	-8199
PACK	-8200
▁displ	-8201
▁advancing	-8202
::{	-8203
▁manner	-8204
??	-8205
▁rough	-8206
boot	-8207
▁lat	-8208
▁flags	-8209
urrence	-8210
▁nations	-8211
:]	-8212
▁tro	-8213
▁availability	-8214
ses	-8215
▁props	-8216
▁Associ	-8217
▁PR	-8218
▁bank	-8219
▁fails	-8220
▁tox	-8221
▁diversity	-8222
▁Att	-8223
layers	-8224
▁indices	-8225
▁reached	-8226
▁indicated	-8227
▁Down	-8228
short	-8229
▁weights	-8230
▁nation	-8231
release	-8232
▁Journal	-8233
___	-8234
▁_{	-8235
▁termin	-8236
▁expanded	-8237
alking	-8238
▁Equation	-8239
▁expectations	-8240
)/(	-8241
ILE	-8242
▁cloud	-8243
▁Elect	-8244
fprintf	-8245
interval	-8246
▁outer	-8247
▁modify	-8248
▁lever	-8249
▁schema	-8250
▁links	-8251
▁worth	-8252
Duration	-8253
irections	-8254
▁evaluating	-8255
▁analog	-8256
▁matches	-8257
▁earn	-8258
ORS	-8259
ober	-8260
▁timeout	-8261
ierarch	-8262
▁profit	-8263
repo	-8264
▁teeth	-8265
inese	-8266
▁intu	-8267
▁exercises	-8268
▁proportional	-8269
▁digest	-8270
CONFIG	-8271
▁Examples	-8272
▁improvements	-8273
ya	-8274
anned	-8275
▁Draw	-8276
▁View	-8277
▁dual	-8278
▁trends	-8279
datetime	-8280
▁attract	-8281
▁entirely	-8282
mediate	-8283
Nullable	-8284
DEX	-8285
caffe	-8286
▁assumption	-8287
▁Newton	-8288
▁master	-8289
ilibrium	-8290
▁situations	-8291
▁teams	-8292
ABILITY	-8293
▁carefully	-8294
rank	-8295
sembly	-8296
month	-8297
▁quantities	-8298
▁),	-8299
upload	-8300
▁route	-8301
ifferent	-8302
▁readers	-8303
multi	-8304
derive	-8305
▁Level	-8306
enabled	-8307
▁confirmed	-8308
nb	-8309
"])	-8310
ixels	-8311
illing	-8312
▁participation	-8313
GE	-8314
▁discussed	-8315
▁consistency	-8316
▁LL	-8317
elem	-8318
ega	-8319
▁pharm	-8320
plain	-8321
HS	-8322
Instr	-8323
▁played	-8324
▁Ser	-8325
▁algebraic	-8326
//!	-8327
▁Department	-8328
▁buf	-8329
Card	-8330
▁Path	-8331
▁bot	-8332
▁Solve	-8333
▁minimize	-8334
▁pull	-8335
▁Hence	-8336
▁pound	-8337
indices	-8338
ckets	-8339
etween	-8340
▁javax	-8341
ossible	-8342
Activity	-8343
▁phenomenon	-8344
▁ms	-8345
tember	-8346
▁sea	-8347
ading	-8348
("\	-8349
▁recon	-8350
Auto	-8351
sleep	-8352
WR	-8353
▁consumer	-8354
OPT	-8355
▁Rad	-8356
lop	-8357
extend	-8358
router	-8359
changed	-8360
comfort	-8361
lint	-8362
▁survey	-8363
Flag	-8364
▁traditions	-8365
▁walk	-8366
▁branch	-8367
▁calc	-8368
▁ends	-8369
▁driver	-8370
▁labels	-8371
But	-8372
kin	-8373
▁Call	-8374
▁delib	-8375
▁pieces	-8376
brief	-8377
:-	-8378
door	-8379
lers	-8380
▁defic	-8381
▁scalar	-8382
▁Mc	-8383
ael	-8384
Look	-8385
▁organiz	-8386
▁logging	-8387
▁simplify	-8388
▁Return	-8389
dequ	-8390
▁America	-8391
▁lowest	-8392
iteral	-8393
rim	-8394
cppgl	-8395
aligned	-8396
fast	-8397
mazon	-8398
▁delivered	-8399
indu	-8400
Effect	-8401
ryption	-8402
▁acts	-8403
ocation	-8404
ought	-8405
▁aligned	-8406
GS	-8407
speed	-8408
▁Hand	-8409
toEqual	-8410
▁patent	-8411
▁managed	-8412
▁producing	-8413
▁identifier	-8414
▁none	-8415
▁skill	-8416
▁tx	-8417
▁filename	-8418
>"	-8419
volume	-8420
▁guidelines	-8421
atile	-8422
▁compelling	-8423
▁pregn	-8424
database	-8425
secutive	-8426
Parse	-8427
Plan	-8428
clip	-8429
$('#	-8430
ryst	-8431
here	-8432
▁habit	-8433
mutable	-8434
▁completely	-8435
osph	-8436
/{	-8437
epsilon	-8438
getName	-8439
▁lingu	-8440
▁xs	-8441
Scal	-8442
semble	-8443
counter	-8444
▁produces	-8445
ntax	-8446
▁electronic	-8447
ugins	-8448
constant	-8449
Orig	-8450
icing	-8451
ht	-8452
Prefix	-8453
quire	-8454
▁principal	-8455
▁planet	-8456
▁Item	-8457
▁creates	-8458
▁York	-8459
▁nothing	-8460
▁protective	-8461
Scope	-8462
▁python	-8463
DX	-8464
▁preventing	-8465
iom	-8466
ota	-8467
Term	-8468
▁bad	-8469
▁throw	-8470
▁identification	-8471
Br	-8472
▁override	-8473
argv	-8474
▁Num	-8475
Produ	-8476
itter	-8477
▁Will	-8478
omorph	-8479
Ids	-8480
▁./	-8481
▁bone	-8482
WARE	-8483
tegration	-8484
▁adher	-8485
▁bed	-8486
▁hon	-8487
▁bring	-8488
▁sold	-8489
▁alcohol	-8490
▁traffic	-8491
▁directed	-8492
:\	-8493
RCP	-8494
▁hous	-8495
disable	-8496
▁Air	-8497
gamma	-8498
tn	-8499
DR	-8500
}+\	-8501
▁_.	-8502
▁Bar	-8503
▁updates	-8504
>.	-8505
▁dot	-8506
▁leave	-8507
▁conscious	-8508
▁comparison	-8509
▁|=	-8510
bas	-8511
▁lon	-8512
▁fear	-8513
▁guess	-8514
▁reports	-8515
▁angular	-8516
▁substance	-8517
▁Top	-8518
▁grounded	-8519
▁constitut	-8520
▁gap	-8521
stage	-8522
udget	-8523
ativity	-8524
▁explored	-8525
pret	-8526
dirname	-8527
newcommand	-8528
▁renew	-8529
▁touch	-8530
▁identical	-8531
COM	-8532
▁href	-8533
▁Micro	-8534
riptions	-8535
▁starts	-8536
Mask	-8537
▁Element	-8538
▁languages	-8539
BR	-8540
▁careful	-8541
▁interact	-8542
▁metrics	-8543
Edge	-8544
▁nit	-8545
SWORD	-8546
SUCCESS	-8547
▁preferred	-8548
▁straightforward	-8549
Dest	-8550
Usage	-8551
valuate	-8552
forms	-8553
▁σ	-8554
▁vibr	-8555
▁picture	-8556
]+	-8557
▁Char	-8558
Limit	-8559
▁opts	-8560
▁←	-8561
uce	-8562
rote	-8563
factor	-8564
▁symbolic	-8565
▁medications	-8566
▁flo	-8567
▁foreign	-8568
awn	-8569
ignment	-8570
▁implies	-8571
DESCRIPT	-8572
Thus	-8573
▁convey	-8574
▁atmosphere	-8575
cks	-8576
uma	-8577
▁conj	-8578
▁fine	-8579
Simple	-8580
▁seems	-8581
▁extrem	-8582
lik	-8583
docker	-8584
▁Tpetra	-8585
▁raised	-8586
▁processed	-8587
OFT	-8588
Calculate	-8589
hm	-8590
Main	-8591
▁optimization	-8592
esian	-8593
HERE	-8594
spect	-8595
binary	-8596
▁female	-8597
▁pi	-8598
akers	-8599
▁reader	-8600
▁".	-8601
▁inquiry	-8602
▁BC	-8603
▁examines	-8604
▁opportunity	-8605
WrapperNode	-8606
KokkosSerial	-8607
▁complications	-8608
zer	-8609
▁lists	-8610
▁generating	-8611
*-	-8612
shal	-8613
▁Skin	-8614
▁strain	-8615
phantom	-8616
Any	-8617
asets	-8618
▁Answer	-8619
▁French	-8620
direction	-8621
▁combinations	-8622
▁Rob	-8623
▁station	-8624
undefined	-8625
blocks	-8626
future	-8627
▁African	-8628
▁treated	-8629
▁plate	-8630
▁comparing	-8631
▁prev	-8632
▁aest	-8633
▁inherent	-8634
▁Request	-8635
directory	-8636
▁vehicles	-8637
)^{	-8638
▁June	-8639
Socket	-8640
messages	-8641
▁examine	-8642
▁}{	-8643
apped	-8644
▁whereas	-8645
BER	-8646
▁scholarly	-8647
▁East	-8648
▁staff	-8649
support	-8650
▁regulation	-8651
KE	-8652
▁La	-8653
▁Consider	-8654
▁proteins	-8655
▁img	-8656
▁classroom	-8657
apes	-8658
services	-8659
ATTR	-8660
▁Block	-8661
▁Register	-8662
▁Window	-8663
▁Gre	-8664
▁ingred	-8665
iforn	-8666
▁peer	-8667
▁genu	-8668
pdf	-8669
Proto	-8670
▁gard	-8671
▁drink	-8672
▁plans	-8673
diction	-8674
pad	-8675
▁..	-8676
▁Output	-8677
hook	-8678
▁gir	-8679
▁advised	-8680
DP	-8681
extern	-8682
▁immun	-8683
seconds	-8684
▁extent	-8685
RAY	-8686
:`	-8687
emy	-8688
RESULT	-8689
▁merely	-8690
▁tension	-8691
=\"	-8692
▁looks	-8693
extract	-8694
▁scenarios	-8695
▁road	-8696
▁workers	-8697
▁versions	-8698
oday	-8699
avel	-8700
▁March	-8701
Eq	-8702
▁eyes	-8703
▁sed	-8704
▁marg	-8705
Repository	-8706
[\	-8707
Mut	-8708
▁econom	-8709
eled	-8710
resp	-8711
prime	-8712
▁engaged	-8713
Initialize	-8714
oma	-8715
▁= 	-8716
▁Tem	-8717
ldots	-8718
]*	-8719
WORD	-8720
▁ped	-8721
▁Gree	-8722
▁explores	-8723
▁reactions	-8724
eBlockFace	-8725
}&	-8726
AIN	-8727
rogen	-8728
▁font	-8729
▁Which	-8730
▁Only	-8731
▁slice	-8732
▁\"	-8733
▁illustrates	-8734
asion	-8735
▁revers	-8736
▁solved	-8737
▁flexibility	-8738
GER	-8739
CLASS	-8740
▁stay	-8741
▁fourth	-8742
▁friend	-8743
▁modeling	-8744
focus	-8745
Texture	-8746
LOC	-8747
ndle	-8748
Files	-8749
▁arises	-8750
checked	-8751
▁Sun	-8752
resources	-8753
BY	-8754
▁tooth	-8755
▁lifest	-8756
zeros	-8757
▁feas	-8758
parameter	-8759
elements	-8760
▁prices	-8761
▁majority	-8762
'(	-8763
cember	-8764
ourses	-8765
▁agricultural	-8766
▁maintained	-8767
▁leaving	-8768
▁September	-8769
▁sizes	-8770
▁Volume	-8771
▁gradually	-8772
▁"./	-8773
steps	-8774
▁artificial	-8775
BL	-8776
verify	-8777
▁IF	-8778
▁corner	-8779
▁validation	-8780
▁presentation	-8781
▁employees	-8782
venue	-8783
ophy	-8784
▁tab	-8785
▁fold	-8786
▁interests	-8787
Bean	-8788
▁Physics	-8789
▁prepared	-8790
▁collaborative	-8791
▁Prof	-8792
▁vent	-8793
Problem	-8794
▁diagnosis	-8795
ito	-8796
PASSWORD	-8797
]['	-8798
▁pand	-8799
▁inherently	-8800
▁θ	-8801
▁fabric	-8802
▁Calculator	-8803
'));	-8804
)=\	-8805
VALUE	-8806
cules	-8807
▁perspectives	-8808
ndef	-8809
▁meta	-8810
Results	-8811
▁Western	-8812
)",	-8813
dots	-8814
fire	-8815
▁sell	-8816
park	-8817
▁depict	-8818
▁circles	-8819
OME	-8820
ifornia	-8821
▁covered	-8822
▁exert	-8823
compute	-8824
▁learners	-8825
▁SC	-8826
joint	-8827
▁impacts	-8828
cred	-8829
▁powers	-8830
▁January	-8831
roduction	-8832
▁temporary	-8833
olate	-8834
▁ampl	-8835
▁forming	-8836
DECL	-8837
▁reset	-8838
logical	-8839
Despite	-8840
▁organizational	-8841
▁delta	-8842
▁Link	-8843
▁mist	-8844
▁burn	-8845
▁lemma	-8846
exact	-8847
program	-8848
▁handler	-8849
▁educators	-8850
▁minimizing	-8851
ivated	-8852
▁battery	-8853
}$,	-8854
▁dst	-8855
▁Param	-8856
▁ValueError	-8857
▁Are	-8858
▁mort	-8859
▁issued	-8860
"}	-8861
rime	-8862
ividuals	-8863
▁eliminate	-8864
▁influences	-8865
('<	-8866
small	-8867
▁started	-8868
Details	-8869
Pattern	-8870
iration	-8871
negative	-8872
className	-8873
▁federal	-8874
▁Long	-8875
▁outputs	-8876
▁√	-8877
Light	-8878
▁dtype	-8879
▁anything	-8880
▁introduces	-8881
▁assessments	-8882
-(	-8883
▁developments	-8884
goto	-8885
Src	-8886
history	-8887
▁measurable	-8888
aul	-8889
........	-8890
▁believed	-8891
▁sessions	-8892
▁Tim	-8893
MEM	-8894
▁Non	-8895
▁ignore	-8896
▁yields	-8897
▁publication	-8898
duration	-8899
▁Chinese	-8900
emon	-8901
▁icon	-8902
legal	-8903
▁matching	-8904
dtype	-8905
▁sharing	-8906
▁pursu	-8907
▁investigation	-8908
▁({	-8909
▁congr	-8910
▁October	-8911
▁Sec	-8912
▁Formula	-8913
▁sing	-8914
▁turns	-8915
▁minute	-8916
▁execute	-8917
accept	-8918
LIST	-8919
sudo	-8920
Route	-8921
▁Page	-8922
▁Tone	-8923
▁cppgl	-8924
reference	-8925
▁difficulty	-8926
nce	-8927
aped	-8928
▁diagnostic	-8929
ordinate	-8930
▁kilometers	-8931
cript	-8932
warn	-8933
series	-8934
▁analyzed	-8935
ruary	-8936
balance	-8937
dispatch	-8938
tuple	-8939
▁discovery	-8940
▁pipe	-8941
▁vm	-8942
Word	-8943
▁console	-8944
▁ordered	-8945
▁definitions	-8946
▁advancements	-8947
▁adequ	-8948
▁impair	-8949
▁Education	-8950
▁innovative	-8951
▁establishing	-8952
▁incorporating	-8953
bold	-8954
▁assets	-8955
plan	-8956
▁exponent	-8957
▁consecutive	-8958
Serv	-8959
▁(((	-8960
Dict	-8961
hide	-8962
inct	-8963
▁sugar	-8964
isation	-8965
▁businesses	-8966
▁disorder	-8967
idents	-8968
▁boundaries	-8969
▁corresponds	-8970
va	-8971
Figure	-8972
▁outlines	-8973
/$	-8974
mo	-8975
▁gall	-8976
ynchron	-8977
▁diagonal	-8978
initely	-8979
material	-8980
Sort	-8981
▁bodies	-8982
pipeline	-8983
▁pivotal	-8984
'}	-8985
▁fert	-8986
▁solely	-8987
▁insufficient	-8988
▁smart	-8989
▁California	-8990
Sample	-8991
▁sensitive	-8992
▁characteristic	-8993
▁administr	-8994
timer	-8995
Symbol	-8996
orient	-8997
▁camera	-8998
blue	-8999
leton	-9000
▁advancement	-9001
oking	-9002
▁pd	-9003
▁approximation	-9004
▁tens	-9005
▁breast	-9006
▁asset	-9007
▁sampling	-9008
dump	-9009
ropy	-9010
Basic	-9011
▁coding	-9012
▁ounces	-9013
▁ranging	-9014
umps	-9015
▁combining	-9016
there	-9017
▁eventually	-9018
ANCE	-9019
▁die	-9020
BUFFER	-9021
OFTWARE	-9022
crement	-9023
▁primes	-9024
azy	-9025
▁mand	-9026
▁analytical	-9027
(/	-9028
Game	-9029
Registry	-9030
▁categories	-9031
▁dictionary	-9032
'},	-9033
riends	-9034
▁categor	-9035
but	-9036
square	-9037
▁domin	-9038
IMIT	-9039
▁balls	-9040
▁lambda	-9041
DEV	-9042
▁defining	-9043
since	-9044
▁shell	-9045
▁tracking	-9046
▁equilibrium	-9047
▁El	-9048
▁safeg	-9049
Cal	-9050
driver	-9051
▁arbitrary	-9052
▁tor	-9053
INCRE	-9054
illed	-9055
eners	-9056
▁Message	-9057
▁tradition	-9058
onom	-9059
weights	-9060
▁designated	-9061
Gen	-9062
▁arm	-9063
▁permut	-9064
▁trials	-9065
▁emphasis	-9066
gp	-9067
▁Pres	-9068
▁happens	-9069
▁discomfort	-9070
▁"""	-9071
▁appeal	-9072
▁speech	-9073
▁love	-9074
▁leaders	-9075
cmp	-9076
▁timestamp	-9077
HO	-9078
AMPLE	-9079
.")	-9080
▁German	-9081
Sequence	-9082
▁subtraction	-9083
▁ell	-9084
oreign	-9085
download	-9086
▁interior	-9087
DD	-9088
iders	-9089
transaction	-9090
▁\,	-9091
ani	-9092
feed	-9093
▁menu	-9094
Db	-9095
▁ter	-9096
▁April	-9097
▁sensor	-9098
▁Boolean	-9099
ulf	-9100
▁sand	-9101
Surface	-9102
asp	-9103
▁owner	-9104
▁ready	-9105
sequently	-9106
Single	-9107
ammation	-9108
▁simulation	-9109
▁computational	-9110
▁watch	-9111
▁visibility	-9112
▁institutional	-9113
ceptor	-9114
raction	-9115
▁surgical	-9116
▁Ent	-9117
Normal	-9118
▁filled	-9119
▁illness	-9120
▁removal	-9121
sa	-9122
▁manual	-9123
}</	-9124
Alloc	-9125
▁Indian	-9126
▁familiar	-9127
▁incorrect	-9128
▁receiving	-9129
▁dt	-9130
▁remark	-9131
▁greatest	-9132
IPS	-9133
Inv	-9134
▁Bay	-9135
yield	-9136
▁waves	-9137
▁pet	-9138
▁scan	-9139
▁independently	-9140
through	-9141
▁decrease	-9142
MAP	-9143
actic	-9144
▁circul	-9145
>\	-9146
▁thr	-9147
▁orth	-9148
▁instructions	-9149
▁aligns	-9150
iki	-9151
▁exempl	-9152
Mar	-9153
▁vs	-9154
▁Rule	-9155
▁considering	-9156
▁recipro	-9157
▁Problems	-9158
▁genes	-9159
ifndef	-9160
▁cellular	-9161
edges	-9162
▁Order	-9163
olumes	-9164
▁believe	-9165
▁PM	-9166
COUNT	-9167
▁reinforcing	-9168
▁echo	-9169
tocols	-9170
▁architecture	-9171
yy	-9172
native	-9173
▁merge	-9174
▁tuple	-9175
~~~~~~~~	-9176
▁activation	-9177
Rate	-9178
▁feat	-9179
▁took	-9180
▁gained	-9181
▁highlighted	-9182
inn	-9183
▁quite	-9184
metrics	-9185
▁cycles	-9186
effective	-9187
SV	-9188
Pop	-9189
]},	-9190
__)	-9191
▁ml	-9192
details	-9193
▁August	-9194
OFF	-9195
▁rw	-9196
Bound	-9197
ipt	-9198
ogene	-9199
Runtime	-9200
▁Amazon	-9201
▁raises	-9202
Messages	-9203
▁concrete	-9204
nu	-9205
▁explicitly	-9206
nil	-9207
▁competitive	-9208
ano	-9209
▁bias	-9210
▁amounts	-9211
front	-9212
▁LI	-9213
▁robot	-9214
▁accurately	-9215
paren	-9216
__.	-9217
▁($	-9218
ALTER	-9219
Family	-9220
ovascular	-9221
▁assessing	-9222
XY	-9223
cpp	-9224
▁carried	-9225
amaz	-9226
gent	-9227
▁offered	-9228
▁fragment	-9229
Nd	-9230
▁Ke	-9231
▁-*-	-9232
▁boost	-9233
Changed	-9234
▁alongside	-9235
FIN	-9236
``,	-9237
▁star	-9238
▁uncertainty	-9239
▁sustainability	-9240
▁AL	-9241
▁Sign	-9242
▁presc	-9243
language	-9244
▁experts	-9245
▁ArrayList	-9246
However	-9247
ordered	-9248
▁December	-9249
Wall	-9250
Short	-9251
ERT	-9252
Category	-9253
▁pathways	-9254
DIS	-9255
BB	-9256
▁sheet	-9257
▁billion	-9258
▁kinetic	-9259
note	-9260
▁embedded	-9261
▁providers	-9262
▁Em	-9263
compare	-9264
▁behavioral	-9265
▁isolated	-9266
direct	-9267
Answer	-9268
▁conve	-9269
DESCRIPTION	-9270
▁toler	-9271
▁secret	-9272
▁transformative	-9273
fb	-9274
▁debug	-9275
[(	-9276
More	-9277
iones	-9278
▁buy	-9279
▁unless	-9280
▁mel	-9281
▁Field	-9282
May	-9283
▁Plan	-9284
▁passing	-9285
▁calculus	-9286
configuration	-9287
▁UN	-9288
▁Vis	-9289
Adapter	-9290
▁cycl	-9291
expand	-9292
▁specify	-9293
▁delivering	-9294
▁Hy	-9295
band	-9296
▁documents	-9297
legate	-9298
XXX	-9299
▁milk	-9300
plates	-9301
▁corpor	-9302
rig	-9303
brid	-9304
▁EV	-9305
▁suffer	-9306
----------	-9307
controller	-9308
floor	-9309
▁Simple	-9310
SR	-9311
▁sentence	-9312
▁pron	-9313
btn	-9314
▁disk	-9315
▁neural	-9316
▁nearest	-9317
▁terminal	-9318
FLO	-9319
▁vitamin	-9320
▁displayed	-9321
▁Opt	-9322
rypted	-9323
▁headers	-9324
▁phone	-9325
▁dy	-9326
▁LCM	-9327
Binary	-9328
▁»	-9329
▁Ga	-9330
charge	-9331
▁tick	-9332
TX	-9333
volution	-9334
▁constants	-9335
▁efficiently	-9336
Tip	-9337
▁heavy	-9338
▁narrow	-9339
▁varies	-9340
▁validate	-9341
▁curriculum	-9342
▁preferences	-9343
springframework	-9344
entries	-9345
▁Fractions	-9346
▁inclusion	-9347
units	-9348
friend	-9349
▁linguistic	-9350
▁binding	-9351
▁classification	-9352
nav	-9353
▁schedule	-9354
▁join	-9355
▁meter	-9356
▁Section	-9357
ikip	-9358
▁alt	-9359
▁conn	-9360
▁editor	-9361
channels	-9362
▁substances	-9363
single	-9364
measure	-9365
▁centimeters	-9366
▁rising	-9367
▁texture	-9368
Diff	-9369
riority	-9370
▁faces	-9371
▁Unlike	-9372
▁distances	-9373
Frag	-9374
▁lie	-9375
▁'-	-9376
▁).	-9377
▁divine	-9378
condition	-9379
}'	-9380
ica	-9381
"]["	-9382
▁Nat	-9383
ensus	-9384
▁dead	-9385
▁SOFTWARE	-9386
▁sett	-9387
▁bacteria	-9388
▁targets	-9389
COLOR	-9390
Enter	-9391
fixed	-9392
▁advis	-9393
▁Emp	-9394
▁clo	-9395
▁assumptions	-9396
hw	-9397
fol	-9398
blob	-9399
how	-9400
aria	-9401
▁Jew	-9402
'+	-9403
Go	-9404
scalar	-9405
▁exposed	-9406
SEC	-9407
QUEST	-9408
Report	-9409
Extension	-9410
.");	-9411
▁evident	-9412
▁emphasize	-9413
▁mile	-9414
▁November	-9415
▁detected	-9416
Cur	-9417
amps	-9418
atom	-9419
Power	-9420
▁discussions	-9421
▁[(	-9422
▁affecting	-9423
lay	-9424
antity	-9425
▁granted	-9426
ammat	-9427
▁Please	-9428
tl	-9429
cil	-9430
▁Po	-9431
▁Book	-9432
peat	-9433
usters	-9434
▁inflammation	-9435
proxy	-9436
Addr	-9437
Convert	-9438
▁traits	-9439
▁payload	-9440
Timestamp	-9441
Tx	-9442
)(((	-9443
▁sphere	-9444
▁computed	-9445
▁scenario	-9446
▁Del	-9447
▁sac	-9448
▁Christian	-9449
▁standardized	-9450
▁maps	-9451
itness	-9452
▁Network	-9453
cli	-9454
ered	-9455
posite	-9456
▁compact	-9457
▁filters	-9458
wt	-9459
▁Pos	-9460
instr	-9461
ikipedia	-9462
▁coverage	-9463
Half	-9464
amazon	-9465
period	-9466
▁Access	-9467
▁firm	-9468
▁manufactur	-9469
▁replacement	-9470
rho	-9471
elsius	-9472
▁django	-9473
 +	-9474
▁emp	-9475
▁ever	-9476
▁rigid	-9477
▁degrad	-9478
▁encoding	-9479
▁typename	-9480
▁-/	-9481
deep	-9482
|.	-9483
 ` 	-9484
trim	-9485
▁Mean	-9486
▁Sche	-9487
▁parser	-9488
▁colleag	-9489
je	-9490
mv	-9491
▁legacy	-9492
▁stated	-9493
▁emergency	-9494
▁correspond	-9495
;\	-9496
▁deal	-9497
seline	-9498
▁Altern	-9499
Attributes	-9500
▁reporting	-9501
Just	-9502
ctors	-9503
▁drag	-9504
▁gram	-9505
▁Convert	-9506
▁restore	-9507
▁workflow	-9508
CV	-9509
IZ	-9510
`,`	-9511
▁fs	-9512
Remove	-9513
▁hence	-9514
▁Africa	-9515
Art	-9516
ocy	-9517
▁assumed	-9518
▁cleaning	-9519
▁tutorial	-9520
RR	-9521
Security	-9522
bert	-9523
▁cart	-9524
▁Ident	-9525
avelength	-9526
="${	-9527
▁plastic	-9528
Ang	-9529
ham	-9530
variant	-9531
▁UK	-9532
.',	-9533
▁fetch	-9534
▁launch	-9535
▁timing	-9536
▁converted	-9537
Chain	-9538
▁Native	-9539
threshold	-9540
▁encourage	-9541
tion	-9542
▁themes	-9543
SM	-9544
ffers	-9545
▁moisture	-9546
▁Har	-9547
rypto	-9548
▁bind	-9549
styles	-9550
▁goods	-9551
outputs	-9552
Cap	-9553
▁Yet	-9554
loading	-9555
▁respir	-9556
swap	-9557
upper	-9558
AY	-9559
▁Δ	-9560
asy	-9561
erior	-9562
flat	-9563
scroll	-9564
▁Dav	-9565
]).	-9566
▁cancel	-9567
RedstoneWire	-9568
stances	-9569
NotFound	-9570
apers	-9571
▁prepare	-9572
▁replaced	-9573
▁illustrated	-9574
▁CSS	-9575
lookup	-9576
TA	-9577
()[	-9578
Rows	-9579
▁coher	-9580
▁almost	-9581
▁February	-9582
▁contents	-9583
=%	-9584
VM	-9585
vi	-9586
ky	-9587
▁experiments	-9588
limits	-9589
AUT	-9590
TestCase	-9591
*,	-9592
▁illustrate	-9593
▁varying	-9594
dependent	-9595
▁narratives	-9596
▁distinction	-9597
HC	-9598
SPI	-9599
verter	-9600
▁observe	-9601
▁tissues	-9602
▁Analysis	-9603
▁mouse	-9604
▁scientists	-9605
aught	-9606
▁iron	-9607
ounced	-9608
▁inline	-9609
▁steel	-9610
▁moments	-9611
▁performing	-9612
mega	-9613
extra	-9614
ulin	-9615
▁BY	-9616
▁ear	-9617
▁installation	-9618
iii	-9619
▁Most	-9620
atomic	-9621
▁af	-9622
▁Root	-9623
▁puzz	-9624
iced	-9625
▁philosoph	-9626
mult	-9627
Chunk	-9628
Clear	-9629
▁gluc	-9630
▁destination	-9631
samples	-9632
▁equally	-9633
▁violence	-9634
vl	-9635
▁nine	-9636
▁kwargs	-9637
)$.	-9638
mac	-9639
▁voice	-9640
▁systematic	-9641
>",	-9642
getElementById	-9643
▁giving	-9644
protocol	-9645
▁assistance	-9646
!=	-9647
▁former	-9648
yled	-9649
asive	-9650
▁operand	-9651
▁Next	-9652
FORMAT	-9653
Directory	-9654
▁rac	-9655
oting	-9656
remote	-9657
▁introduction	-9658
▁July	-9659
readonly	-9660
isis	-9661
ichael	-9662
▁sched	-9663
mag	-9664
Dash	-9665
hyth	-9666
esis	-9667
sent	-9668
▁repair	-9669
▁probably	-9670
}",	-9671
▁career	-9672
▁blog	-9673
▁scene	-9674
aration	-9675
▁perman	-9676
InternalFrame	-9677
Bal	-9678
▁HTTP	-9679
latest	-9680
General	-9681
:%	-9682
▁listed	-9683
▁relies	-9684
tokens	-9685
▁mob	-9686
compat	-9687
Unknown	-9688
ammatory	-9689
▁funding	-9690
Timer	-9691
trigger	-9692
AST	-9693
rv	-9694
▁polar	-9695
▁positioned	-9696
▁$$(	-9697
editor	-9698
▁beta	-9699
optional	-9700
▁strongly	-9701
equalities	-9702
apsed	-9703
simple	-9704
▁"-	-9705
▁Roman	-9706
▁empir	-9707
wrapper	-9708
▁quantum	-9709
CSS	-9710
▁tags	-9711
▁zone	-9712
▁payment	-9713
ifference	-9714
▁Resource	-9715
▁Determine	-9716
▁ownership	-9717
resentation	-9718
Segment	-9719
INCREMENT	-9720
+(	-9721
emit	-9722
▁peace	-9723
▁causing	-9724
▁traject	-9725
▁introduce	-9726
merge	-9727
▁hit	-9728
black	-9729
▁chrom	-9730
CrsMatrix	-9731
▁PropTypes	-9732
▁Commun	-9733
▁]];	-9734
▁cylinder	-9735
may	-9736
lets	-9737
Random	-9738
itational	-9739
Loop	-9740
ideos	-9741
entally	-9742
▁lifestyle	-9743
▁acute	-9744
omework	-9745
▁Division	-9746
▁internet	-9747
sing	-9748
Lower	-9749
▁preserving	-9750
bd	-9751
▁'%	-9752
android	-9753
▁multiples	-9754
▁pollut	-9755
▁adverse	-9756
ESTAMP	-9757
▁finally	-9758
PH	-9759
DIM	-9760
▁SW	-9761
ignore	-9762
▁removing	-9763
Linear	-9764
pa	-9765
▁Child	-9766
▁arrays	-9767
▁trigon	-9768
▁φ	-9769
sym	-9770
disabled	-9771
▁invention	-9772
LLLL	-9773
destroy	-9774
▁harmful	-9775
▁molecules	-9776
tw	-9777
ribution	-9778
izers	-9779
progress	-9780
▁gradient	-9781
"].	-9782
▁AUTO	-9783
MODULE	-9784
mkdir	-9785
paths	-9786
subset	-9787
createElement	-9788
roke	-9789
▁Real	-9790
Pair	-9791
wall	-9792
▁dys	-9793
rules	-9794
▁vict	-9795
▁acting	-9796
ientific	-9797
Yes	-9798
hot	-9799
▁slot	-9800
orrow	-9801
▁SH	-9802
Tags	-9803
▁playing	-9804
Editor	-9805
vertex	-9806
Put	-9807
Points	-9808
▁personalized	-9809
▁integrate	-9810
▁Ref	-9811
iology	-9812
filters	-9813
ARD	-9814
olf	-9815
enty	-9816
▁Store	-9817
▁tempor	-9818
▁permission	-9819
▁Ant	-9820
vision	-9821
▁evolved	-9822
Implement	-9823
TEX	-9824
SWIG	-9825
dims	-9826
▁equipped	-9827
▁completion	-9828
 (	-9829
▁],	-9830
oes	-9831
▁infect	-9832
PY	-9833
abort	-9834
riers	-9835
efficient	-9836
▁assignment	-9837
FER	-9838
Bottom	-9839
▁superior	-9840
currentLoad	-9841
vity	-9842
▁depression	-9843
▁alert	-9844
▁occurring	-9845
▁revis	-9846
▁explained	-9847
prom	-9848
▁tumor	-9849
▁facilitate	-9850
olves	-9851
LY	-9852
▁timely	-9853
GI	-9854
sumer	-9855
▁learned	-9856
▁attributed	-9857
}:	-9858
▁coin	-9859
CurrentLoad	-9860
▁ft	-9861
▁Est	-9862
formed	-9863
▁ast	-9864
▁fruit	-9865
centage	-9866
Consider	-9867
▁pin	-9868
comput	-9869
Future	-9870
ni	-9871
cnt	-9872
rict	-9873
▁'../../	-9874
compl	-9875
▁affects	-9876
▁association	-9877
Bot	-9878
▁amb	-9879
▁vulnerable	-9880
ulator	-9881
dden	-9882
▁mirror	-9883
Dist	-9884
▁inclusive	-9885
rawCurrentLoad	-9886
uation	-9887
▁adoption	-9888
▁panel	-9889
indexOf	-9890
hal	-9891
you	-9892
▁radio	-9893
▁discrete	-9894
Ra	-9895
_->	-9896
▁sav	-9897
PARAM	-9898
▁Source	-9899
▁circumstances	-9900
^(	-9901
lr	-9902
Drop	-9903
▁Organ	-9904
▁coord	-9905
actual	-9906
▁nucle	-9907
▁everything	-9908
DM	-9909
alias	-9910
▁featuring	-9911
)`	-9912
▁COM	-9913
loaded	-9914
▁zeros	-9915
TAG	-9916
▁beam	-9917
▁stret	-9918
▁rigorous	-9919
NotNull	-9920
including	-9921
▁Practice	-9922
-}	-9923
(``	-9924
GIN	-9925
▁enumerate	-9926
▁possibility	-9927
▁Off	-9928
▁defect	-9929
keep	-9930
overline	-9931
▁directions	-9932
▁laboratory	-9933
hav	-9934
embr	-9935
linux	-9936
RY	-9937
xe	-9938
▁nn	-9939
camera	-9940
endpoint	-9941
▁protocols	-9942
)->	-9943
▁df	-9944
▁ty	-9945
▁passes	-9946
▁Celsius	-9947
▁reinforce	-9948
▁medication	-9949
▁Explanation	-9950
▁sql	-9951
Modal	-9952
Virtual	-9953
pmatrix	-9954
▁installed	-9955
▁orientation	-9956
▁cra	-9957
helper	-9958
▁involvement	-9959
oids	-9960
rought	-9961
▁entities	-9962
rapped	-9963
▁universe	-9964
▁generator	-9965
sat	-9966
lege	-9967
pytest	-9968
PEC	-9969
Where	-9970
▁Port	-9971
losing	-9972
▁commands	-9973
▁cardiovascular	-9974
Sym	-9975
▁ba	-9976
LETE	-9977
▁sharp	-9978
original	-9979
Raw	-9980
HOME	-9981
even	-9982
overn	-9983
holders	-9984
▁ratios	-9985
▁sudden	-9986
ysical	-9987
▁bow	-9988
▁habits	-9989
Processor	-9990
phase	-9991
▁defines	-9992
,$	-9993
...)	-9994
▁arise	-9995
▁Learning	-9996
▁relevance	-9997
commod	-9998
scribe	-9999
▁Space	-10000
▁padding	-10001
▁discount	-10002
▁colleagues	-10003
/${	-10004
Move	-10005
▁Press	-10006
Complex	-10007
tm	-10008
Amount	-10009
classic	-10010
▁destroy	-10011
▁Var	-10012
ashing	-10013
▁Our	-10014
\",\"	-10015
▁viewed	-10016
ifth	-10017
▁advert	-10018
▁SP	-10019
Zero	-10020
▁dou	-10021
▁disru	-10022
▁Matrix	-10023
▁PDF	-10024
ILD	-10025
▁∀	-10026
▁Mag	-10027
▁depos	-10028
aby	-10029
▁eq	-10030
▁plug	-10031
▁Appro	-10032
▁preserve	-10033
gence	-10034
provider	-10035
▁DO	-10036
▁beaut	-10037
▁reaching	-10038
ISE	-10039
▁Word	-10040
▁dense	-10041
▁Feature	-10042
▁Big	-10043
▁breed	-10044
▁modules	-10045
▁radical	-10046
▁flexible	-10047
▁perimeter	-10048
▁adopted	-10049
▁nuclear	-10050
▁displays	-10051
ja	-10052
▁'[	-10053
▁incons	-10054
NdEx	-10055
poch	-10056
states	-10057
svg	-10058
scan	-10059
green	-10060
▁came	-10061
COMM	-10062
▁suc	-10063
▁Tree	-10064
▁candidate	-10065
tor	-10066
▁tun	-10067
▁translation	-10068
▁wat	-10069
isely	-10070
ordinates	-10071
▁Select	-10072
▁styles	-10073
Snapshot	-10074
Background	-10075
acci	-10076
▁interesting	-10077
▁runs	-10078
▁Central	-10079
"+	-10080
alert	-10081
Conn	-10082
▁rating	-10083
▁indicators	-10084
▁unexpected	-10085
▁Mass	-10086
rained	-10087
▁physic	-10088
tick	-10089
Email	-10090
pection	-10091
▁underm	-10092
▁opening	-10093
▁BE	-10094
erry	-10095
IMAGE	-10096
▁cutting	-10097
▁configurations	-10098
[[	-10099
`);	-10100
▁AM	-10101
origin	-10102
▁mutual	-10103
Elements	-10104
▁dominant	-10105
UBL	-10106
Vert	-10107
oved	-10108
▁atom	-10109
▁seam	-10110
watch	-10111
▁yellow	-10112
▁COLL	-10113
▁Load	-10114
▁wear	-10115
▁repeat	-10116
ara	-10117
▁reprodu	-10118
FD	-10119
��	-10120
junit	-10121
▁liver	-10122
▁Whether	-10123
NU	-10124
▁tone	-10125
Scroll	-10126
Once	-10127
▁caut	-10128
▁aggreg	-10129
▁fulfill	-10130
▁increment	-10131
▁Ptr	-10132
▁excell	-10133
▁reveal	-10134
▁threats	-10135
"):	-10136
REE	-10137
ocratic	-10138
▁variant	-10139
ora	-10140
Exercise	-10141
ums	-10142
Connect	-10143
ASE	-10144
▁[{	-10145
loys	-10146
stdout	-10147
▁relax	-10148
yaml	-10149
▁Day	-10150
asset	-10151
Metric	-10152
▁administration	-10153
HOD	-10154
arguments	-10155
uly	-10156
eath	-10157
▁Environment	-10158
parts	-10159
▁Pers	-10160
▁conceptual	-10161
▁probabilities	-10162
('#	-10163
▁decimals	-10164
lass	-10165
reader	-10166
Fill	-10167
within	-10168
▁·	-10169
Stats	-10170
anese	-10171
Please	-10172
▁sensory	-10173
▁textbook	-10174
▁Probability	-10175
▁Lo	-10176
grpc	-10177
▁overs	-10178
perature	-10179
▁tub	-10180
large	-10181
TIMESTAMP	-10182
▁addressed	-10183
ali	-10184
▁discourse	-10185
etric	-10186
▁publish	-10187
Buf	-10188
prise	-10189
Counter	-10190
igenous	-10191
TT	-10192
GEN	-10193
ometer	-10194
▁coast	-10195
▁*/;	-10196
▁Search	-10197
▁beneath	-10198
▁reasons	-10199
adv	-10200
need	-10201
▁citiz	-10202
jective	-10203
▁economy	-10204
Statement	-10205
▁medicine	-10206
——	-10207
Other	-10208
onacci	-10209
unicode	-10210
▁overview	-10211
lif	-10212
▁CHAR	-10213
▁Binary	-10214
Copyright	-10215
umulative	-10216
zing	-10217
arding	-10218
regular	-10219
▁binomial	-10220
theme	-10221
RED	-10222
Axis	-10223
izable	-10224
▁neighb	-10225
/--	-10226
▁Solving	-10227
ulary	-10228
▁flight	-10229
▁tan	-10230
eness	-10231
mouse	-10232
▁winter	-10233
▁articles	-10234
ANS	-10235
Std	-10236
▁Mus	-10237
▁Never	-10238
▁danger	-10239
▁assessed	-10240
▁reflected	-10241
▁Dem	-10242
▁designs	-10243
▁expanding	-10244
▁electricity	-10245
Arr	-10246
ROOT	-10247
well	-10248
erged	-10249
▁genuine	-10250
▁abilities	-10251
sha	-10252
Events	-10253
▁Direct	-10254
▁compens	-10255
▁CAST	-10256
ibration	-10257
▁iteration	-10258
matches	-10259
▁operators	-10260
▁comparable	-10261
atar	-10262
▁stems	-10263
contact	-10264
▁desire	-10265
Distance	-10266
▁accepted	-10267
}}^{	-10268
▁covers	-10269
Summary	-10270
▁border	-10271
]=	-10272
Database	-10273
undle	-10274
▁mother	-10275
▁friends	-10276
▁symmetry	-10277
DIRECT	-10278
mathcal	-10279
▁optical	-10280
'][	-10281
▁party	-10282
activity	-10283
Protocol	-10284
verbose	-10285
UTE	-10286
proc	-10287
▁tank	-10288
usage	-10289
▁Canada	-10290
▁Finally	-10291
tail	-10292
▁budget	-10293
▁resemb	-10294
▁aesthetic	-10295
Many	-10296
▁fiber	-10297
▁equality	-10298
▁regulations	-10299
▁Without	-10300
▁maintains	-10301
▁inad	-10302
Tri	-10303
white	-10304
icator	-10305
▁tested	-10306
zen	-10307
BACK	-10308
▁consumed	-10309
▁derivatives	-10310
Have	-10311
▁finish	-10312
pheric	-10313
Fn	-10314
▁repet	-10315
▁intens	-10316
▁divisor	-10317
▁portray	-10318
WIN	-10319
bad	-10320
Bind	-10321
▁tip	-10322
▁recover	-10323
▁denominators	-10324
agger	-10325
ritical	-10326
▁inert	-10327
ocabulary	-10328
▁ℕ	-10329
tar	-10330
▁Suppose	-10331
▁regarded	-10332
Static	-10333
Endpoint	-10334
▁quart	-10335
▁hardware	-10336
validation	-10337
AE	-10338
dm	-10339
Begin	-10340
▁fosters	-10341
▁mitigate	-10342
▁signaling	-10343
▁rectangular	-10344
▁'{	-10345
secret	-10346
Teuchos	-10347
▁polygon	-10348
▁epis	-10349
▁sqrt	-10350
▁credit	-10351
separ	-10352
▁decay	-10353
▁deployment	-10354
iant	-10355
▁originally	-10356
ji	-10357
conomic	-10358
▁Windows	-10359
CALL	-10360
▁iterate	-10361
▁quotient	-10362
▁governance	-10363
attrs	-10364
▁checks	-10365
▁synchron	-10366
partition	-10367
tau	-10368
href	-10369
PAC	-10370
thag	-10371
heses	-10372
▁margin	-10373
▁Well	-10374
lands	-10375
logram	-10376
▁glucose	-10377
▁Statistics	-10378
▁cb	-10379
▁gly	-10380
▁counts	-10381
▁syntax	-10382
▁interpreted	-10383
▁decode	-10384
▁motivation	-10385
alty	-10386
aven	-10387
▁sod	-10388
RIGHT	-10389
▁east	-10390
▁wealth	-10391
▁IOException	-10392
Ty	-10393
WAIT	-10394
▁Fig	-10395
isition	-10396
ORK	-10397
ARRAY	-10398
AF	-10399
iations	-10400
▁collectively	-10401
CUDA	-10402
scill	-10403
once	-10404
▁dram	-10405
▁court	-10406
ceptions	-10407
lp	-10408
▁morph	-10409
▁injuries	-10410
▁Adv	-10411
▁Sequ	-10412
History	-10413
▁approximate	-10414
tok	-10415
mong	-10416
▁transformed	-10417
URI	-10418
▁*,	-10419
apse	-10420
third	-10421
▁socket	-10422
▁Download	-10423
xc	-10424
Proxy	-10425
▁enforce	-10426
▁labeled	-10427
Agent	-10428
Xml	-10429
uits	-10430
▁thoughts	-10431
cup	-10432
added	-10433
rangle	-10434
▁raise	-10435
ClusterConfig	-10436
SG	-10437
glob	-10438
▁centered	-10439
▁domestic	-10440
▁stronger	-10441
▁manager	-10442
▁marking	-10443
▁endpoint	-10444
VAR	-10445
uity	-10446
▁Nor	-10447
constants	-10448
Flow	-10449
modal	-10450
▁partner	-10451
▁reciprocal	-10452
orean	-10453
ursor	-10454
▁Valid	-10455
▁aged	-10456
▁race	-10457
:(	-10458
sf	-10459
theless	-10460
Place	-10461
▁proven	-10462
FIX	-10463
▁scr	-10464
cdots	-10465
▁neur	-10466
▁legis	-10467
▁Profess	-10468
▁mul	-10469
topic	-10470
coring	-10471
▁moved	-10472
▁productivity	-10473
▁Every	-10474
pic	-10475
Rightarrow	-10476
▁Following	-10477
▁Energy	-10478
▁coprime	-10479
JS	-10480
▁worksheet	-10481
▁stake	-10482
intercept	-10483
Slice	-10484
Export	-10485
reduce	-10486
▁counting	-10487
▁Fin	-10488
icism	-10489
▁####	-10490
▁respiratory	-10491
▁Ω	-10492
same	-10493
oment	-10494
allelogram	-10495
▁examining	-10496
▁safeguard	-10497
rpc	-10498
▁tele	-10499
person	-10500
uclide	-10501
▁ranges	-10502
▁satisfy	-10503
▁controls	-10504
▁promotes	-10505
igue	-10506
▁Soci	-10507
▁Change	-10508
ndrome	-10509
▁deliberate	-10510
▁mixture	-10511
unct	-10512
ragma	-10513
▁satell	-10514
▁obvious	-10515
▁exploring	-10516
Fin	-10517
hist	-10518
▁Color	-10519
▁falls	-10520
▁infinity	-10521
▁seamless	-10522
▁classical	-10523
RESS	-10524
Promise	-10525
Optional	-10526
haust	-10527
ceiver	-10528
▁bridge	-10529
UInt	-10530
ertain	-10531
▁sv	-10532
reverse	-10533
Span	-10534
Insert	-10535
▁separation	-10536
nc	-10537
__);	-10538
accur	-10539
press	-10540
▁Response	-10541
foot	-10542
▁stead	-10543
▁loading	-10544
▁undergo	-10545
▁empirical	-10546
abc	-10547
igrp	-10548
▁gar	-10549
tasks	-10550
▁surve	-10551
CI	-10552
={{	-10553
Brick	-10554
LIB	-10555
ria	-10556
THER	-10557
▁```	-10558
testinal	-10559
Generator	-10560
▁accommod	-10561
▁discovered	-10562
iot	-10563
▁tied	-10564
develop	-10565
getValue	-10566
]$	-10567
Solve	-10568
Comment	-10569
▁Process	-10570
xd	-10571
▁ease	-10572
▁Decimal	-10573
▁bott	-10574
▁priority	-10575
encil	-10576
▁DateTime	-10577
▁purchase	-10578
▁estimates	-10579
isc	-10580
▁meeting	-10581
▁neutral	-10582
extension	-10583
▁universal	-10584
▁Arithmetic	-10585
▁worksheets	-10586
ini	-10587
HOST	-10588
elcome	-10589
radius	-10590
assertThat	-10591
▁Information	-10592
Di	-10593
ORE	-10594
▁browser	-10595
▁attached	-10596
▁warning	-10597
▁symmetric	-10598
ki	-10599
▁Gen	-10600
astro	-10601
▁nerv	-10602
answer	-10603
Admin	-10604
FOR	-10605
▁Fil	-10606
isEmpty	-10607
▁subjects	-10608
Instruction	-10609
REQ	-10610
SERV	-10611
Stop	-10612
Decimal	-10613
Public	-10614
colors	-10615
Visible	-10616
▁College	-10617
▁Custom	-10618
generated	-10619
INST	-10620
uses	-10621
▁hal	-10622
▁marginal	-10623
▁intricate	-10624
'\	-10625
▁Span	-10626
apture	-10627
▁incident	-10628
▁incorporate	-10629
▁considerations	-10630
cers	-10631
▁embra	-10632
▁committed	-10633
▁recursive	-10634
hentication	-10635
Dig	-10636
▁cul	-10637
▁expr	-10638
▁copies	-10639
DateTime	-10640
seg	-10641
▁Http	-10642
▁sums	-10643
▁youth	-10644
▁summer	-10645
ramid	-10646
▁thousands	-10647
nes	-10648
Video	-10649
▁dogs	-10650
▁OUT	-10651
▁pad	-10652
▁customers	-10653
▁Management	-10654
▁Ret	-10655
▁compr	-10656
▁cryst	-10657
pres	-10658
▁Import	-10659
training	-10660
Finally	-10661
updated	-10662
▁generates	-10663
▁Fib	-10664
ivial	-10665
▁Series	-10666
PM	-10667
West	-10668
▁foo	-10669
▁crisis	-10670
▁assuming	-10671
▁hydrogen	-10672
Wait	-10673
▁song	-10674
▁standing	-10675
▁Australia	-10676
amic	-10677
▁terr	-10678
▁facts	-10679
▁Technology	-10680
▁west	-10681
▁rfl	-10682
▁salt	-10683
▁faced	-10684
▁ath	-10685
▁happen	-10686
▁checking	-10687
▁encountered	-10688
▁sine	-10689
commands	-10690
▁favorable	-10691
ONG	-10692
▁Sur	-10693
▁clim	-10694
▁atoms	-10695
icularly	-10696
▁denoted	-10697
star	-10698
▁zip	-10699
getId	-10700
▁laser	-10701
▁polynomials	-10702
parency	-10703
ressing	-10704
▁Grade	-10705
▁surgery	-10706
▁adjustments	-10707
▁necessarily	-10708
▁continuously	-10709
west	-10710
SAM	-10711
tile	-10712
▁studied	-10713
ão	-10714
aud	-10715
},\	-10716
Pred	-10717
▁Back	-10718
▁Systems	-10719
:'	-10720
curr	-10721
▁Fire	-10722
Fragment	-10723
▁healing	-10724
▁gravitational	-10725
meas	-10726
CONST	-10727
uclidean	-10728
▁"_	-10729
▁BO	-10730
infl	-10731
▁recently	-10732
Hz	-10733
ctrl	-10734
▁literary	-10735
Bus	-10736
▁edit	-10737
▁adequate	-10738
WEB	-10739
▁Ok	-10740
▁insect	-10741
▁phosph	-10742
atern	-10743
itudes	-10744
▁synthesis	-10745
submit	-10746
▁cv	-10747
▁defense	-10748
▁hierarch	-10749
▁meth	-10750
tegral	-10751
▁Association	-10752
productive	-10753
▁constraint	-10754
▁Medic	-10755
▁clients	-10756
▁protected	-10757
":[	-10758
▁Dat	-10759
▁spon	-10760
▁refra	-10761
▁exceptional	-10762
Pane	-10763
exper	-10764
_)	-10765
ints	-10766
▁MAX	-10767
▁kid	-10768
licit	-10769
▁recognizing	-10770
▁prevention	-10771
▁fewer	-10772
▁Histor	-10773
HR	-10774
▁succeed	-10775
▁recommendations	-10776
BS	-10777
▁ru	-10778
▁cro	-10779
clock	-10780
question	-10781
ASH	-10782
Iterate	-10783
▁consideration	-10784
agers	-10785
▁mast	-10786
Holder	-10787
▁mentioned	-10788
ny	-10789
Lib	-10790
▁heating	-10791
▁Triangle	-10792
▁circuits	-10793
pez	-10794
▁Mock	-10795
▁Geometry	-10796
▁induction	-10797
Typ	-10798
flex	-10799
Groups	-10800
▁viable	-10801
▁attacks	-10802
▁struggle	-10803
="$	-10804
▁van	-10805
▁spin	-10806
issing	-10807
▁macro	-10808
▁signature	-10809
?"	-10810
BT	-10811
Weight	-10812
▁automated	-10813
uv	-10814
▁Greek	-10815
▁OTHER	-10816
▁Constraint	-10817
\{	-10818
▁Lin	-10819
▁` ` 	-10820
SOURCE	-10821
django	-10822
▁cities	-10823
▁offic	-10824
▁stimul	-10825
▁wavelength	-10826
▁mic	-10827
▁homes	-10828
primary	-10829
versely	-10830
chat	-10831
orry	-10832
▁celebr	-10833
▁philosophical	-10834
ffee	-10835
▁propag	-10836
▁expenses	-10837
basic	-10838
serde	-10839
onical	-10840
▁improves	-10841
Environment	-10842
▁noting	-10843
sol	-10844
{},	-10845
▁mk	-10846
▁rh	-10847
}$$.	-10848
▁weigh	-10849
▁Tensor	-10850
▁facilities	-10851
▁CK	-10852
▁Last	-10853
▁redirect	-10854
PG	-10855
▁shall	-10856
Language	-10857
)?;	-10858
▁Engineering	-10859
▁Multiplication	-10860
UINT	-10861
elow	-10862
▁phenomena	-10863
▁identifies	-10864
php	-10865
▁Park	-10866
▁Component	-10867
▁precisely	-10868
'''	-10869
Standard	-10870
▁COLLATE	-10871
fake	-10872
Center	-10873
-------	-10874
}^{\	-10875
restrict	-10876
![	-10877
▁Moreover	-10878
▁Op	-10879
▁writer	-10880
▁Divisors	-10881
▁residual	-10882
▁µ	-10883
;":	-10884
▁machines	-10885
▁hun	-10886
▁Sort	-10887
Member	-10888
IMARY	-10889
terior	-10890
poly	-10891
▁forest	-10892
▁metabol	-10893
Direction	-10894
▁hem	-10895
Direct	-10896
▁shares	-10897
▁experiencing	-10898
amination	-10899
▁Due	-10900
ighter	-10901
▁reserv	-10902
Grad	-10903
hus	-10904
tee	-10905
rooms	-10906
▁rhyth	-10907
external	-10908
She	-10909
Try	-10910
prost	-10911
▁san	-10912
▁thin	-10913
▁coins	-10914
▁annually	-10915
▁disable	-10916
▁mild	-10917
▁globally	-10918
▁ske	-10919
▁texts	-10920
▁formats	-10921
tb	-10922
▁pip	-10923
▁didn	-10924
Errors	-10925
▁Lesson	-10926
▁reward	-10927
▁heightened	-10928
▁underscoring	-10929
ATCH	-10930
CLUD	-10931
▁lip	-10932
likely	-10933
plitude	-10934
▁severity	-10935
psi	-10936
▁eating	-10937
;;	-10938
]}	-10939
spl	-10940
Book	-10941
▁courses	-10942
::<	-10943
isp	-10944
▁eggs	-10945
▁wants	-10946
▁justice	-10947
▁Prov	-10948
▁helpful	-10949
sch	-10950
▁draws	-10951
▁wrote	-10952
▁forecast	-10953
particularly	-10954
Inf	-10955
▁Try	-10956
▁Arch	-10957
▁Vol	-10958
▁talk	-10959
▁exhibits	-10960
nic	-10961
enth	-10962
succ	-10963
previous	-10964
▁administer	-10965
▁connecting	-10966
resize	-10967
▁aiming	-10968
▁evolutionary	-10969
<?	-10970
oned	-10971
▁birds	-10972
▁notion	-10973
isters	-10974
▁sports	-10975
▁passage	-10976
pages	-10977
▁fract	-10978
▁modulo	-10979
▁nutrients	-10980
▁ln	-10981
Focus	-10982
▁Corpor	-10983
▁seeds	-10984
backend	-10985
+=	-10986
onym	-10987
▁prioritize	-10988
▁accumulation	-10989
cols	-10990
mesh	-10991
▁organized	-10992
ims	-10993
▁Command	-10994
servation	-10995
definition	-10996
▁town	-10997
▁wors	-10998
compile	-10999
▁overlook	-11000
Ali	-11001
cin	-11002
ously	-11003
▁scre	-11004
▁proto	-11005
▁flavor	-11006
▁abnormal	-11007
▁concentrations	-11008
stud	-11009
▁delivers	-11010
teen	-11011
nership	-11012
▁exceeding	-11013
ycl	-11014
▁USE	-11015
Bad	-11016
_);	-11017
hour	-11018
yses	-11019
▁axes	-11020
failed	-11021
▁Germany	-11022
▁adaptation	-11023
$-	-11024
▁±	-11025
tol	-11026
Fire	-11027
scop	-11028
▁park	-11029
▁retain	-11030
▁calling	-11031
▁avoiding	-11032
▁comments	-11033
expression	-11034
functions	-11035
AO	-11036
▁{{	-11037
ktop	-11038
"%	-11039
EDIT	-11040
▁emerge	-11041
▁relying	-11042
▁navigate	-11043
▁covering	-11044
▁warr	-11045
▁choosing	-11046
▁generations	-11047
UST	-11048
Eigrp	-11049
▁allerg	-11050
orr	-11051
acer	-11052
▁pixel	-11053
▁Calculus	-11054
<>();	-11055
parsed	-11056
▁proved	-11057
▁roughly	-11058
▁contained	-11059
LD	-11060
whel	-11061
▁AIPS	-11062
▁folder	-11063
▁satisfaction	-11064
──	-11065
license	-11066
▁Main	-11067
without	-11068
▁recall	-11069
▁beliefs	-11070
▁runtime	-11071
▁registered	-11072
EventListener	-11073
>{	-11074
sorted	-11075
CLUDING	-11076
▁bounds	-11077
▁losses	-11078
▁controller	-11079
.(	-11080
LOAD	-11081
▁Water	-11082
omas	-11083
correct	-11084
▁stabil	-11085
UAL	-11086
numpy	-11087
▁abund	-11088
▁Context	-11089
▁emotions	-11090
Own	-11091
ataly	-11092
▁blank	-11093
▁Pass	-11094
▁acids	-11095
▁drugs	-11096
▁apparent	-11097
▁Individuals	-11098
had	-11099
ods	-11100
Save	-11101
▁Sen	-11102
▁html	-11103
▁candidates	-11104
FAIL	-11105
▁ance	-11106
▁cash	-11107
▁leak	-11108
▁resp	-11109
hemical	-11110
ogeneous	-11111
▁placing	-11112
▁instruments	-11113
Split	-11114
Dimens	-11115
ssue	-11116
▁Latin	-11117
plugins	-11118
ese	-11119
▁Medium	-11120
▁extending	-11121
▁inch	-11122
composition	-11123
▁independence	-11124
AV	-11125
roy	-11126
Factor	-11127
▁Delete	-11128
environment	-11129
▁cls	-11130
▁trauma	-11131
▁Account	-11132
▁turning	-11133
Dev	-11134
Users	-11135
▁pose	-11136
▁ingredients	-11137
dv	-11138
▁vac	-11139
idity	-11140
▁intra	-11141
▁mouth	-11142
▁union	-11143
▁usize	-11144
browser	-11145
texture	-11146
cusparse	-11147
▁becoming	-11148
Door	-11149
Extra	-11150
Complete	-11151
▁placement	-11152
▁alternatives	-11153
ctl	-11154
High	-11155
North	-11156
warning	-11157
▁nutrient	-11158
▁eliminating	-11159
Partition	-11160
Play	-11161
Under	-11162
orest	-11163
▁tight	-11164
Abstract	-11165
▁utilized	-11166
Make	-11167
▁ecosystems	-11168
uling	-11169
toggle	-11170
▁spher	-11171
▁capability	-11172
Metrics	-11173
▁dialogue	-11174
▁pregnancy	-11175
▁Design	-11176
generator	-11177
striction	-11178
▁neighbor	-11179
▁_)	-11180
ULAR	-11181
▁migration	-11182
▁uncertain	-11183
▁separated	-11184
Req	-11185
▁rc	-11186
Operator	-11187
▁aircraft	-11188
▁mechanics	-11189
PORTED	-11190
deploy	-11191
leaf	-11192
▁reput	-11193
▁Regular	-11194
▁Property	-11195
▁logarithm	-11196
dash	-11197
▁Client	-11198
▁accompan	-11199
Mouse	-11200
▁cone	-11201
▁typeof	-11202
bro	-11203
▁AP	-11204
▁fluct	-11205
▁closer	-11206
▁stories	-11207
▁philosophy	-11208
MAC	-11209
▁Iter	-11210
▁dose	-11211
▁residents	-11212
▁utilizing	-11213
GF	-11214
actor	-11215
▁mortality	-11216
IFO	-11217
Pyx	-11218
regex	-11219
Bounds	-11220
▁markets	-11221
LIN	-11222
▁lect	-11223
▁Language	-11224
defer	-11225
▁Force	-11226
▁membr	-11227
▁Global	-11228
▁Development	-11229
▁}{\	-11230
▁≠	-11231
cipl	-11232
existing	-11233
▁employment	-11234
⟩,	-11235
RET	-11236
▁Core	-11237
raining	-11238
▁intuitive	-11239
▁fre	-11240
itage	-11241
▁corre	-11242
Uniform	-11243
▁continuity	-11244
apor	-11245
audio	-11246
EP	-11247
nx	-11248
▁phrase	-11249
Namespace	-11250
▁Definition	-11251
nam	-11252
▁utils	-11253
▁comprom	-11254
▁multiplic	-11255
▁impossible	-11256
izz	-11257
▁flux	-11258
▁Nevertheless	-11259
▁HIV	-11260
▁charges	-11261
▁difficulties	-11262
▁developmental	-11263
ien	-11264
bial	-11265
▁ray	-11266
▁disturb	-11267
▁lessons	-11268
▁targeting	-11269
▁degradation	-11270
fall	-11271
Mapper	-11272
degree	-11273
▁Server	-11274
▁"";	-11275
istant	-11276
▁dream	-11277
▁respective	-11278
ROP	-11279
▁Cur	-11280
▁City	-11281
▁couple	-11282
▁threads	-11283
▁hospital	-11284
▁versus	-11285
 = 	-11286
Tests	-11287
▁LICENSE	-11288
▁uncover	-11289
+'	-11290
▁fol	-11291
South	-11292
scene	-11293
ivating	-11294
URN	-11295
otor	-11296
▁Human	-11297
▁contribution	-11298
hydr	-11299
▁Early	-11300
▁▁▁▁▁▁▁▁▁▁▁	-11301
▁Pop	-11302
▁Game	-11303
▁diverg	-11304
▁agreement	-11305
East	-11306
▁saw	-11307
▁thickness	-11308
▁distributions	-11309
▁astr	-11310
▁crim	-11311
agraph	-11312
▁latest	-11313
▁investigate	-11314
▁Sat	-11315
▁asy	-11316
▁orbit	-11317
▁tells	-11318
▁subtle	-11319
▁reaches	-11320
geq	-11321
▁arrangement	-11322
_\	-11323
]],	-11324
war	-11325
▁asc	-11326
iatric	-11327
▁revenue	-11328
▁explan	-11329
▁bacterial	-11330
Med	-11331
▁fatigue	-11332
uffle	-11333
Enable	-11334
Progress	-11335
%)	-11336
bg	-11337
▁Av	-11338
▁cu	-11339
encoding	-11340
▁neither	-11341
cker	-11342
▁empower	-11343
Bo	-11344
Clone	-11345
STATE	-11346
loads	-11347
▁revolution	-11348
▁codes	-11349
▁dio	-11350
selector	-11351
▁substitute	-11352
▁fd	-11353
Theme	-11354
allenge	-11355
▁representations	-11356
MI	-11357
coll	-11358
▁${\	-11359
pathy	-11360
Loading	-11361
fx	-11362
▁в	-11363
Depend	-11364
▁gal	-11365
▁Three	-11366
mi	-11367
oral	-11368
posed	-11369
detail	-11370
inomial	-11371
▁curves	-11372
TF	-11373
Cmd	-11374
▁ABC	-11375
START	-11376
branch	-11377
▁origins	-11378
▁modifications	-11379
▁pig	-11380
shell	-11381
stries	-11382
▁dollars	-11383
selection	-11384
▁explains	-11385
▁magic	-11386
▁ocean	-11387
▁woman	-11388
▁Society	-11389
▁employee	-11390
illa	-11391
▁Cong	-11392
igrations	-11393
▁attempts	-11394
▁executed	-11395
▁necessit	-11396
▁overwhel	-11397
▁HTML	-11398
strings	-11399
▁Exercise	-11400
▁Term	-11401
pending	-11402
▁asympt	-11403
istically	-11404
▁striking	-11405
{'	-11406
▁Box	-11407
▁parab	-11408
▁oscill	-11409
▁possibly	-11410
▁strengthens	-11411
{.	-11412
▁wheel	-11413
▁Pythag	-11414
▁cosine	-11415
▁recurs	-11416
Although	-11417
▁historically	-11418
las	-11419
authorized	-11420
pulumi	-11421
▁volumes	-11422
▁requested	-11423
amil	-11424
ications	-11425
▁retention	-11426
repr	-11427
▁Bra	-11428
▁refine	-11429
▁accounting	-11430
▁simplified	-11431
▁formulation	-11432
ounce	-11433
stride	-11434
▁bench	-11435
▁edited	-11436
stringify	-11437
▁coordination	-11438
AGES	-11439
pv	-11440
PIN	-11441
▁ju	-11442
amine	-11443
Binding	-11444
PV	-11445
▁mac	-11446
ctr	-11447
▁paid	-11448
▁north	-11449
▁employs	-11450
▁artifact	-11451
▁ple	-11452
rial	-11453
▁debate	-11454
▁Microsoft	-11455
(['	-11456
publish	-11457
uniform	-11458
translate	-11459
POS	-11460
pointer	-11461
▁transportation	-11462
xf	-11463
▁III	-11464
▁History	-11465
▁Partial	-11466
health	-11467
obs	-11468
gypt	-11469
party	-11470
ADER	-11471
ouncil	-11472
▁Light	-11473
▁transforming	-11474
Private	-11475
▁plugin	-11476
▁Multiply	-11477
abb	-11478
▁Jo	-11479
Scalar	-11480
scores	-11481
Renderer	-11482
▁pump	-11483
van	-11484
rink	-11485
▁Der	-11486
rupted	-11487
▁apart	-11488
▁consumers	-11489
cuss	-11490
▁patch	-11491
▁viral	-11492
▁packet	-11493
▁pipeline	-11494
▁consisting	-11495
aN	-11496
▁Sl	-11497
▁myth	-11498
omatic	-11499
▁Notably	-11500
Login	-11501
ester	-11502
▁oxid	-11503
▁rock	-11504
▁Introduction	-11505
sz	-11506
▁elastic	-11507
Used	-11508
▁Digital	-11509
coin	-11510
Prime	-11511
▁lift	-11512
Driver	-11513
utdown	-11514
▁sectors	-11515
▁walls	-11516
▁introducing	-11517
▁Consequently	-11518
Car	-11519
▁IR	-11520
pipe	-11521
▁cooling	-11522
▁industries	-11523
visible	-11524
iddleware	-11525
Schedu	-11526
▁office	-11527
▁savings	-11528
agnetic	-11529
▁requirement	-11530
days	-11531
Expect	-11532
Payload	-11533
            	-11534
prob	-11535
atted	-11536
dbo	-11537
▁}}	-11538
▁-->	-11539
▁quiet	-11540
▁resistor	-11541
lu	-11542
sup	-11543
Actions	-11544
▁authentic	-11545
oir	-11546
▁datasets	-11547
▁MC	-11548
ille	-11549
pot	-11550
▁transparency	-11551
'<	-11552
Mano	-11553
oked	-11554
▁shel	-11555
opping	-11556
▁yourself	-11557
▁triggered	-11558
got	-11559
aver	-11560
▁LED	-11561
iating	-11562
suffix	-11563
Chat	-11564
▁Don	-11565
▁bag	-11566
▁hyd	-11567
▁rod	-11568
ublas	-11569
psilon	-11570
▁truly	-11571
▁conclude	-11572
▁PyObject	-11573
`;	-11574
).__	-11575
▁ion	-11576
▁biom	-11577
unched	-11578
▁Circle	-11579
▁studying	-11580
▁irre	-11581
agonal	-11582
pie	-11583
▁Status	-11584
ressions	-11585
▁convergence	-11586
/"	-11587
gz	-11588
▁IMP	-11589
▁lacks	-11590
farg	-11591
World	-11592
Chapter	-11593
▁restricted	-11594
Pers	-11595
heduled	-11596
conds	-11597
saved	-11598
▁fluctu	-11599
▁syndrome	-11600
▁emergence	-11601
},{	-11602
▁marine	-11603
ArrayList	-11604
avg	-11605
FALSE	-11606
Producto	-11607
▁parties	-11608
▁scatter	-11609
▁saved	-11610
▁zones	-11611
('\	-11612
▁aging	-11613
abla	-11614
Bucket	-11615
▁carries	-11616
]->	-11617
haps	-11618
▁...,	-11619
▁Thanks	-11620
▁shorter	-11621
▁shifting	-11622
osh	-11623
▁Acad	-11624
▁trajectory	-11625
Ste	-11626
ATED	-11627
▁Age	-11628
▁acquisition	-11629
▁'_	-11630
▁son	-11631
▁citizens	-11632
▁constructor	-11633
bul	-11634
lier	-11635
▁Arm	-11636
sched	-11637
▁adds	-11638
▁lighting	-11639
xFF	-11640
ltim	-11641
ortest	-11642
▁encode	-11643
▁preparing	-11644
"{	-11645
▁ω	-11646
('--	-11647
▁combine	-11648
▁criminal	-11649
▁frequencies	-11650
▁nutritional	-11651
▁conversation	-11652
▁implementing	-11653
▁tube	-11654
▁Action	-11655
▁regularly	-11656
▁Corporation	-11657
sis	-11658
▁Pal	-11659
qquad	-11660
STRING	-11661
valuation	-11662
▁atmospheric	-11663
▁atomic	-11664
▁feasible	-11665
nan	-11666
nod	-11667
▁consume	-11668
▁identities	-11669
IENT	-11670
▁Local	-11671
▁combat	-11672
▁scheme	-11673
localhost	-11674
Low	-11675
uction	-11676
▁visually	-11677
Join	-11678
Worker	-11679
implify	-11680
▁President	-11681
▁childhood	-11682
▁Jun	-11683
▁grasp	-11684
▁grass	-11685
▁stars	-11686
Variant	-11687
▁Contin	-11688
mr	-11689
delay	-11690
locale	-11691
▁denotes	-11692
▁monthly	-11693
polation	-11694
▁PART	-11695
▁soph	-11696
$ 	-11697
▁les	-11698
ander	-11699
▁spent	-11700
▁moderate	-11701
oul	-11702
▁pretty	-11703
bn	-11704
GPU	-11705
▁xy	-11706
cook	-11707
▁elem	-11708
notify	-11709
▁Print	-11710
cop	-11711
▁Egypt	-11712
ressive	-11713
▁college	-11714
hx	-11715
▁Bal	-11716
always	-11717
▁newly	-11718
▁stats	-11719
▁Social	-11720
▁cup	-11721
▁decor	-11722
▁therap	-11723
Expected	-11724
▁limiting	-11725
aque	-11726
▁weap	-11727
XS	-11728
YY	-11729
ymph	-11730
▁rain	-11731
▁oblig	-11732
▁spanning	-11733
▁#-}	-11734
▁Struct	-11735
xff	-11736
CERT	-11737
▁dur	-11738
stock	-11739
complex	-11740
▁centre	-11741
Cursor	-11742
▁CONTR	-11743
▁faith	-11744
rational	-11745
Generic	-11746
INVALID	-11747
peg	-11748
▁username	-11749
CLO	-11750
gnore	-11751
ProduMano	-11752
▁competition	-11753
▁participate	-11754
chor	-11755
Fixed	-11756
Should	-11757
istence	-11758
▁valued	-11759
▁dioxide	-11760
▁assembly	-11761
▁wish	-11762
WORK	-11763
▁youn	-11764
ATTRIB	-11765
▁Study	-11766
▁Rights	-11767
]\	-11768
}")	-11769
▁Right	-11770
IDE	-11771
▁news	-11772
dialog	-11773
schedule	-11774
mbed	-11775
otherapy	-11776
▁COP	-11777
outer	-11778
▁indo	-11779
signal	-11780
▁harmony	-11781
▁functioning	-11782
▁acknowledged	-11783
?;	-11784
DEF	-11785
etype	-11786
Cancel	-11787
▁Complex	-11788
disk	-11789
▁arter	-11790
▁submit	-11791
▁quarter	-11792
▁strictly	-11793
ibl	-11794
▁cfg	-11795
▁flows	-11796
ABC	-11797
▁[`	-11798
_____	-11799
phabet	-11800
▁Author	-11801
▁suscept	-11802
▁necessity	-11803
lua	-11804
▁ha	-11805
Folder	-11806
Failure	-11807
Posts	-11808
▁spl	-11809
analy	-11810
Execution	-11811
:",	-11812
Memcpy	-11813
Gu	-11814
GRO	-11815
▁San	-11816
Bundle	-11817
country	-11818
rent	-11819
▁cam	-11820
▁father	-11821
{-#	-11822
anches	-11823
▁irrit	-11824
▁bright	-11825
▁graphql	-11826
▁extremely	-11827
Rot	-11828
uing	-11829
▁denote	-11830
▁permanent	-11831
▁unf	-11832
▁muscles	-11833
gc	-11834
▁treating	-11835
▁absorption	-11836
ATOR	-11837
▁lookup	-11838
character	-11839
▁exhibited	-11840
Abs	-11841
Shader	-11842
▁David	-11843
▁legit	-11844
▁sa	-11845
数据	-11846
ysics	-11847
ogenic	-11848
▁anyone	-11849
SUB	-11850
▁"+	-11851
▁Que	-11852
ampler	-11853
▁Remove	-11854
▁Japan	-11855
▁bigger	-11856
▁projection	-11857
cx	-11858
kt	-11859
canvas	-11860
▁deleted	-11861
vr	-11862
▁Bus	-11863
micro	-11864
▁orders	-11865
▁floating	-11866
uge	-11867
textbf	-11868
▁Board	-11869
Annotation	-11870
▁capacitor	-11871
▁encouraging	-11872
▁bis	-11873
pragma	-11874
wallet	-11875
▁=\	-11876
necess	-11877
LAB	-11878
cycle	-11879
quant	-11880
)|	-11881
▁cited	-11882
▁guided	-11883
▁}\	-11884
Stat	-11885
▁coffee	-11886
▁emotion	-11887
▁facilitating	-11888
versal	-11889
refresh	-11890
▁saying	-11891
▁situated	-11892
▁incidence	-11893
Seq	-11894
}',	-11895
Writ	-11896
▁"__	-11897
Cloud	-11898
METHOD	-11899
▁ahead	-11900
▁compass	-11901
▁Arab	-11902
▁featured	-11903
▁Br	-11904
priv	-11905
ulse	-11906
▁stone	-11907
ita	-11908
insic	-11909
▁hazard	-11910
mn	-11911
Speed	-11912
▁adapted	-11913
▁Fibonacci	-11914
syn	-11915
▁DC	-11916
irms	-11917
▁insulin	-11918
▁encourages	-11919
YS	-11920
▁fro	-11921
▁complicated	-11922
ena	-11923
bing	-11924
ching	-11925
▁mold	-11926
Native	-11927
integer	-11928
▁induct	-11929
▁captured	-11930
▁accompanied	-11931
gin	-11932
▁loaded	-11933
▁parity	-11934
▁sought	-11935
POSE	-11936
▁MIT	-11937
▁frames	-11938
▁Gr	-11939
berg	-11940
▁accessibility	-11941
▁transformations	-11942
stroke	-11943
▁asking	-11944
Children	-11945
spr	-11946
▁[-	-11947
▁Ins	-11948
▁snow	-11949
egative	-11950
▁bio	-11951
▁Jewish	-11952
▁charged	-11953
▁personnel	-11954
PK	-11955
▁nth	-11956
▁mice	-11957
Contact	-11958
▁Review	-11959
/'	-11960
▁kit	-11961
Retry	-11962
eting	-11963
▁gate	-11964
▁relief	-11965
endl	-11966
▁dil	-11967
▁seq	-11968
▁Isra	-11969
``;	-11970
ione	-11971
swith	-11972
▁Upon	-11973
▁diminished	-11974
([]	-11975
kes	-11976
ysql	-11977
▁Construct	-11978
Notification	-11979
pd	-11980
▁Theory	-11981
interpret	-11982
▁transmit	-11983
▁disciplines	-11984
ato	-11985
▁WH	-11986
▁efficacy	-11987
▁▁▁▁▁▁▁▁▁	-11988
▁centuries	-11989
ago	-11990
plane	-11991
▁Look	-11992
▁Effect	-11993
▁preceding	-11994
.')	-11995
▁Does	-11996
TEXTURE	-11997
▁hybrid	-11998
▁recurring	-11999
ura	-12000
INIT	-12001
Depth	-12002
▁entering	-12003
▁partners	-12004
Constraints	-12005
tid	-12006
)}^{	-12007
<<<<	-12008
Comm	-12009
Tuple	-12010
▁emit	-12011
whether	-12012
▁reasonable	-12013
NAM	-12014
reshape	-12015
▁rounding	-12016
strap	-12017
▁sounds	-12018
▁Runtime	-12019
▁escape	-12020
▁boxes	-12021
▁divides	-12022
===	-12023
ribed	-12024
▁formally	-12025
▁eval	-12026
▁worker	-12027
AIR	-12028
aked	-12029
shop	-12030
▁door	-12031
▁tile	-12032
▁Serv	-12033
utter	-12034
▁Green	-12035
▁chlor	-12036
▁verbose	-12037
(@	-12038
▁tolerance	-12039
▁describing	-12040
]"	-12041
▁girls	-12042
▁burden	-12043
▁upward	-12044
▁permitted	-12045
xb	-12046
▁soon	-12047
reach	-12048
ecycle	-12049
Suppose	-12050
▁metaph	-12051
▁triggers	-12052
▁rub	-12053
Material	-12054
Define	-12055
USERID	-12056
▁norms	-12057
▁analyses	-12058
▁RT	-12059
CPP	-12060
ARCH	-12061
agram	-12062
lectric	-12063
running	-12064
dominant	-12065
▁similarly	-12066
▁mol	-12067
▁stick	-12068
renderer	-12069
Condition	-12070
▁disabled	-12071
▁normally	-12072
cn	-12073
▁dp	-12074
CTRL	-12075
acet	-12076
▁coinc	-12077
▁typing	-12078
)$,	-12079
▁ts	-12080
Arch	-12081
week	-12082
▁fle	-12083
▁substr	-12084
▁harvest	-12085
ogonal	-12086
▁converting	-12087
▁distinguish	-12088
Mix	-12089
letes	-12090
mg	-12091
links	-12092
▁prevalent	-12093
Day	-12094
▁SI	-12095
half	-12096
▁aid	-12097
▁determines	-12098
▁parallelogram	-12099
▁isolation	-12100
▁sophistic	-12101
▁𝑥	-12102
▁Take	-12103
Headers	-12104
▁Measure	-12105
▁computation	-12106
UUID	-12107
setState	-12108
▁holding	-12109
▁variability	-12110
-%	-12111
▁racial	-12112
FUNCTION	-12113
▁Support	-12114
rb	-12115
▁Users	-12116
▁rural	-12117
ipheral	-12118
▁calcium	-12119
▁Pi	-12120
Even	-12121
Mesh	-12122
Chart	-12123
▁Princ	-12124
▁Range	-12125
Variables	-12126
▁decreases	-12127
▁photograph	-12128
<=	-12129
Cred	-12130
▁dates	-12131
▁Task	-12132
▁Token	-12133
▁Stream	-12134
▁William	-12135
▁conditional	-12136
ISTS	-12137
▁south	-12138
confirm	-12139
▁stroke	-12140
▁adjusted	-12141
Af	-12142
mx	-12143
▁"../	-12144
ituting	-12145
▁investigated	-12146
▁cas	-12147
rolling	-12148
▁congruent	-12149
▁achievement	-12150
CUR	-12151
▁musical	-12152
▁partnership	-12153
heit	-12154
▁sig	-12155
▁Japanese	-12156
SB	-12157
▁Admin	-12158
subject	-12159
▁wonder	-12160
Contents	-12161
▁factory	-12162
NESS	-12163
▁"--	-12164
Fetch	-12165
▁tact	-12166
approx	-12167
changes	-12168
wp	-12169
▁Rest	-12170
Shared	-12171
unused	-12172
worker	-12173
▁Beyond	-12174
ltimately	-12175
▁compression	-12176
▁EN	-12177
visor	-12178
▁spot	-12179
▁magnet	-12180
pal	-12181
▁Where	-12182
XML	-12183
▁Cap	-12184
▁Lim	-12185
▁obst	-12186
▁trick	-12187
▁Random	-12188
▁incorporates	-12189
Mov	-12190
calc	-12191
ernet	-12192
▁born	-12193
Collect	-12194
According	-12195
▁initialize	-12196
km	-12197
▁FIG	-12198
▁completing	-12199
!}	-12200
▁Year	-12201
▁suit	-12202
Measure	-12203
▁worldwide	-12204
MR	-12205
▁barrier	-12206
▁promise	-12207
▁architectural	-12208
share	-12209
▁realm	-12210
▁fundamentally	-12211
▁dut	-12212
^-	-12213
acion	-12214
▁furn	-12215
▁outdoor	-12216
▁randomly	-12217
LT	-12218
▁River	-12219
▁unfold	-12220
▁limitation	-12221
▁hol	-12222
▁adherence	-12223
▁cot	-12224
▁mess	-12225
▁flood	-12226
▁biology	-12227
▁cumulative	-12228
bles	-12229
walk	-12230
▁sky	-12231
▁cand	-12232
Series	-12233
▁geographic	-12234
▁DB	-12235
written	-12236
analysis	-12237
▁certificate	-12238
Gre	-12239
▁NE	-12240
ERN	-12241
▁tt	-12242
uble	-12243
Topic	-12244
isted	-12245
▁heads	-12246
▁inequalities	-12247
CMD	-12248
▁Medical	-12249
▁nitrogen	-12250
▁navigation	-12251
▁worked	-12252
gar	-12253
closure	-12254
ciplinary	-12255
▁vegetables	-12256
▁Factorization	-12257
Comput	-12258
standard	-12259
▁barriers	-12260
▁periodic	-12261
▁practition	-12262
demo	-12263
▁Home	-12264
reason	-12265
▁synthetic	-12266
▁Quadr	-12267
getType	-12268
IOException	-12269
pur	-12270
blank	-12271
▁endl	-12272
▁Rather	-12273
peer	-12274
zyme	-12275
textcolor	-12276
▁collision	-12277
▁conflicts	-12278
▁returning	-12279
▁expressing	-12280
kl	-12281
sto	-12282
sens	-12283
▁soc	-12284
built	-12285
retry	-12286
Kernel	-12287
attice	-12288
▁unable	-12289
▁advisable	-12290
Cost	-12291
missing	-12292
▁Conf	-12293
------	-12294
Objects	-12295
▁derive	-12296
Strategy	-12297
Resources	-12298
` `    ``	-12299
EXPORT	-12300
inical	-12301
▁walking	-12302
▁rendering	-12303
▁modification	-12304
▁subsequently	-12305
!"	-12306
▁OS	-12307
▁feeding	-12308
▁queries	-12309
GC	-12310
gg	-12311
▁logger	-12312
Hy	-12313
▁tour	-12314
▁storm	-12315
ategories	-12316
▁launched	-12317
Cir	-12318
▁gest	-12319
Require	-12320
library	-12321
▁entered	-12322
▁phases	-12323
▁Variable	-12324
▁nutrition	-12325
VO	-12326
During	-12327
▁northern	-12328
▁ordinary	-12329
bat	-12330
stor	-12331
imated	-12332
identity	-12333
▁housing	-12334
▁satellite	-12335
ahren	-12336
aired	-12337
▁Cart	-12338
▁turb	-12339
▁confusion	-12340
cross	-12341
▁Writ	-12342
▁Republic	-12343
▁")	-12344
olester	-12345
clusions	-12346
friendly	-12347
▁Kingdom	-12348
provincia	-12349
vin	-12350
▁'';	-12351
INDEX	-12352
Reset	-12353
▁telev	-12354
.$$	-12355
sur	-12356
Apply	-12357
▁lived	-12358
▁speeds	-12359
▁refined	-12360
Tex	-12361
mass	-12362
assets	-12363
circle	-12364
▁Conversely	-12365
ruit	-12366
avigation	-12367
▁reproductive	-12368
ften	-12369
adder	-12370
▁Normal	-12371
▁exhaust	-12372
▁supportive	-12373
Mill	-12374
▁Enter	-12375
▁Report	-12376
▁insurance	-12377
▁wx	-12378
afety	-12379
▁videos	-12380
swig	-12381
Geometry	-12382
▁southern	-12383
UNK	-12384
mas	-12385
▁heavily	-12386
▁vibrant	-12387
▁prediction	-12388
"."	-12389
▁pt	-12390
agen	-12391
▁mesh	-12392
▁artic	-12393
▁Applications	-12394
Done	-12395
▁Auth	-12396
declare	-12397
▁conserv	-12398
▁university	-12399
▁il	-12400
▁compatibility	-12401
omal	-12402
▁bread	-12403
ologist	-12404
CFG	-12405
▁cer	-12406
neigh	-12407
▁parsed	-12408
▁replacing	-12409
▁restriction	-12410
▁incorporated	-12411
iso	-12412
▁gains	-12413
▁shadow	-12414
▁indicator	-12415
============	-12416
RX	-12417
▁Ber	-12418
aware	-12419
▁bases	-12420
▁Transform	-12421
▁Mo	-12422
$("#	-12423
named	-12424
environ	-12425
▁convenient	-12426
stmt	-12427
Certificate	-12428
▁underscore	-12429
sdk	-12430
▁Bit	-12431
Angle	-12432
ashion	-12433
▁pulumi	-12434
▁Content	-12435
olesterol	-12436
▁interplay	-12437
union	-12438
▁imped	-12439
includes	-12440
positive	-12441
▁subtracting	-12442
▁filed	-12443
Setting	-12444
▁statistic	-12445
▁constructing	-12446
.'	-12447
▁unw	-12448
▁Pack	-12449
▁Court	-12450
``            ``	-12451
odo	-12452
▁Du	-12453
ARGET	-12454
panel	-12455
▁twenty	-12456
▁waiting	-12457
Solutions	-12458
▁intermediate	-12459
rian	-12460
zoom	-12461
▁Maybe	-12462
▁blend	-12463
▁meant	-12464
ivative	-12465
▁withdraw	-12466
MPL	-12467
BUILD	-12468
▁usual	-12469
▁markers	-12470
▁cultures	-12471
▁revealing	-12472
cha	-12473
▁*=	-12474
▁Ev	-12475
ratio	-12476
▁meat	-12477
▁vaccine	-12478
Perimeter	-12479
ahrenheit	-12480
EVENT	-12481
ondon	-12482
▁Paul	-12483
coords	-12484
erator	-12485
identifier	-12486
▁prevalence	-12487
ema	-12488
epi	-12489
{})	-12490
NGTH	-12491
iline	-12492
Period	-12493
cached	-12494
▁exports	-12495
bias	-12496
will	-12497
sible	-12498
▁cohes	-12499
▁inject	-12500
▁suppose	-12501
Qt	-12502
▁gastro	-12503
insertion	-12504
pf	-12505
ourier	-12506
unknown	-12507
▁scholars	-12508
▁'__	-12509
▁Case	-12510
Sorted	-12511
▁commut	-12512
▁vessels	-12513
LAY	-12514
asis	-12515
inations	-12516
▁Connect	-12517
▁intercept	-12518
▁creativity	-12519
mol	-12520
▁Perm	-12521
VERTEX	-12522
▁pathway	-12523
:=	-12524
▁pytest	-12525
▁Indexed	-12526
▁bounded	-12527
▁organisms	-12528
Qual	-12529
ENSIONS	-12530
▁tot	-12531
llegal	-12532
▁Great	-12533
▁hinder	-12534
pw	-12535
energy	-12536
▁guiding	-12537
osa	-12538
minus	-12539
Radius	-12540
▁login	-12541
MB	-12542
Java	-12543
Norm	-12544
utical	-12545
▁cataly	-12546
vc	-12547
ipse	-12548
Press	-12549
▁essay	-12550
▁-\	-12551
Inner	-12552
etary	-12553
▁Notes	-12554
▁meals	-12555
▁Spanish	-12556
▁younger	-12557
▁electrom	-12558
Tile	-12559
▁wet	-12560
▁da	-12561
▁LIMIT	-12562
clusive	-12563
frequency	-12564
getString	-12565
▁printing	-12566
+"	-12567
commun	-12568
▁fruits	-12569
ationship	-12570
AI	-12571
IEW	-12572
smart	-12573
▁mood	-12574
hello	-12575
▁cursor	-12576
▁generic	-12577
mutex	-12578
▁Dark	-12579
Remote	-12580
▁durability	-12581
udd	-12582
▁manually	-12583
▁infer	-12584
ixtures	-12585
▁pixels	-12586
▁Mex	-12587
▁pest	-12588
Submit	-12589
▁Query	-12590
Gateway	-12591
▁corporate	-12592
HAND	-12593
cule	-12594
▁moles	-12595
▁prompting	-12596
▁institution	-12597
Peer	-12598
plant	-12599
▁dispar	-12600
▁tendency	-12601
▁Understanding	-12602
jar	-12603
▁sen	-12604
scripts	-12605
▁fusion	-12606
▁witness	-12607
Und	-12608
folio	-12609
▁proactive	-12610
▁referenced	-12611
inet	-12612
LENGTH	-12613
▁drain	-12614
▁onset	-12615
▁accountability	-12616
lon	-12617
wood	-12618
bench	-12619
dynamic	-12620
▁facing	-12621
▁spirit	-12622
▁stores	-12623
FloatTensor	-12624
Uri	-12625
dup	-12626
Called	-12627
candid	-12628
ulates	-12629
IME	-12630
UCT	-12631
rip	-12632
ubs	-12633
maps	-12634
three	-12635
ivalent	-12636
▁brought	-12637
▁simplest	-12638
ographical	-12639
▁compounding	-12640
▁influencing	-12641
LC	-12642
vals	-12643
▁USB	-12644
Detail	-12645
▁torque	-12646
▁inadequ	-12647
,(	-12648
▁\{	-12649
slot	-12650
olden	-12651
CONTRO	-12652
▁Subtract	-12653
▁suggested	-12654
▁IV	-12655
▁`${	-12656
▁Teach	-12657
▁France	-12658
▁leader	-12659
▁developers	-12660
▁collections	-12661
▁transactions	-12662
▁Ca	-12663
▁ol	-12664
▁cups	-12665
necessary	-12666
▁profiles	-12667
|(	-12668
ailing	-12669
▁wrapper	-12670
.*;	-12671
"></	-12672
also	-12673
Created	-12674
▁advice	-12675
▁funds	-12676
▁speaker	-12677
▁administrative	-12678
ال	-12679
eleration	-12680
▁Multiple	-12681
▁irrational	-12682
▁circulation	-12683
BN	-12684
▁helped	-12685
▁Professor	-12686
▁resonance	-12687
sage	-12688
▁BUT	-12689
▁Yes	-12690
▁plt	-12691
▁gaps	-12692
▁routines	-12693
▁integrates	-12694
▁adaptability	-12695
XI	-12696
cov	-12697
aded	-12698
/***/	-12699
guild	-12700
unittest	-12701
▁comprehension	-12702
Slot	-12703
▁fault	-12704
▁Recogn	-12705
Transport	-12706
▁failures	-12707
schem	-12708
▁embod	-12709
▁pri	-12710
TABLE	-12711
▁Asia	-12712
▁grant	-12713
compose	-12714
mapping	-12715
▁Sample	-12716
▁Studies	-12717
▁matters	-12718
appendChild	-12719
▁thoughtful	-12720
}{{	-12721
etry	-12722
▁jump	-12723
▁odds	-12724
▁semi	-12725
Dispatch	-12726
loadUser	-12727
▁Compute	-12728
Pixel	-12729
▁bonds	-12730
geometry	-12731
▁heritage	-12732
▁Mal	-12733
▁accompany	-12734
▁Conversion	-12735
▁consciousness	-12736
▁DATA	-12737
redirect	-12738
▁Special	-12739
descriptor	-12740
about	-12741
Joined	-12742
▁varied	-12743
Also	-12744
▁foss	-12745
▁hole	-12746
▁enthus	-12747
▁hearing	-12748
▁collapse	-12749
▁rhs	-12750
▁sodium	-12751
▁methodology	-12752
/%	-12753
eras	-12754
associ	-12755
▁scales	-12756
▁reviews	-12757
IFY	-12758
Constraint	-12759
igible	-12760
rename	-12761
reatment	-12762
registry	-12763
ele	-12764
Support	-12765
▁marker	-12766
▁currency	-12767
▁mathematic	-12768
SUN	-12769
erals	-12770
endent	-12771
▁morning	-12772
}-\	-12773
PIO	-12774
ras	-12775
▁Bi	-12776
udnn	-12777
▁nervous	-12778
▁unified	-12779
▁sunlight	-12780
[],	-12781
havior	-12782
stable	-12783
▁cooking	-12784
Signature	-12785
▁initiated	-12786
har	-12787
▁  	-12788
▁convex	-12789
▁ai	-12790
▁Mill	-12791
HashMap	-12792
▁Column	-12793
▁facility	-12794
▁vocabulary	-12795
isons	-12796
▁Cell	-12797
▁Today	-12798
▁epoch	-12799
generic	-12800
  ``	-12801
ivari	-12802
▁Buffer	-12803
▁acceptable	-12804
vo	-12805
ACC	-12806
apis	-12807
issue	-12808
▁Video	-12809
▁ignored	-12810
▁circumference	-12811
▁chamb	-12812
▁crypt	-12813
methods	-12814
▁mobility	-12815
▁interconnected	-12816
acle	-12817
Packet	-12818
aceutical	-12819
&=	-12820
▁'')	-12821
▁yes	-12822
▁edition	-12823
mes	-12824
▁histogram	-12825
▁allocation	-12826
▁extraction	-12827
swing	-12828
erning	-12829
setter	-12830
loadIrq	-12831
loadIdle	-12832
loadNice	-12833
PageIndex	-12834
loadSystem	-12835
rawLoadIrq	-12836
rawLoadIdle	-12837
rawLoadNice	-12838
rawLoadUser	-12839
rawLoadSystem	-12840
trl	-12841
▁pH	-12842
▁{:	-12843
▁receiver	-12844
▁explanations	-12845
binom	-12846
▁whom	-12847
▁spans	-12848
▁feelings	-12849
MAN	-12850
ROW	-12851
▁aqu	-12852
marks	-12853
▁Based	-12854
▁Answers	-12855
▁England	-12856
Hello	-12857
boost	-12858
▁Four	-12859
▁grep	-12860
▁opin	-12861
▁alias	-12862
leading	-12863
▁privacy	-12864
▁NG	-12865
atty	-12866
ieve	-12867
uming	-12868
▁arrow	-12869
aughter	-12870
▁Though	-12871
Platform	-12872
▁distress	-12873
▁Properties	-12874
▁decreasing	-12875
▁quantitative	-12876
▁VAR	-12877
ICATION	-12878
Install	-12879
▁ritual	-12880
▁summar	-12881
FileName	-12882
▁Nothing	-12883
▁trained	-12884
▁finished	-12885
▁governed	-12886
▁triangular	-12887
▁Sam	-12888
▁nerve	-12889
▁timer	-12890
calculation	-12891
hort	-12892
Stage	-12893
osity	-12894
ndarray	-12895
▁occasion	-12896
boldsymbol	-12897
phy	-12898
▁simpler	-12899
▁consuming	-12900
?”	-12901
eno	-12902
▁abdom	-12903
resolution	-12904
kw	-12905
mix	-12906
▁sync	-12907
digits	-12908
▁configured	-12909
annotations	-12910
NODE	-12911
riage	-12912
ifiable	-12913
▁Before	-12914
▁enrich	-12915
▁sensors	-12916
▁amplitude	-12917
querySelector	-12918
▁pursuit	-12919
▁adopting	-12920
▁positioning	-12921
▁predominant	-12922
aze	-12923
▁plas	-12924
▁owners	-12925
▁prohib	-12926
⁻¹	-12927
***	-12928
TOK	-12929
Disk	-12930
▁roof	-12931
vectors	-12932
▁pandemic	-12933
▁recording	-12934
▁debt	-12935
Blocks	-12936
▁Student	-12937
▁maximize	-12938
▁compatible	-12939
▁pronounced	-12940
**************	-12941
team	-12942
aping	-12943
Screen	-12944
▁promising	-12945
▁conducting	-12946
alg	-12947
▁ship	-12948
abases	-12949
▁ambig	-12950
▁grows	-12951
▁posit	-12952
▁trapez	-12953
▁rectangles	-12954
asket	-12955
▁hygi	-12956
▁pollution	-12957
▁Distribution	-12958
>=	-12959
Foreign	-12960
ologists	-12961
▁transparent	-12962
deed	-12963
▁memor	-12964
▁Perform	-12965
▁Leg	-12966
▁Mem	-12967
aylor	-12968
Raises	-12969
▁authorities	-12970
PD	-12971
fish	-12972
alian	-12973
oster	-12974
▁abuse	-12975
▁Double	-12976
▁leveraging	-12977
EOF	-12978
ACTER	-12979
▁parad	-12980
▁audiences	-12981
▁transmitted	-12982
}}=\	-12983
▁swap	-12984
▁reliance	-12985
aux	-12986
getter	-12987
Encoder	-12988
Sprintf	-12989
▁patents	-12990
▁resolved	-12991
both	-12992
Price	-12993
▁coal	-12994
▁arranged	-12995
appe	-12996
▁Put	-12997
▁xml	-12998
raises	-12999
▁rotate	-13000
▁pharmac	-13001
▁raising	-13002
execution	-13003
▁Mac	-13004
reply	-13005
▁Copy	-13006
olumns	-13007
▁cholesterol	-13008
SYN	-13009
Poly	-13010
Push	-13011
Your	-13012
▁Jes	-13013
Master	-13014
Additional	-13015
▁engineered	-13016
FP	-13017
hd	-13018
erset	-13019
▁immers	-13020
TD	-13021
BIN	-13022
take	-13023
▁nav	-13024
▁dust	-13025
Beyond	-13026
Elem	-13027
▁addr	-13028
▁crop	-13029
derived	-13030
contract	-13031
▁administered	-13032
PLUS	-13033
wing	-13034
Scene	-13035
▁Phil	-13036
▁WHERE	-13037
▁somew	-13038
snapshot	-13039
hard	-13040
dummy	-13041
packet	-13042
solving	-13043
▁contradict	-13044
Lookup	-13045
▁inventory	-13046
bohydr	-13047
NoteBlock	-13048
▁differentiation	-13049
VK	-13050
tax	-13051
▁argue	-13052
▁triple	-13053
▁appoint	-13054
LR	-13055
▁ns	-13056
Constantes	-13057
▁DMA	-13058
External	-13059
▁exceeds	-13060
▁judgment	-13061
▁breathing	-13062
operative	-13063
logs	-13064
▁neck	-13065
▁retrieve	-13066
▁encompasses	-13067
▁possibilities	-13068
▁FIT	-13069
▁Vir	-13070
▁Rate	-13071
letion	-13072
▁sorting	-13073
wx	-13074
gressive	-13075
▁oct	-13076
decoder	-13077
▁replic	-13078
▁Council	-13079
]{	-13080
▁Compar	-13081
▁EXISTS	-13082
AK	-13083
▁≥	-13084
cot	-13085
Home	-13086
▁trading	-13087
▁listener	-13088
}(\	-13089
riteria	-13090
▁facial	-13091
▁television	-13092
Nat	-13093
sock	-13094
roles	-13095
▁bath	-13096
▁Prote	-13097
_______,	-13098
packages	-13099
▁establishment	-13100
▁hx	-13101
Swing	-13102
▁sulf	-13103
Extract	-13104
Further	-13105
helpers	-13106
▁invert	-13107
roadcast	-13108
▁flowers	-13109
Which	-13110
emia	-13111
▁Sal	-13112
▁tall	-13113
closed	-13114
▁repository	-13115
▁Tw	-13116
quote	-13117
▁Card	-13118
family	-13119
▁Steps	-13120
WEBPACK	-13121
Nil	-13122
ENABLE	-13123
iciency	-13124
▁↔	-13125
Border	-13126
marshal	-13127
▁implicit	-13128
▁Stat	-13129
▁Euler	-13130
SN	-13131
Regex	-13132
▁agency	-13133
▁deaths	-13134
▁buildings	-13135
symm	-13136
opath	-13137
▁Should	-13138
▁locate	-13139
icipants	-13140
▁rounded	-13141
jor	-13142
▁<>	-13143
Allow	-13144
▁Guide	-13145
▁homework	-13146
ENCE	-13147
▁James	-13148
▁sending	-13149
▁Americans	-13150
▁electrons	-13151
▁contributors	-13152
']:	-13153
URPOSE	-13154
setText	-13155
▁unsafe	-13156
▁γ	-13157
▁fet	-13158
▁tou	-13159
▁tokens	-13160
▁scheduled	-13161
LEN	-13162
VIS	-13163
Scan	-13164
axes	-13165
omes	-13166
▁ele	-13167
esity	-13168
fline	-13169
itance	-13170
▁broken	-13171
▁latter	-13172
▁arrival	-13173
▁indirect	-13174
▁connectivity	-13175
inp	-13176
▁inn	-13177
counts	-13178
▁fatal	-13179
▁flash	-13180
overnment	-13181
▁representative	-13182
Blob	-13183
comb	-13184
outs	-13185
▁mere	-13186
▁falling	-13187
*>	-13188
REF	-13189
pip	-13190
▁Know	-13191
▁unity	-13192
Missing	-13193
▁LoDash	-13194
contents	-13195
▁prevents	-13196
ologically	-13197
lb	-13198
exc	-13199
Decoder	-13200
▁agencies	-13201
▁district	-13202
oi	-13203
cam	-13204
eff	-13205
▁curr	-13206
▁Exper	-13207
squ	-13208
protoc	-13209
Describe	-13210
signature	-13211
iNdEx	-13212
hedron	-13213
reject	-13214
▁clarify	-13215
placeholder	-13216
▁exclusively	-13217
DAT	-13218
▁Arg	-13219
given	-13220
▁White	-13221
▁screening	-13222
▁stakeholders	-13223
▁IT	-13224
▁equity	-13225
▁branches	-13226
▁GNU	-13227
learn	-13228
review	-13229
threads	-13230
notations	-13231
▁exponents	-13232
▁DAM	-13233
ioxid	-13234
▁Cond	-13235
▁societies	-13236
▁suffering	-13237
▁Ben	-13238
iture	-13239
overty	-13240
SED	-13241
▁CE	-13242
endor	-13243
ubble	-13244
▁Stre	-13245
ICULAR	-13246
▁fifth	-13247
▁reform	-13248
Executor	-13249
▁manipulation	-13250
hn	-13251
Append	-13252
OUTPUT	-13253
resolved	-13254
Validation	-13255
▁distribute	-13256
▁ZP	-13257
▁ble	-13258
▁lay	-13259
adapt	-13260
▁river	-13261
▁London	-13262
▁caution	-13263
uum	-13264
auge	-13265
lene	-13266
▁gases	-13267
▁lymph	-13268
listener	-13269
▁dismiss	-13270
rgb	-13271
▁'"	-13272
▁na	-13273
▁{})	-13274
rotation	-13275
▁shortest	-13276
lg	-13277
Sys	-13278
▁&,	-13279
LAND	-13280
▁tried	-13281
Available	-13282
▁Internet	-13283
$>	-13284
enuse	-13285
▁computers	-13286
▁correction	-13287
▁elementary	-13288
▁aspir	-13289
▁Divide	-13290
Resolver	-13291
▁preserved	-13292
LP	-13293
UX	-13294
Gui	-13295
>','	-13296
▁TRUE	-13297
▁bucket	-13298
▁widget	-13299
▁literacy	-13300
dn	-13301
"]),	-13302
-----	-13303
▁signed	-13304
▁determin	-13305
▁concluded	-13306
▁Food	-13307
▁Help	-13308
Branch	-13309
}}=	-13310
Origin	-13311
▁inhab	-13312
▁peers	-13313
▁afford	-13314
/-	-13315
▁&'	-13316
▁Ax	-13317
▁correl	-13318
▁fashion	-13319
▁evaluates	-13320
Final	-13321
▁``=`	-13322
▁allev	-13323
▁summ	-13324
employ	-13325
▁prism	-13326
▁theta	-13327
%%%%%%%%	-13328
▁towards	-13329
qa	-13330
▁ℝ	-13331
SUR	-13332
Opnd	-13333
}$$,	-13334
Coord	-13335
bundle	-13336
Machine	-13337
▁Online	-13338
▁garden	-13339
Fi	-13340
han	-13341
▁Tur	-13342
▁Sets	-13343
▁FALSE	-13344
▁maybe	-13345
▁utilize	-13346
▁appeared	-13347
▁outlined	-13348
InputStream	-13349
enger	-13350
ermal	-13351
▁COPY	-13352
▁inertia	-13353
▁Security	-13354
▁Fahrenheit	-13355
*>(	-13356
VEL	-13357
CHANT	-13358
▁Super	-13359
natural	-13360
DIMENSIONS	-13361
▁navigating	-13362
▁Description	-13363
lan	-13364
▁od	-13365
▁lun	-13366
GUI	-13367
▁mL	-13368
Less	-13369
ITION	-13370
ivities	-13371
▁Module	-13372
▁retail	-13373
▁instability	-13374
=_	-13375
tv	-13376
XSMM	-13377
good	-13378
▁pil	-13379
▁Document	-13380
Mgr	-13381
ypot	-13382
DataType	-13383
DED	-13384
REQUI	-13385
boxes	-13386
\%	-13387
ANGE	-13388
▁trigonometric	-13389
Est	-13390
ERCHANT	-13391
omorphism	-13392
ows	-13393
ths	-13394
AUTH	-13395
▁Fund	-13396
▁fung	-13397
▁gear	-13398
langle	-13399
▁chemistry	-13400
bid	-13401
rog	-13402
Rout	-13403
▁nic	-13404
adian	-13405
▁predictions	-13406
Year	-13407
oust	-13408
▁moon	-13409
Nonnull	-13410
sources	-13411
▁Layout	-13412
ibraries	-13413
Arguments	-13414
▁agreements	-13415
▁presenting	-13416
)}\	-13417
freq	-13418
thumb	-13419
▁Round	-13420
▁offline	-13421
▁supplied	-13422
spe	-13423
WRITE	-13424
▁cere	-13425
▁Thread	-13426
▁viewing	-13427
▁Medicine	-13428
▁registry	-13429
▁cav	-13430
▁taught	-13431
=/	-13432
DL	-13433
▁ds	-13434
▁Dict	-13435
▁posts	-13436
percent	-13437
▁puzzle	-13438
▁steady	-13439
implement	-13440
mc	-13441
▁contamin	-13442
▁intention	-13443
Rules	-13444
▁arms	-13445
dating	-13446
Percent	-13447
▁Robert	-13448
▁baseline	-13449
▁∧	-13450
Ctx	-13451
▁lex	-13452
▁nearby	-13453
▁windows	-13454
▁aligning	-13455
YPE	-13456
igon	-13457
▁fee	-13458
Release	-13459
transport	-13460
ima	-13461
▁Bank	-13462
▁hormone	-13463
▁hundreds	-13464
▁facilitates	-13465
CN	-13466
▁"[	-13467
ADDR	-13468
drag	-13469
▁{}",	-13470
theorem	-13471
▁adaptive	-13472
xa	-13473
RUN	-13474
▁OK	-13475
shaped	-13476
▁clone	-13477
▁indeed	-13478
▁skilled	-13479
▁diagrams	-13480
..."	-13481
induced	-13482
=['	-13483
AIRLINE	-13484
elastic	-13485
ashington	-13486
▁systematically	-13487
▁gave	-13488
sections	-13489
▁Otherwise	-13490
▁exclusive	-13491
▁workplace	-13492
▁Worksheets	-13493
▁coordinated	-13494
LED	-13495
REAM	-13496
icons	-13497
▁nest	-13498
positions	-13499
intestinal	-13500
"><	-13501
▁";	-13502
INGS	-13503
▁Tex	-13504
Sever	-13505
echan	-13506
▁king	-13507
NUMBER	-13508
examples	-13509
▁instruct	-13510
must	-13511
BOOST	-13512
Destroy	-13513
▁turned	-13514
▁Rich	-13515
▁modes	-13516
Subscription	-13517
ERCHANTABILITY	-13518
▁$-	-13519
▁boot	-13520
/\	-13521
"];	-13522
RNA	-13523
▁mi	-13524
imer	-13525
Alias	-13526
glGet	-13527
transfer	-13528
▁Sciences	-13529
▁tangible	-13530
▁communicate	-13531
pick	-13532
▁sha	-13533
pixel	-13534
filled	-13535
▁conjug	-13536
▁stride	-13537
▁theories	-13538
▁permutation	-13539
CY	-13540
was	-13541
istan	-13542
Actual	-13543
bur	-13544
▁Dev	-13545
defaults	-13546
▁streams	-13547
CAP	-13548
▁pse	-13549
▁nice	-13550
▁concat	-13551
▁department	-13552
▁Application	-13553
WITH	-13554
Ans	-13555
▁Gal	-13556
▁Bool	-13557
▁lose	-13558
essment	-13559
PyObject	-13560
processing	-13561
▁preventive	-13562
▁Pay	-13563
Upper	-13564
ensure	-13565
▁Virtual	-13566
▁induced	-13567
▁websites	-13568
▁PO	-13569
Feed	-13570
▁ment	-13571
shadow	-13572
▁House	-13573
▁coming	-13574
▁automatic	-13575
▁dimensional	-13576
rg	-13577
▁Hol	-13578
Asset	-13579
▁satisfies	-13580
▁democratic	-13581
VT	-13582
eless	-13583
▁thir	-13584
▁Edition	-13585
▁accompl	-13586
▁drivers	-13587
▁Interest	-13588
▁factorial	-13589
▁substitution	-13590
Dark	-13591
▁fav	-13592
central	-13593
onChange	-13594
▁pressing	-13595
;",	-13596
▁NS	-13597
▁'{"	-13598
▁Mount	-13599
▁Length	-13600
▁coherent	-13601
▁optimize	-13602
▁guaranteed	-13603
GG	-13604
▁");	-13605
▁Size	-13606
▁weaken	-13607
▁lung	-13608
Camera	-13609
▁tends	-13610
▁tea	-13611
heast	-13612
forall	-13613
▁draft	-13614
special	-13615
▁ordering	-13616
▁receives	-13617
▁suppress	-13618
▁digestive	-13619
Drag	-13620
▁Send	-13621
▁UINT	-13622
choice	-13623
▁cable	-13624
ADDRESS	-13625
▁permit	-13626
▁Russian	-13627
ARG	-13628
DROP	-13629
▁Learn	-13630
▁stuff	-13631
requires	-13632
▁closure	-13633
▁regener	-13634
▁strengths	-13635
▁Den	-13636
eks	-13637
▁lb	-13638
Throw	-13639
▁Life	-13640
▁flip	-13641
▁Labor	-13642
▁fertil	-13643
▁Children	-13644
ACH	-13645
mill	-13646
Proof	-13647
idential	-13648
UTF	-13649
▁ending	-13650
strictEqual	-13651
fv	-13652
{^	-13653
▁CR	-13654
▁loan	-13655
######	-13656
ugment	-13657
▁discipline	-13658
AX	-13659
▁joy	-13660
▁Quant	-13661
▁speak	-13662
▁checked	-13663
▁illustrating	-13664
oped	-13665
▁doctor	-13666
defineProperty	-13667
*.	-13668
azure	-13669
quick	-13670
▁Like	-13671
Ignore	-13672
setting	-13673
▁distant	-13674
performance	-13675
▁Pythagorean	-13676
▁interpretations	-13677
uer	-13678
▁ul	-13679
bell	-13680
GroupName	-13681
▁listening	-13682
SUP	-13683
THREAD	-13684
▁taste	-13685
▁exceptions	-13686
Leg	-13687
jav	-13688
▁Mart	-13689
▁careg	-13690
▁antioxid	-13691
liest	-13692
combin	-13693
legend	-13694
▁selector	-13695
▁restrictions	-13696
▁authentication	-13697
ivo	-13698
▁RES	-13699
Runner	-13700
▁strip	-13701
▁PURPOSE	-13702
ajax	-13703
▁rom	-13704
Delay	-13705
ariance	-13706
▁unclear	-13707
▁neurological	-13708
▁THIS	-13709
▁visits	-13710
▁Distance	-13711
>:	-13712
Maybe	-13713
fname	-13714
▁resh	-13715
finite	-13716
economic	-13717
▁PARTICULAR	-13718
pts	-13719
LIED	-13720
MESS	-13721
city	-13722
▁toxic	-13723
chem	-13724
night	-13725
▁payments	-13726
▁agriculture	-13727
lder	-13728
uris	-13729
▁RNA	-13730
inate	-13731
▁occurrence	-13732
”,	-13733
▁DI	-13734
MOVE	-13735
Phone	-13736
mbols	-13737
Dynamic	-13738
members	-13739
Animation	-13740
statement	-13741
▁Expr	-13742
▁plain	-13743
▁finger	-13744
▁attempting	-13745
THFloatTensor	-13746
$('.	-13747
▁retry	-13748
”.	-13749
Union	-13750
▁Poly	-13751
▁purs	-13752
Dataset	-13753
▁Worksheet	-13754
▁adjusting	-13755
▁transforms	-13756
wiki	-13757
▁Homework	-13758
Implemented	-13759
▁predominantly	-13760
▁ptr	-13761
etics	-13762
DEVICE	-13763
ais	-13764
INPUT	-13765
▁preference	-13766
tz	-13767
ella	-13768
between	-13769
▁essence	-13770
▁perceive	-13771
▁imaginary	-13772
▁concerning	-13773
baz	-13774
▁RO	-13775
alink	-13776
Arrays	-13777
density	-13778
▁brings	-13779
priority	-13780
▁COMMENT	-13781
▁IMPLIED	-13782
▁spending	-13783
▁Eq	-13784
▁vo	-13785
POINT	-13786
▁Grid	-13787
▁spark	-13788
IMPORTED	-13789
addClass	-13790
▁prospect	-13791
frames	-13792
▁tract	-13793
▁professor	-13794
{\"	-13795
▁Cos	-13796
Audio	-13797
▁Third	-13798
FLOAT	-13799
eties	-13800
▁pitch	-13801
▁inspect	-13802
▁predicted	-13803
▁transferred	-13804
SAMPLE	-13805
->_	-13806
Why	-13807
ris	-13808
Bits	-13809
▁ENG	-13810
▁tur	-13811
▁remed	-13812
▁Abstract	-13813
▁demanding	-13814
▁([	-13815
ETER	-13816
atility	-13817
verages	-13818
currency	-13819
▁radians	-13820
▁surpass	-13821
▁seasonal	-13822
▁singular	-13823
Compar	-13824
▁transitions	-13825
="/	-13826
++){	-13827
▁rail	-13828
implies	-13829
▁distort	-13830
arded	-13831
▁pace	-13832
▁Member	-13833
▁printed	-13834
▁humanity	-13835
▁inspired	-13836
▁Washington	-13837
▁wanted	-13838
▁substantially	-13839
GROUP	-13840
opens	-13841
useum	-13842
xF	-13843
ingly	-13844
▁Face	-13845
▁Stand	-13846
verting	-13847
ximately	-13848
eb	-13849
`),	-13850
Loss	-13851
('../	-13852
▁Byte	-13853
▁fitness	-13854
checkpoint	-13855
▁innovations	-13856
▁sophisticated	-13857
gres	-13858
▁Pur	-13859
▁Orig	-13860
▁radi	-13861
▁subs	-13862
▁proxy	-13863
numbers	-13864
▁advances	-13865
▁progressive	-13866
▁appreciation	-13867
▁Maint	-13868
▁encoded	-13869
serialize	-13870
]):	-13871
tbl	-13872
ague	-13873
etra	-13874
Paths	-13875
VALUES	-13876
CONTROL	-13877
▁definitive	-13878
throp	-13879
▁wrapped	-13880
▁inadequate	-13881
sd	-13882
Sql	-13883
SIGN	-13884
zure	-13885
▁Scal	-13886
▁legs	-13887
Through	-13888
▁Execut	-13889
▁demographic	-13890
major	-13891
posal	-13892
capacity	-13893
▁hygiene	-13894
▁autonomy	-13895
▁compromise	-13896
▁inspection	-13897
chen	-13898
Round	-13899
literal	-13900
▁detecting	-13901
tu	-13902
▁unus	-13903
▁notably	-13904
▁sciences	-13905
▁determinant	-13906
▁equivalence	-13907
Glob	-13908
iful	-13909
Switch	-13910
determ	-13911
scribed	-13912
▁visitors	-13913
▁accordingly	-13914
...,	-13915
four	-13916
CrsGraph	-13917
▁Address	-13918
▁LIMITED	-13919
▁supplements	-13920
kub	-13921
ulty	-13922
▁DIS	-13923
▁lin	-13924
▁Alex	-13925
▁Parse	-13926
▁Texas	-13927
▁AT	-13928
▁git	-13929
▁nurt	-13930
▁pert	-13931
Locale	-13932
▁volts	-13933
encoded	-13934
}}_{	-13935
decor	-13936
imental	-13937
▁Business	-13938
▁translate	-13939
▁hook	-13940
vertical	-13941
▁dividend	-13942
▁variants	-13943
▁broadcast	-13944
▁inconsistent	-13945
▁md	-13946
plotlib	-13947
▁Middle	-13948
▁indoor	-13949
▁HashMap	-13950
("<	-13951
]])	-13952
imen	-13953
xyz	-13954
▁FA	-13955
Deploy	-13956
▁agree	-13957
▁incent	-13958
▁routes	-13959
▁')	-13960
▁plots	-13961
▁earned	-13962
Sets	-13963
Ready	-13964
▁logs	-13965
▁absent	-13966
▁stones	-13967
configure	-13968
▁combines	-13969
repository	-13970
▁fractional	-13971
▁conclusions	-13972
<<<	-13973
▁CL	-13974
▁lic	-13975
▁uniqu	-13976
▁parabola	-13977
ifferential	-13978
▁attachment	-13979
▁accompanying	-13980
▁traditionally	-13981
Der	-13982
Gra	-13983
Sto	-13984
)$$.	-13985
▁TypeError	-13986
Ms	-13987
otype	-13988
▁kidney	-13989
Serializer	-13990
men	-13991
▁fatty	-13992
commons	-13993
▁engines	-13994
▁authenticity	-13995
▁`            ``	-13996
hadoop	-13997
itories	-13998
onymous	-13999
▁pursue	-14000
▁mountain	-14001
'-	-14002
liers	-14003
▁overl	-14004
prising	-14005
▁threadIdx	-14006
ssh	-14007
iger	-14008
▁NCERT	-14009
▁negot	-14010
targets	-14011
fi	-14012
Align	-14013
attach	-14014
▁award	-14015
▁separately	-14016
Been	-14017
▁Mary	-14018
▁statistically	-14019
Tick	-14020
monoid	-14021
ounsel	-14022
▁safely	-14023
QR	-14024
fee	-14025
Cuda	-14026
ussia	-14027
▁Jesus	-14028
▁finds	-14029
inement	-14030
|)	-14031
ELD	-14032
neq	-14033
▁MO	-14034
▁ca	-14035
▁epid	-14036
▁Cloud	-14037
Compute	-14038
personal	-14039
products	-14040
▁convenience	-14041
XEL	-14042
RENT	-14043
▁flaw	-14044
▁brush	-14045
projects	-14046
▁assumes	-14047
▁interfaces	-14048
Hub	-14049
nnl	-14050
risk	-14051
▁Doc	-14052
iencies	-14053
ropical	-14054
innerHTML	-14055
▁visualization	-14056
DEP	-14057
},{"	-14058
▁Che	-14059
▁affili	-14060
▁forced	-14061
Structure	-14062
imination	-14063
▁Different	-14064
▁remarkable	-14065
▁disp	-14066
▁cyber	-14067
▁settlement	-14068
MSG	-14069
Based	-14070
Subst	-14071
dense	-14072
Operand	-14073
prepare	-14074
▁suffix	-14075
▁Explain	-14076
▁regulate	-14077
Dictionary	-14078
▁aband	-14079
ARATION	-14080
Transfer	-14081
▁FITNESS	-14082
▁dysfunction	-14083
cod	-14084
heel	-14085
irch	-14086
lastic	-14087
▁himself	-14088
migrations	-14089
▁oversight	-14090
▁inflammatory	-14091
▁contamination	-14092
Are	-14093
▁uri	-14094
▁fo	-14095
▁pv	-14096
▁GCF	-14097
▁irregular	-14098
erated	-14099
telling	-14100
▁pressures	-14101
▁pk	-14102
▁Zero	-14103
▁meal	-14104
▁opens	-14105
▁localized	-14106
▁evaluations	-14107
spy	-14108
▁scaling	-14109
▁validity	-14110
NOWN	-14111
Upload	-14112
▁Prior	-14113
▁brown	-14114
▁bundle	-14115
--------------	-14116
SPEC	-14117
blog	-14118
▁hyperb	-14119
Unexpected	-14120
▁Statement	-14121
addEventListener	-14122
(%	-14123
mw	-14124
ENV	-14125
ISH	-14126
Zone	-14127
▁sour	-14128
▁papers	-14129
quee	-14130
rases	-14131
▁ENGINE	-14132
FROM	-14133
buff	-14134
erce	-14135
Owner	-14136
▁approval	-14137
▁membrane	-14138
DECLARATION	-14139
}}{{	-14140
Could	-14141
▁sweet	-14142
▁Summary	-14143
eh	-14144
LEFT	-14145
▁SPI	-14146
Score	-14147
flush	-14148
▁Modern	-14149
uts	-14150
Exit	-14151
Ratio	-14152
{^}{\	-14153
▁ages	-14154
strong	-14155
▁motiv	-14156
▁Percent	-14157
▁improper	-14158
▁packages	-14159
▁sentences	-14160
ANGU	-14161
oriented	-14162
ultiplying	-14163
▁observing	-14164
▁automation	-14165
▁credibility	-14166
proj	-14167
sama	-14168
optimizer	-14169
zym	-14170
▁ri	-14171
▁Sol	-14172
malloc	-14173
binding	-14174
▁warrant	-14175
tos	-14176
Analy	-14177
▁thro	-14178
▁attend	-14179
▁copper	-14180
▁recept	-14181
modified	-14182
DataFrame	-14183
▁ids	-14184
oulut	-14185
▁TEST	-14186
itarian	-14187
▁shifted	-14188
iro	-14189
BOOL	-14190
okes	-14191
recv	-14192
▁Analy	-14193
azz	-14194
WARN	-14195
▁mamm	-14196
▁grown	-14197
subscribe	-14198
▁securing	-14199
▁appearing	-14200
▁₹	-14201
▁guest	-14202
▁matched	-14203
▁downward	-14204
La	-14205
unsafe	-14206
triangle	-14207
▁obesity	-14208
Validator	-14209
▁elevation	-14210
▁enforcement	-14211
▁bash	-14212
Commit	-14213
iments	-14214
▁everyone	-14215
▁incoming	-14216
GRAM	-14217
covery	-14218
ascript	-14219
fficiency	-14220
het	-14221
▁Moon	-14222
iosity	-14223
▁router	-14224
ToString	-14225
evaluate	-14226
▁Company	-14227
▁visited	-14228
Management	-14229
qual	-14230
marker	-14231
▁Debug	-14232
▁reads	-14233
▁tiles	-14234
foreign	-14235
▁Assert	-14236
▁п	-14237
▁≈	-14238
Hist	-14239
Embed	-14240
irmed	-14241
▁blob	-14242
▁axiom	-14243
▁hosts	-14244
▁pricing	-14245
▁primitive	-14246
▁dos	-14247
▁surge	-14248
▁nested	-14249
▁destruction	-14250
▁fluctuations	-14251
orge	-14252
CharField	-14253
▁confront	-14254
concurrent	-14255
▁carbohydr	-14256
▁reflective	-14257
icul	-14258
Attrib	-14259
▁pivot	-14260
Columns	-14261
▁fossil	-14262
learning	-14263
▁persons	-14264
▁prompted	-14265
exceptions	-14266
▁projected	-14267
▁popularity	-14268
itt	-14269
Coll	-14270
▁Sto	-14271
▁bold	-14272
Wallet	-14273
Warning	-14274
Formatter	-14275
hit	-14276
RAINT	-14277
▁Helper	-14278
▁discre	-14279
▁plates	-14280
▁keyword	-14281
amazonaws	-14282
transpose	-14283
▁carrying	-14284
Components	-14285
▁Alternatively	-14286
▁MERCHANTABILITY	-14287
DT	-14288
WE	-14289
Help	-14290
ashes	-14291
ewise	-14292
SERVER	-14293
creasing	-14294
▁scholar	-14295
machine	-14296
▁Church	-14297
▁liters	-14298
▁advertising	-14299
Gr	-14300
▁°	-14301
}\,	-14302
▁vill	-14303
course	-14304
Members	-14305
▁Israel	-14306
▁resilient	-14307
▁repeatedly	-14308
▁residential	-14309
Nav	-14310
hostname	-14311
▁cardiac	-14312
▁incidents	-14313
▁physically	-14314
▁submission	-14315
▁grand	-14316
olit	-14317
aratus	-14318
ishment	-14319
▁Resources	-14320
▁sx	-14321
▁pod	-14322
itches	-14323
▁evenly	-14324
scriptions	-14325
▁anticipated	-14326
EF	-14327
dings	-14328
▁maths	-14329
▁iterator	-14330
▁discharge	-14331
▁dice	-14332
finish	-14333
▁swift	-14334
building	-14335
▁rejected	-14336
▁injection	-14337
▁microbial	-14338
▁processor	-14339
▁cooperation	-14340
▁pp	-14341
▁gut	-14342
omaly	-14343
▁Angle	-14344
pective	-14345
ivariate	-14346
▁passive	-14347
getLogger	-14348
▁speaking	-14349
Arc	-14350
▁Care	-14351
▁determination	-14352
▁semic	-14353
▁farming	-14354
▁temporal	-14355
▁SWIG	-14356
portion	-14357
▁Fourier	-14358
▁clusters	-14359
▁investigates	-14360
coord	-14361
▁Cons	-14362
▁fram	-14363
acific	-14364
circuit	-14365
▁estimation	-14366
▁verification	-14367
▁£	-14368
upp	-14369
▁ps	-14370
problem	-14371
▁Within	-14372
▁comparisons	-14373
?.	-14374
Sol	-14375
▁Bro	-14376
▁SEC	-14377
oviet	-14378
▁Good	-14379
DELETE	-14380
STREAM	-14381
icians	-14382
▁paras	-14383
iseconds	-14384
relative	-14385
▁delayed	-14386
▁Wikipedia	-14387
Plot	-14388
▁ans	-14389
▁tid	-14390
▁escal	-14391
customer	-14392
▁simulate	-14393
Publ	-14394
Tipo	-14395
▁Place	-14396
▁lifes	-14397
▁styled	-14398
▁overlap	-14399
▁poverty	-14400
▁refresh	-14401
▁authored	-14402
Vm	-14403
▁<$>	-14404
hfill	-14405
Market	-14406
▁adhes	-14407
▁mineral	-14408
{{\	-14409
PREFIX	-14410
allowed	-14411
▁opened	-14412
▁metabolism	-14413
▁Mathematical	-14414
jInternalFrame	-14415
SK	-14416
ben	-14417
Exists	-14418
▁quote	-14419
Library	-14420
Updated	-14421
▁Taylor	-14422
▁altered	-14423
▁consent	-14424
▁initiate	-14425
▁qualities	-14426
Constructor	-14427
observ	-14428
▁socio	-14429
▁beauty	-14430
▁winning	-14431
▁observer	-14432
especially	-14433
▁bat	-14434
▁mim	-14435
robot	-14436
▁conce	-14437
▁renown	-14438
▁closest	-14439
▁Commission	-14440
▁Lik	-14441
▁chest	-14442
Running	-14443
catalog	-14444
Research	-14445
ea	-14446
syntax	-14447
present	-14448
▁empathy	-14449
!\	-14450
pn	-14451
want	-14452
▁loy	-14453
▁sink	-14454
Secret	-14455
▁Short	-14456
initions	-14457
▁longest	-14458
▁licensed	-14459
▁midpoint	-14460
numeric	-14461
▁Commit	-14462
Multiply	-14463
▁iterations	-14464
▁manufacturer	-14465
\;	-14466
fulness	-14467
▁gradual	-14468
pac	-14469
yroid	-14470
▁vote	-14471
Identity	-14472
jections	-14473
LowerCase	-14474
"$	-14475
inx	-14476
opes	-14477
Omega	-14478
▁solver	-14479
▁dealing	-14480
▁receptor	-14481
▁investors	-14482
▁methodologies	-14483
LOCAL	-14484
▁exec	-14485
Inline	-14486
Literal	-14487
▁frustr	-14488
▁island	-14489
VIEW	-14490
asts	-14491
▁Bob	-14492
Named	-14493
precision	-14494
▁converter	-14495
▁optimized	-14496
LayerParameter	-14497
SSL	-14498
Jump	-14499
acles	-14500
requests	-14501
▁closing	-14502
▁wa	-14503
Hook	-14504
nums	-14505
▁poem	-14506
▁Compare	-14507
▁overcome	-14508
▁exemplifies	-14509
▁registration	-14510
BI	-14511
HP	-14512
attack	-14513
icates	-14514
Filters	-14515
reflect	-14516
▁decide	-14517
▁Creates	-14518
▁renowned	-14519
▁Scientific	-14520
▁arrangements	-14521
archive	-14522
▁COPYRIGHT	-14523
MON	-14524
▁ma	-14525
▁dispatch	-14526
▁CInt	-14527
modify	-14528
Monitor	-14529
algebra	-14530
▁argues	-14531
▁supplies	-14532
▁unnecessary	-14533
iem	-14534
ITEM	-14535
▁AWS	-14536
▁kept	-14537
letter	-14538
▁trunc	-14539
▁Target	-14540
▁evolve	-14541
▁willing	-14542
WH	-14543
iy	-14544
itz	-14545
Detalle	-14546
▁cylind	-14547
▁silver	-14548
▁Teuchos	-14549
▁keeping	-14550
▁performs	-14551
▁LIABILITY	-14552
LU	-14553
mits	-14554
irror	-14555
▁trim	-14556
▁artist	-14557
▁concludes	-14558
▁partially	-14559
("[	-14560
▁bear	-14561
vature	-14562
▁shock	-14563
▁clothing	-14564
▁currents	-14565
structured	-14566
▁\;	-14567
average	-14568
ictional	-14569
Converter	-14570
▁obtaining	-14571
CLK	-14572
seen	-14573
agination	-14574
▁Services	-14575
▁preservation	-14576
>/	-14577
rend	-14578
wave	-14579
▁egg	-14580
CLIENT	-14581
ANGUAGE	-14582
opacity	-14583
▁Memory	-14584
▁polymer	-14585
▁defaults	-14586
setAttribute	-14587
▁vapor	-14588
▁chains	-14589
conditions	-14590
MOT	-14591
rient	-14592
▁repo	-14593
hemistry	-14594
ados	-14595
▁/**	-14596
▁weekly	-14597
▁consensus	-14598
▁guarantee	-14599
▁containers	-14600
▁expectation	-14601
▁millimeters	-14602
▁Label	-14603
▁parseInt	-14604
▁rotating	-14605
Permission	-14606
▁Euclidean	-14607
AddressFamily	-14608
▁'$	-14609
Like	-14610
▁Results	-14611
▁knowing	-14612
▁Polynomial	-14613
▁constitutes	-14614
▁credentials	-14615
Dst	-14616
▁nurs	-14617
ASA	-14618
PIMS	-14619
▁Rect	-14620
▁Allow	-14621
Entries	-14622
ssl	-14623
▁Auto	-14624
▁bars	-14625
▁practitioners	-14626
empi	-14627
racy	-14628
▁Lib	-14629
visit	-14630
▁Head	-14631
▁boys	-14632
idable	-14633
minute	-14634
itempty	-14635
▁interference	-14636
▁quadrilateral	-14637
Sdk	-14638
five	-14639
Setup	-14640
▁poses	-14641
信息	-14642
PES	-14643
PHA	-14644
▁intro	-14645
dimension	-14646
omitempty	-14647
▁validated	-14648
RGB	-14649
▁Ann	-14650
▁kill	-14651
______,	-14652
▁Integr	-14653
Students	-14654
-----------	-14655
MIB	-14656
▁mx	-14657
ders	-14658
▁eigenvalues	-14659
:$	-14660
▁Cy	-14661
NONE	-14662
invoke	-14663
>>,	-14664
vtk	-14665
}),	-14666
▁pm	-14667
▁Ens	-14668
PRESS	-14669
▁shield	-14670
▁assignments	-14671
▁ban	-14672
veled	-14673
▁indent	-14674
▁}$$	-14675
Reals	-14676
coeff	-14677
▁feels	-14678
▁excluded	-14679
RF	-14680
WID	-14681
▁fly	-14682
TOKEN	-14683
▁breaks	-14684
▁charts	-14685
▁prescribed	-14686
▁contributor	-14687
▁dependencies	-14688
ean	-14689
▁Has	-14690
Force	-14691
Works	-14692
ialect	-14693
Console	-14694
SURPLUS	-14695
▁Future	-14696
▁Channel	-14697
▁Invalid	-14698
▁compress	-14699
▁descriptor	-14700
CLE	-14701
lst	-14702
ova	-14703
Conv	-14704
▁swim	-14705
consum	-14706
▁calor	-14707
▁horse	-14708
Schedule	-14709
▁Material	-14710
▁thoroughly	-14711
ulp	-14712
▁hi	-14713
apps	-14714
Accept	-14715
apters	-14716
receive	-14717
"<	-14718
,\,\	-14719
inher	-14720
isdom	-14721
▁imper	-14722
_______	-14723
omething	-14724
▁servers	-14725
▁revision	-14726
▁packaging	-14727
")[	-14728
]",	-14729
Contin	-14730
▁artists	-14731
▁capturing	-14732
▁pharmaceutical	-14733
dns	-14734
alog	-14735
Labels	-14736
▁Psych	-14737
▁feeling	-14738
▁holistic	-14739
gly	-14740
▁apt	-14741
repeat	-14742
▁alumin	-14743
▁helper	-14744
▁multif	-14745
▁dependency	-14746
▁ga	-14747
keyp	-14748
asked	-14749
▁Flor	-14750
▁joining	-14751
▁linking	-14752
▁Position	-14753
▁colonial	-14754
’,	-14755
}}}	-14756
▁tal	-14757
ilinear	-14758
▁combust	-14759
▁differs	-14760
▁nom	-14761
▁fort	-14762
▁Thank	-14763
payment	-14764
▁infected	-14765
istributions	-14766
LINK	-14767
ethe	-14768
ictor	-14769
▁apparatus	-14770
▁supplementary	-14771
Mo	-14772
ogens	-14773
REQUEST	-14774
▁Success	-14775
▁coating	-14776
▁consequence	-14777
()]	-14778
Mean	-14779
▁[]*	-14780
▁coil	-14781
▁scroll	-14782
▁deterior	-14783
▁interview	-14784
Html	-14785
itus	-14786
▁Cost	-14787
▁wrap	-14788
Styles	-14789
▁captures	-14790
▁weakness	-14791
▁excellent	-14792
▁cultivation	-14793
▁storytelling	-14794
▁instructional	-14795
▁Invest	-14796
HD	-14797
elve	-14798
aiempi	-14799
▁veter	-14800
illance	-14801
compiler	-14802
parallel	-14803
▁decided	-14804
▁approved	-14805
ENTO	-14806
__':	-14807
__()	-14808
OBJECT	-14809
▁influential	-14810
)*(	-14811
books	-14812
ropri	-14813
▁crow	-14814
▁para	-14815
▁builds	-14816
▁'--	-14817
intro	-14818
starts	-14819
▁originated	-14820
${\	-14821
THON	-14822
Month	-14823
lices	-14824
unlock	-14825
▁Apply	-14826
▁invent	-14827
normalize	-14828
▁categorized	-14829
Did	-14830
Utf	-14831
charg	-14832
Subject	-14833
▁tumors	-14834
conscious	-14835
▁`    ``//	-14836
'/	-14837
odd	-14838
uns	-14839
React	-14840
clipse	-14841
▁Prove	-14842
▁Soviet	-14843
▁ethnic	-14844
▁massive	-14845
▁){	-14846
ceil	-14847
▁>>>	-14848
▁infants	-14849
!)	-14850
Phi	-14851
Sem	-14852
BEGIN	-14853
▁Sever	-14854
▁Motion	-14855
▁accessed	-14856
inject	-14857
▁urgent	-14858
Download	-14859
▁numeric	-14860
edu	-14861
curl	-14862
orer	-14863
▁Mov	-14864
▁Tags	-14865
▁gran	-14866
Compare	-14867
▁acceptance	-14868
▁Qt	-14869
emed	-14870
gons	-14871
}/${	-14872
▁COL	-14873
adjust	-14874
crypto	-14875
▁seeks	-14876
Replace	-14877
▁reputation	-14878
▁rotational	-14879
▁Enc	-14880
▁rhe	-14881
ushed	-14882
▁EVENT	-14883
▁loops	-14884
claimer	-14885
▁OP	-14886
▁ton	-14887
Merge	-14888
inson	-14889
▁dent	-14890
▁uniformly	-14891
ti	-14892
▁expend	-14893
▁mining	-14894
▁belongs	-14895
▁entertain	-14896
▁incomplete	-14897
▁decomposition	-14898
▁vulnerability	-14899
bris	-14900
▁Sou	-14901
inely	-14902
▁Russia	-14903
▁Illegal	-14904
▁vascular	-14905
▁⇒	-14906
works	-14907
▁Meta	-14908
imator	-14909
▁imagery	-14910
▁VL	-14911
▁uuid	-14912
ClassName	-14913
▁overflow	-14914
AWS	-14915
Images	-14916
termin	-14917
▁penet	-14918
▁vocal	-14919
▁Observ	-14920
▁Options	-14921
▁drinking	-14922
ortunately	-14923
▁dangerous	-14924
▁unchanged	-14925
RD	-14926
LCM	-14927
jsp	-14928
design	-14929
▁heter	-14930
▁drives	-14931
▁hypert	-14932
---------	-14933
▁Challenge	-14934
▁mutations	-14935
operatorname	-14936
▁valve	-14937
▁acquired	-14938
▁earliest	-14939
▁designing	-14940
▁inference	-14941
▁≡	-14942
bes	-14943
▁Mer	-14944
▁amino	-14945
guid	-14946
▁Tog	-14947
recur	-14948
oulutus	-14949
Following	-14950
▁inserted	-14951
▁complementary	-14952
▁cod	-14953
NECTION	-14954
▁strugg	-14955
▁Academy	-14956
▁Library	-14957
▁Algorithm	-14958
▁Implement	-14959
▁sequential	-14960
▁governments	-14961
▁compensation	-14962
▁pel	-14963
olesc	-14964
▁Frame	-14965
▁reply	-14966
Browser	-14967
versions	-14968
▁Fraction	-14969
▁Remember	-14970
▁Reference	-14971
▁dominance	-14972
▁electromagnetic	-14973
IDs	-14974
AfIp	-14975
▁aren	-14976
▁backup	-14977
▁masses	-14978
▁damaged	-14979
getInstance	-14980
wa	-14981
rif	-14982
noise	-14983
reated	-14984
▁meets	-14985
▁depicted	-14986
▁greenhouse	-14987
BM	-14988
argo	-14989
▁exams	-14990
▁Filter	-14991
▁absorb	-14992
DIRECTORY	-14993
calculate	-14994
▁alphabet	-14995
▁PC	-14996
▁fake	-14997
ENTIAL	-14998
▁crops	-14999
▁borrow	-15000
▁concise	-15001
▁descript	-15002
▁SV	-15003
Stmt	-15004
TODO	-15005
▁Init	-15006
▁comparative	-15007
▁intentional	-15008
')).	-15009
▁Define	-15010
▁battle	-15011
▁leverage	-15012
▁portions	-15013
(**	-15014
ICES	-15015
weet	-15016
UTION	-15017
ermat	-15018
▁unint	-15019
century	-15020
FFFFFFFF	-15021
▁compile	-15022
▁constitutional	-15023
Hi	-15024
eu	-15025
Dao	-15026
▁hs	-15027
▁Pot	-15028
▁www	-15029
Optim	-15030
ynamics	-15031
▁accelerate	-15032
▁`//	-15033
▁ven	-15034
▁Bern	-15035
▁Plot	-15036
urated	-15037
projection	-15038
toLowerCase	-15039
ifty	-15040
▁drops	-15041
▁males	-15042
▁miscon	-15043
counters	-15044
▁Dynamic	-15045
permission	-15046
▁analytics	-15047
FIL	-15048
▁PV	-15049
!");	-15050
Most	-15051
▁css	-15052
substring	-15053
FLAGS	-15054
▁Play	-15055
lining	-15056
basename	-15057
Increment	-15058
▁activated	-15059
Tmp	-15060
DOWN	-15061
urls	-15062
▁spend	-15063
▁Natural	-15064
▁occasionally	-15065
Occ	-15066
evt	-15067
▁focal	-15068
▁habitat	-15069
▁Computer	-15070
▁breaking	-15071
UV	-15072
Lines	-15073
calls	-15074
ghttp	-15075
▁Prim	-15076
▁virt	-15077
Requests	-15078
▁libraries	-15079
▁proficiency	-15080
GA	-15081
BTM	-15082
▁>(	-15083
Thanks	-15084
inated	-15085
rotate	-15086
▁guard	-15087
▁farmers	-15088
\'	-15089
emo	-15090
gui	-15091
▁uph	-15092
().__	-15093
nabla	-15094
▁tiny	-15095
ostream	-15096
▁Congress	-15097
'];	-15098
isa	-15099
dark	-15100
▁Null	-15101
crease	-15102
▁impedance	-15103
OPER	-15104
omics	-15105
▁jobs	-15106
toHave	-15107
monitor	-15108
▁justify	-15109
▁smoking	-15110
▁psychology	-15111
opp	-15112
▁Device	-15113
rn	-15114
$$-	-15115
anda	-15116
▁Bas	-15117
▁STR	-15118
Indices	-15119
article	-15120
▁impaired	-15121
▁intrinsic	-15122
▁equilateral	-15123
▁manufacturers	-15124
={'	-15125
Tog	-15126
choose	-15127
▁cubes	-15128
▁Finding	-15129
represent	-15130
▁subgroup	-15131
continuous	-15132
('-	-15133
)){	-15134
▁MP	-15135
poll	-15136
auses	-15137
▁chick	-15138
Seconds	-15139
handled	-15140
nullptr	-15141
Analysis	-15142
▁mindset	-15143
▁weighted	-15144
▁curiosity	-15145
▁inquiries	-15146
]/	-15147
ATT	-15148
[...]
