<unk>	0
<s>	0
</s>	0
<pad>	0
<0x00>	0
<0x01>	0
<0x02>	0
<0x03>	0
<0x04>	0
<0x05>	0
<0x06>	0
<0x07>	0
<0x08>	0
<0x09>	0
<0x0A>	0
<0x0B>	0
<0x0C>	0
<0x0D>	0
<0x0E>	0
<0x0F>	0
<0x10>	0
<0x11>	0
<0x12>	0
<0x13>	0
<0x14>	0
<0x15>	0
<0x16>	0
<0x17>	0
<0x18>	0
<0x19>	0
<0x1A>	0
<0x1B>	0
<0x1C>	0
<0x1D>	0
<0x1E>	0
<0x1F>	0
<0x20>	0
<0x21>	0
<0x22>	0
<0x23>	0
<0x24>	0
<0x25>	0
<0x26>	0
<0x27>	0
<0x28>	0
<0x29>	0
<0x2A>	0
<0x2B>	0
<0x2C>	0
<0x2D>	0
<0x2E>	0
<0x2F>	0
<0x30>	0
<0x31>	0
<0x32>	0
<0x33>	0
<0x34>	0
<0x35>	0
<0x36>	0
<0x37>	0
<0x38>	0
<0x39>	0
<0x3A>	0
<0x3B>	0
<0x3C>	0
<0x3D>	0
<0x3E>	0
<0x3F>	0
<0x40>	0
<0x41>	0
<0x42>	0
<0x43>	0
<0x44>	0
<0x45>	0
<0x46>	0
<0x47>	0
<0x48>	0
<0x49>	0
<0x4A>	0
<0x4B>	0
<0x4C>	0
<0x4D>	0
<0x4E>	0
<0x4F>	0
<0x50>	0
<0x51>	0
<0x52>	0
<0x53>	0
<0x54>	0
<0x55>	0
<0x56>	0
<0x57>	0
<0x58>	0
<0x59>	0
<0x5A>	0
<0x5B>	0
<0x5C>	0
<0x5D>	0
<0x5E>	0
<0x5F>	0
<0x60>	0
<0x61>	0
<0x62>	0
<0x63>	0
<0x64>	0
<0x65>	0
<0x66>	0
<0x67>	0
<0x68>	0
<0x69>	0
<0x6A>	0
<0x6B>	0
<0x6C>	0
<0x6D>	0
<0x6E>	0
<0x6F>	0
<0x70>	0
<0x71>	0
<0x72>	0
<0x73>	0
<0x74>	0
<0x75>	0
<0x76>	0
<0x77>	0
<0x78>	0
<0x79>	0
<0x7A>	0
<0x7B>	0
<0x7C>	0
<0x7D>	0
<0x7E>	0
<0x7F>	0
<0x80>	0
<0x81>	0
<0x82>	0
<0x83>	0
<0x84>	0
<0x85>	0
<0x86>	0
<0x87>	0
<0x88>	0
<0x89>	0
<0x8A>	0
<0x8B>	0
<0x8C>	0
<0x8D>	0
<0x8E>	0
<0x8F>	0
<0x90>	0
<0x91>	0
<0x92>	0
<0x93>	0
<0x94>	0
<0x95>	0
<0x96>	0
<0x97>	0
<0x98>	0
<0x99>	0
<0x9A>	0
<0x9B>	0
<0x9C>	0
<0x9D>	0
<0x9E>	0
<0x9F>	0
<0xA0>	0
<0xA1>	0
<0xA2>	0
<0xA3>	0
<0xA4>	0
<0xA5>	0
<0xA6>	0
<0xA7>	0
<0xA8>	0
<0xA9>	0
<0xAA>	0
<0xAB>	0
<0xAC>	0
<0xAD>	0
<0xAE>	0
<0xAF>	0
<0xB0>	0
<0xB1>	0
<0xB2>	0
<0xB3>	0
<0xB4>	0
<0xB5>	0
<0xB6>	0
<0xB7>	0
<0xB8>	0
<0xB9>	0
<0xBA>	0
<0xBB>	0
<0xBC>	0
<0xBD>	0
<0xBE>	0
<0xBF>	0
<0xC0>	0
<0xC1>	0
<0xC2>	0
<0xC3>	0
<0xC4>	0
<0xC5>	0
<0xC6>	0
<0xC7>	0
<0xC8>	0
<0xC9>	0
<0xCA>	0
<0xCB>	0
<0xCC>	0
<0xCD>	0
<0xCE>	0
<0xCF>	0
<0xD0>	0
<0xD1>	0
<0xD2>	0
<0xD3>	0
<0xD4>	0
<0xD5>	0
<0xD6>	0
<0xD7>	0
<0xD8>	0
<0xD9>	0
<0xDA>	0
<0xDB>	0
<0xDC>	0
<0xDD>	0
<0xDE>	0
<0xDF>	0
<0xE0>	0
<0xE1>	0
<0xE2>	0
<0xE3>	0
<0xE4>	0
<0xE5>	0
<0xE6>	0
<0xE7>	0
<0xE8>	0
<0xE9>	0
<0xEA>	0
<0xEB>	0
<0xEC>	0
<0xED>	0
<0xEE>	0
<0xEF>	0
<0xF0>	0
<0xF1>	0
<0xF2>	0
<0xF3>	0
<0xF4>	0
<0xF5>	0
<0xF6>	0
<0xF7>	0
<0xF8>	0
<0xF9>	0
<0xFA>	0
<0xFB>	0
<0xFC>	0
<0xFD>	0
<0xFE>	0
<0xFF>	0
in	-0
▁t	-1
▁a	-2
er	-3
on	-4
re	-5
he	-6
at	-7
en	-8
or	-9
▁s	-10
al	-11
es	-12
▁the	-13
▁c	-14
is	-15
it	-16
ion	-17
an	-18
▁o	-19
▁p	-20
le	-21
ing	-22
▁f	-23
ar	-24
ed	-25
ic	-26
▁in	-27
ro	-28
nd	-29
▁d	-30
ct	-31
▁w	-32
▁▁	-33
▁m	-34
▁b	-35
▁of	-36
ent	-37
st	-38
se	-39
▁and	-40
▁=	-41
▁to	-42
et	-43
ou	-44
▁e	-45
▁re	-46
▁n	-47
im	-48
om	-49
el	-50
▁th	-51
am	-52
as	-53
ut	-54
id	-55
ation	-56
il	-57
iv	-58
ol	-59
ce	-60
ig	-61
ur	-62
▁is	-63
▁l	-64
ul	-65
if	-66
ra	-67
▁(	-68
▁h	-69
▁T	-70
ot	-71
ch	-72
um	-73
--	-74
od	-75
▁▁▁▁	-76
ly	-77
▁g	-78
qu	-79
▁u	-80
ate	-81
ow	-82
▁con	-83
▁st	-84
▁v	-85
▁{	-86
th	-87
▁for	-88
ad	-89
ab	-90
ag	-91
pe	-92
ers	-93
);	-94
▁S	-95
ith	-96
em	-97
ist	-98
▁A	-99
est	-100
res	-101
▁as	-102
ction	-103
ir	-104
▁pro	-105
▁I	-106
ex	-107
un	-108
ter	-109
ort	-110
▁on	-111
lo	-112
ess	-113
▁ex	-114
▁C	-115
▁be	-116
pt	-117
pp	-118
▁that	-119
▁with	-120
▁"	-121
ver	-122
ay	-123
ck	-124
▁an	-125
▁or	-126
ri	-127
ity	-128
▁'	-129
ment	-130
ef	-131
ue	-132
ame	-133
##	-134
▁su	-135
int	-136
ive	-137
▁com	-138
▁The	-139
us	-140
ve	-141
igh	-142
//	-143
iz	-144
ect	-145
os	-146
()	-147
rom	-148
**	-149
imp	-150
▁are	-151
and	-152
con	-153
▁al	-154
nt	-155
ult	-156
▁wh	-157
ial	-158
▁P	-159
▁it	-160
▁r	-161
▁y	-162
ical	-163
',	-164
urn	-165
▁$	-166
▁by	-167
per	-168
----	-169
ain	-170
pl	-171
end	-172
ine	-173
age	-174
ass	-175
cl	-176
▁-	-177
▁N	-178
▁de	-179
▁M	-180
▁F	-181
able	-182
ure	-183
ore	-184
  	-185
ud	-186
ies	-187
▁+	-188
ant	-189
op	-190
ew	-191
ight	-192
__	-193
ret	-194
for	-195
oc	-196
▁D	-197
art	-198
ke	-199
ap	-200
ata	-201
og	-202
▁int	-203
▁E	-204
▁this	-205
ang	-206
▁from	-207
our	-208
▁R	-209
▁en	-210
▁se	-211
▁\	-212
ub	-213
▁B	-214
ile	-215
sel	-216
),	-217
ext	-218
ere	-219
ions	-220
▁can	-221
ath	-222
act	-223
▁▁▁▁▁▁▁▁	-224
▁ch	-225
ac	-226
get	-227
▁res	-228
▁not	-229
ign	-230
self	-231
rou	-232
ff	-233
",	-234
ance	-235
▁at	-236
return	-237
all	-238
ind	-239
ated	-240
▁le	-241
umb	-242
▁W	-243
▁cont	-244
du	-245
▁L	-246
ip	-247
ations	-248
▁comp	-249
are	-250
ype	-251
ep	-252
▁H	-253
==	-254
ill	-255
ence	-256
▁:	-257
▁we	-258
str	-259
▁sh	-260
ase	-261
St	-262
unction	-263
▁us	-264
cc	-265
ode	-266
ib	-267
ime	-268
▁ad	-269
ire	-270
▁*	-271
com	-272
import	-273
ans	-274
▁he	-275
out	-276
eg	-277
put	-278
alue	-279
ld	-280
ard	-281
ert	-282
▁Th	-283
ost	-284
▁[	-285
lic	-286
ition	-287
ack	-288
form	-289
("	-290
▁numb	-291
ress	-292
▁O	-293
ents	-294
▁tr	-295
ust	-296
ach	-297
ject	-298
ich	-299
ph	-300
ide	-301
).	-302
▁k	-303
set	-304
ual	-305
In	-306
ize	-307
gh	-308
ary	-309
▁G	-310
▁str	-311
def	-312
ens	-313
ave	-314
ice	-315
****	-316
..	-317
ord	-318
hen	-319
fer	-320
one	-321
▁x	-322
ace	-323
ast	-324
ork	-325
low	-326
::	-327
ors	-328
('	-329
pon	-330
▁per	-331
ific	-332
The	-333
av	-334
▁pl	-335
▁app	-336
▁you	-337
▁un	-338
))	-339
--------	-340
rib	-341
▁ar	-342
ong	-343
▁which	-344
vel	-345
ge	-346
▁sy	-347
▁U	-348
ite	-349
▁In	-350
▁function	-351
err	-352
ec	-353
▁me	-354
ount	-355
let	-356
▁inter	-357
):	-358
ption	-359
pr	-360
ther	-361
pro	-362
enc	-363
▁`	-364
▁ma	-365
▁ro	-366
ould	-367
erv	-368
ous	-369
▁This	-370
▁dis	-371
▁number	-372
▁cl	-373
▁ab	-374
tr	-375
lect	-376
▁ind	-377
▁j	-378
name	-379
ell	-380
ient	-381
▁<	-382
Con	-383
ER	-384
ail	-385
ys	-386
par	-387
ft	-388
$$	-389
clud	-390
nder	-391
":	-392
to	-393
▁have	-394
▁if	-395
ory	-396
▁qu	-397
val	-398
oint	-399
▁&	-400
pec	-401
ild	-402
so	-403
▁pre	-404
ely	-405
oo	-406
    	-407
stem	-408
ound	-409
▁V	-410
ates	-411
oth	-412
amp	-413
▁equ	-414
eth	-415
ari	-416
elf	-417
bject	-418
▁form	-419
lement	-420
we	-421
▁out	-422
▁such	-423
ating	-424
####	-425
▁pr	-426
▁has	-427
▁their	-428
▁em	-429
▁sc	-430
▁part	-431
IN	-432
ative	-433
ility	-434
ater	-435
ak	-436
erm	-437
}{	-438
ree	-439
ry	-440
``	-441
▁ne	-442
▁i	-443
eng	-444
▁imp	-445
uct	-446
vent	-447
],	-448
this	-449
▁self	-450
ribut	-451
▁one	-452
();	-453
odel	-454
wo	-455
▁new	-456
ange	-457
anc	-458
ull	-459
own	-460
▁data	-461
ular	-462
row	-463
les	-464
▁do	-465
pect	-466
cre	-467
ss	-468
text	-469
arg	-470
ener	-471
eld	-472
▁acc	-473
ma	-474
port	-475
▁under	-476
yp	-477
▁set	-478
▁was	-479
ield	-480
ict	-481
ps	-482
▁all	-483
▁value	-484
ON	-485
▁its	-486
rough	-487
rac	-488
sc	-489
inal	-490
▁will	-491
▁des	-492
ublic	-493
▁col	-494
▁comm	-495
sh	-496
fig	-497
▁use	-498
led	-499
cess	-500
Ex	-501
ia	-502
▁includ	-503
▁eff	-504
const	-505
▁==	-506
▁man	-507
▁requ	-508
▁sign	-509
▁pos	-510
▁}	-511
▁exp	-512
data	-513
▁dist	-514
key	-515
urre	-516
▁two	-517
▁St	-518
▁ass	-519
rad	-520
▁cons	-521
▁may	-522
▁def	-523
arch	-524
up	-525
tt	-526
ample	-527
var	-528
its	-529
▁system	-530
AT	-531
ings	-532
orm	-533
ues	-534
olut	-535
ble	-536
atic	-537
▁so	-538
▁get	-539
rit	-540
▁bet	-541
ract	-542
ator	-543
▁more	-544
oid	-545
▁also	-546
▁add	-547
▁_	-548
ES	-549
====	-550
ethod	-551
▁J	-552
▁$$	-553
▁but	-554
▁rel	-555
ome	-556
olog	-557
LL	-558
ev	-559
type	-560
ray	-561
irst	-562
▁supp	-563
▁spec	-564
ential	-565
ix	-566
ise	-567
iew	-568
▁reg	-569
▁result	-570
▁over	-571
▁into	-572
ll	-573
ov	-574
▁through	-575
ivid	-576
ram	-577
cul	-578
▁trans	-579
▁cal	-580
uring	-581
ied	-582
▁time	-583
▁stud	-584
ose	-585
Pro	-586
▁dif	-587
▁te	-588
frac	-589
ric	-590
app	-591
▁sub	-592
tern	-593
ink	-594
▁sp	-595
ne	-596
▁ev	-597
▁when	-598
▁rem	-599
add	-600
▁ac	-601
▁val	-602
old	-603
▁@	-604
ars	-605
atch	-606
als	-607
********	-608
ength	-609
▁K	-610
read	-611
▁these	-612
ark	-613
ures	-614
Id	-615
')	-616
")	-617
ween	-618
ities	-619
use	-620
▁work	-621
over	-622
urrent	-623
▁|	-624
▁high	-625
ible	-626
ring	-627
ational	-628
iven	-629
rr	-630
ource	-631
AR	-632
log	-633
▁inv	-634
▁act	-635
Name	-636
▁rec	-637
che	-638
▁det	-639
ctions	-640
▁ph	-641
▁between	-642
▁vari	-643
▁/	-644
ery	-645
▁than	-646
ob	-647
duct	-648
▁then	-649
ool	-650
equ	-651
▁err	-652
ized	-653
▁li	-654
▁id	-655
▁!	-656
▁each	-657
alse	-658
ined	-659
▁ret	-660
pert	-661
▁other	-662
ms	-663
dd	-664
▁test	-665
EN	-666
lock	-667
assert	-668
▁prov	-669
yn	-670
ove	-671
raph	-672
▁point	-673
bu	-674
▁It	-675
ally	-676
ook	-677
OR	-678
▁cre	-679
':	-680
right	-681
ser	-682
velop	-683
▁import	-684
ically	-685
▁appro	-686
resent	-687
▁inf	-688
ning	-689
Th	-690
param	-691
ower	-692
ics	-693
ments	-694
="	-695
test	-696
▁using	-697
▁kn	-698
ault	-699
▁mult	-700
cept	-701
olv	-702
▁differ	-703
ollow	-704
ased	-705
▁how	-706
roup	-707
▁▁▁▁▁▁▁▁▁▁▁▁▁▁▁▁	-708
▁up	-709
ST	-710
iss	-711
----------------	-712
public	-713
▁where	-714
▁fact	-715
requ	-716
""	-717
ish	-718
▁fe	-719
▁=>	-720
load	-721
Type	-722
▁support	-723
ays	-724
▁integ	-725
aw	-726
ify	-727
▁partic	-728
of	-729
ability	-730
▁any	-731
▁inst	-732
▁they	-733
▁ob	-734
▁tra	-735
▁used	-736
}\	-737
cond	-738
▁need	-739
LE	-740
String	-741
▁develop	-742
▁find	-743
io	-744
duc	-745
____	-746
▁first	-747
round	-748
▁only	-749
work	-750
▁im	-751
ividual	-752
{\	-753
sp	-754
erg	-755
olution	-756
▁am	-757
▁signific	-758
aram	-759
ask	-760
ense	-761
._	-762
ache	-763
ng	-764
ten	-765
ature	-766
->	-767
▁process	-768
ines	-769
ule	-770
date	-771
ices	-772
lu	-773
▁line	-774
ULL	-775
Err	-776
▁co	-777
from	-778
ID	-779
▁min	-780
ax	-781
▁:=	-782
te	-783
ponse	-784
</	-785
▁ext	-786
line	-787
ful	-788
▁both	-789
▁follow	-790
▁effect	-791
▁>	-792
▁method	-793
Res	-794
ument	-795
['	-796
path	-797
▁class	-798
▁Wh	-799
▁ag	-800
▁no	-801
ick	-802
ural	-803
RE	-804
▁individual	-805
To	-806
raw	-807
▁your	-808
ement	-809
ages	-810
ood	-811
▁Con	-812
der	-813
▁rep	-814
cent	-815
uth	-816
▁->	-817
sw	-818
su	-819
▁el	-820
value	-821
class	-822
_{	-823
▁should	-824
▁Ex	-825
▁pers	-826
red	-827
▁div	-828
essage	-829
cont	-830
▁Y	-831
▁ref	-832
▁z	-833
▁gener	-834
List	-835
▁oper	-836
▁const	-837
ersion	-838
ains	-839
AL	-840
ional	-841
IT	-842
SE	-843
file	-844
min	-845
▁significant	-846
▁there	-847
pos	-848
▁them	-849
▁cor	-850
ateg	-851
▁require	-852
alth	-853
▁mat	-854
▁calcul	-855
new	-856
ough	-857
ider	-858
▁Pro	-859
irect	-860
▁pol	-861
ead	-862
");	-863
itive	-864
ins	-865
Error	-866
Cl	-867
col	-868
ock	-869
math	-870
print	-871
ern	-872
▁If	-873
AM	-874
ptions	-875
^{	-876
left	-877
ross	-878
▁NULL	-879
itions	-880
▁For	-881
Qu	-882
fter	-883
▁mod	-884
,"	-885
ases	-886
cle	-887
▁true	-888
the	-889
size	-890
▁were	-891
son	-892
atus	-893
▁org	-894
']	-895
▁sur	-896
fo	-897
▁return	-898
struct	-899
▁about	-900
lex	-901
ash	-902
ception	-903
ann	-904
}}	-905
ru	-906
Ch	-907
▁ent	-908
vir	-909
chn	-910
▁att	-911
imes	-912
▁key	-913
▁These	-914
▁How	-915
▁struct	-916
ian	-917
▁ed	-918
▁dec	-919
▁Ch	-920
▁same	-921
▁model	-922
ency	-923
Com	-924
ake	-925
▁end	-926
comm	-927
▁bu	-928
▁pat	-929
▁cent	-930
arget	-931
ization	-932
▁within	-933
RO	-934
▁numbers	-935
▁incre	-936
▁cond	-937
rite	-938
▁%	-939
by	-940
ever	-941
▁–	-942
▁ident	-943
esc	-944
▁dep	-945
function	-946
▁list	-947
fil	-948
unc	-949
list	-950
▁.	-951
▁di	-952
▁exper	-953
hed	-954
▁who	-955
ox	-956
ause	-957
AN	-958
▁char	-959
▁sm	-960
},	-961
▁given	-962
ences	-963
Data	-964
ody	-965
▁null	-966
loc	-967
oci	-968
().	-969
▁Un	-970
eter	-971
ience	-972
▁long	-973
mb	-974
ious	-975
Ar	-976
▁like	-977
▁type	-978
li	-979
ides	-980
ervice	-981
ision	-982
de	-983
▁ser	-984
rame	-985
ified	-986
oad	-987
ey	-988
▁during	-989
...	-990
viron	-991
▁!=	-992
▁term	-993
▁hel	-994
▁object	-995
search	-996
abel	-997
xim	-998
back	-999
▁loc	-1000
];	-1001
af	-1002
ward	-1003
time	-1004
ives	-1005
▁must	-1006
AS	-1007
########	-1008
▁current	-1009
py	-1010
heck	-1011
▁typ	-1012
###	-1013
'),	-1014
air	-1015
▁some	-1016
▁proble	-1017
TI	-1018
▁anal	-1019
DE	-1020
▁off	-1021
▁design	-1022
ron	-1023
stand	-1024
▁disc	-1025
ale	-1026
hem	-1027
Tr	-1028
ces	-1029
formation	-1030
▁name	-1031
▁including	-1032
▁adv	-1033
ited	-1034
ape	-1035
rol	-1036
emb	-1037
▁*/	-1038
estion	-1039
ream	-1040
▁av	-1041
▁health	-1042
ively	-1043
ner	-1044
num	-1045
ality	-1046
ness	-1047
olum	-1048
▁techn	-1049
lete	-1050
▁while	-1051
olve	-1052
reat	-1053
▁lead	-1054
tem	-1055
((	-1056
ute	-1057
▁element	-1058
face	-1059
])	-1060
ants	-1061
▁values	-1062
ivate	-1063
▁particular	-1064
▁would	-1065
▁example	-1066
▁met	-1067
▁prog	-1068
ables	-1069
arly	-1070
ml	-1071
args	-1072
model	-1073
▁second	-1074
▁meas	-1075
▁stand	-1076
ples	-1077
play	-1078
▁ 	-1079
ting	-1080
▁sum	-1081
ression	-1082
tal	-1083
util	-1084
▁None	-1085
========	-1086
mer	-1087
lob	-1088
▁ye	-1089
▁med	-1090
ie	-1091
▁init	-1092
        	-1093
▁$\	-1094
▁pract	-1095
string	-1096
▁input	-1097
und	-1098
▁right	-1099
▁range	-1100
▁found	-1101
▁been	-1102
▁state	-1103
AC	-1104
mod	-1105
not	-1106
▁▁▁▁▁▁	-1107
wh	-1108
▁often	-1109
▁arg	-1110
gg	-1111
ccess	-1112
▁size	-1113
▁eng	-1114
ared	-1115
map	-1116
}$	-1117
▁level	-1118
].	-1119
▁Com	-1120
▁void	-1121
▁simp	-1122
../	-1123
▁multip	-1124
▁&&	-1125
opy	-1126
imal	-1127
king	-1128
▁file	-1129
other	-1130
▁perform	-1131
ttp	-1132
ames	-1133
ren	-1134
▁cir	-1135
rix	-1136
code	-1137
▁does	-1138
='	-1139
▁most	-1140
iqu	-1141
(),	-1142
▁field	-1143
ta	-1144
▁person	-1145
▁different	-1146
rain	-1147
rm	-1148
▁pot	-1149
abl	-1150
reg	-1151
ivity	-1152
▁environ	-1153
umber	-1154
Se	-1155
▁across	-1156
view	-1157
▁dem	-1158
▁individuals	-1159
ince	-1160
▁allow	-1161
▁ins	-1162
met	-1163
ton	-1164
▁mean	-1165
plic	-1166
isk	-1167
▁est	-1168
▁log	-1169
ts	-1170
▁contribut	-1171
▁integr	-1172
');	-1173
▁what	-1174
▁following	-1175
▁know	-1176
pi	-1177
ote	-1178
${	-1179
ological	-1180
inc	-1181
▁lim	-1182
itional	-1183
▁else	-1184
config	-1185
▁bel	-1186
loat	-1187
Cont	-1188
▁string	-1189
user	-1190
uc	-1191
bin	-1192
yle	-1193
ital	-1194
ger	-1195
▁false	-1196
/*	-1197
▁read	-1198
Set	-1199
ily	-1200
▁X	-1201
****************	-1202
▁)	-1203
hip	-1204
▁three	-1205
▁vis	-1206
▁involv	-1207
▁fil	-1208
▁go	-1209
▁mark	-1210
▁research	-1211
serv	-1212
PI	-1213
inter	-1214
action	-1215
ero	-1216
ism	-1217
://	-1218
perty	-1219
lection	-1220
ology	-1221
▁specific	-1222
arent	-1223
ists	-1224
ware	-1225
▁We	-1226
▁well	-1227
▁__	-1228
▁his	-1229
init	-1230
ref	-1231
ken	-1232
▁squ	-1233
▁dig	-1234
▁non	-1235
▁many	-1236
Value	-1237
ately	-1238
▁product	-1239
));	-1240
▁child	-1241
▁An	-1242
rid	-1243
vert	-1244
ocument	-1245
///	-1246
▁understand	-1247
co	-1248
▁#	-1249
sub	-1250
lean	-1251
ier	-1252
▁equation	-1253
arn	-1254
▁common	-1255
▁start	-1256
▁pe	-1257
▁power	-1258
▁after	-1259
▁tem	-1260
▁path	-1261
net	-1262
idth	-1263
▁distribut	-1264
url	-1265
ank	-1266
▁sk	-1267
else	-1268
▁conf	-1269
▁see	-1270
▁cap	-1271
▁poss	-1272
▁Str	-1273
▁dev	-1274
▁gu	-1275
ished	-1276
▁hum	-1277
ulation	-1278
▁fl	-1279
▁direct	-1280
▁mon	-1281
length	-1282
▁error	-1283
result	-1284
ET	-1285
▁tri	-1286
acter	-1287
▁del	-1288
▁phys	-1289
icense	-1290
▁desc	-1291
ector	-1292
iver	-1293
ystem	-1294
pen	-1295
▁Al	-1296
▁lif	-1297
▁represent	-1298
reak	-1299
▁equal	-1300
▁hand	-1301
▁real	-1302
▁num	-1303
▁par	-1304
▁development	-1305
count	-1306
▁pres	-1307
▁potential	-1308
mp	-1309
▁length	-1310
TO	-1311
ently	-1312
////	-1313
aining	-1314
index	-1315
▁show	-1316
▁cell	-1317
▁final	-1318
me	-1319
▁particularly	-1320
▁enh	-1321
angle	-1322
point	-1323
input	-1324
her	-1325
omet	-1326
▁applic	-1327
▁“	-1328
CO	-1329
▁ang	-1330
ances	-1331
';	-1332
▁help	-1333
aterial	-1334
▁context	-1335
dis	-1336
▁orig	-1337
ED	-1338
▁contin	-1339
▁impro	-1340
▁ra	-1341
Object	-1342
ior	-1343
ript	-1344
▁case	-1345
define	-1346
ayer	-1347
▁even	-1348
apt	-1349
AB	-1350
▁without	-1351
We	-1352
ergy	-1353
▁fra	-1354
▁text	-1355
▁small	-1356
ane	-1357
▁commun	-1358
very	-1359
▁art	-1360
pected	-1361
▁To	-1362
▁systems	-1363
For	-1364
rt	-1365
▁ens	-1366
▁As	-1367
swer	-1368
dict	-1369
▁water	-1370
▁bec	-1371
arm	-1372
▁crit	-1373
ula	-1374
▁access	-1375
go	-1376
▁user	-1377
max	-1378
▁just	-1379
▁information	-1380
▁those	-1381
▁ap	-1382
comp	-1383
▁Tr	-1384
▁count	-1385
▁standard	-1386
▁ess	-1387
state	-1388
Int	-1389
ected	-1390
be	-1391
▁maint	-1392
case	-1393
▁students	-1394
error	-1395
▁+=	-1396
ety	-1397
▁include	-1398
▁order	-1399
▁×	-1400
ather	-1401
ources	-1402
stance	-1403
Key	-1404
hes	-1405
▁occ	-1406
ral	-1407
Param	-1408
["	-1409
iter	-1410
valu	-1411
arning	-1412
▁make	-1413
iod	-1414
private	-1415
ocus	-1416
This	-1417
Config	-1418
ogn	-1419
())	-1420
▁total	-1421
json	-1422
uthor	-1423
IC	-1424
▁study	-1425
▁consider	-1426
▁hist	-1427
cur	-1428
▁determ	-1429
rc	-1430
▁beh	-1431
▁risk	-1432
▁indic	-1433
ait	-1434
ader	-1435
ental	-1436
▁However	-1437
ends	-1438
func	-1439
▁due	-1440
▁refer	-1441
duce	-1442
ava	-1443
light	-1444
▁IN	-1445
place	-1446
dir	-1447
IS	-1448
By	-1449
urther	-1450
▁strateg	-1451
▁car	-1452
duction	-1453
orld	-1454
uration	-1455
"""	-1456
▁problem	-1457
ailable	-1458
ots	-1459
Requ	-1460
▁our	-1461
Equ	-1462
with	-1463
rel	-1464
({	-1465
ffer	-1466
▁sim	-1467
ond	-1468
▁String	-1469
att	-1470
angu	-1471
▁grow	-1472
▁param	-1473
less	-1474
▁$$\	-1475
Exception	-1476
ysis	-1477
agement	-1478
▁||	-1479
sq	-1480
▁serv	-1481
▁nil	-1482
UT	-1483
loy	-1484
come	-1485
ession	-1486
▁prof	-1487
▁Se	-1488
ush	-1489
ech	-1490
icient	-1491
ingle	-1492
▁organ	-1493
▁conditions	-1494
▁exam	-1495
Un	-1496
ription	-1497
Bu	-1498
Input	-1499
={	-1500
An	-1501
▁gre	-1502
▁complex	-1503
Test	-1504
sum	-1505
▁graph	-1506
▁less	-1507
bo	-1508
ets	-1509
ustom	-1510
itor	-1511
ended	-1512
▁writ	-1513
▁?	-1514
oun	-1515
rect	-1516
por	-1517
▁energy	-1518
Ind	-1519
Out	-1520
AD	-1521
";	-1522
izing	-1523
item	-1524
▁present	-1525
ister	-1526
▁step	-1527
▁aut	-1528
ift	-1529
ining	-1530
ained	-1531
▁area	-1532
"]	-1533
▁mov	-1534
OT	-1535
export	-1536
▁chall	-1537
SER	-1538
ug	-1539
MA	-1540
efore	-1541
State	-1542
ords	-1543
iled	-1544
▁environment	-1545
▁elect	-1546
ons	-1547
fore	-1548
med	-1549
▁provid	-1550
mat	-1551
ivers	-1552
▁back	-1553
ler	-1554
LO	-1555
▁post	-1556
▁could	-1557
▁Step	-1558
ormal	-1559
annel	-1560
andom	-1561
start	-1562
valid	-1563
▁()	-1564
▁essential	-1565
any	-1566
pub	-1567
umn	-1568
▁pass	-1569
▁every	-1570
▁enc	-1571
▁check	-1572
++	-1573
▁role	-1574
ived	-1575
▁What	-1576
Time	-1577
▁output	-1578
▁group	-1579
▁measure	-1580
▁fin	-1581
mpt	-1582
▁factor	-1583
▁because	-1584
▁associ	-1585
▁material	-1586
▁approach	-1587
▁pop	-1588
▁Res	-1589
▁,	-1590
array	-1591
ename	-1592
▁compon	-1593
▁nat	-1594
ync	-1595
create	-1596
lobal	-1597
ION	-1598
▁known	-1599
eters	-1600
default	-1601
▁respon	-1602
▁prim	-1603
ols	-1604
▁call	-1605
▁top	-1606
▁human	-1607
uch	-1608
dev	-1609
▁program	-1610
▁reduc	-1611
ially	-1612
AME	-1613
sy	-1614
mathrm	-1615
info	-1616
lose	-1617
▁frequ	-1618
ification	-1619
comes	-1620
▁cult	-1621
node	-1622
▁public	-1623
▁based	-1624
▁my	-1625
If	-1626
▁--	-1627
ators	-1628
▁her	-1629
XX	-1630
▁answer	-1631
▁positive	-1632
itle	-1633
▁config	-1634
▁bro	-1635
CT	-1636
▁spe	-1637
▁request	-1638
▁points	-1639
▁rad	-1640
pack	-1641
▁opt	-1642
uss	-1643
ually	-1644
▁control	-1645
ade	-1646
order	-1647
append	-1648
}$$	-1649
Add	-1650
());	-1651
oss	-1652
UR	-1653
./	-1654
▁solution	-1655
▁Add	-1656
miss	-1657
bs	-1658
▁results	-1659
olume	-1660
▁cur	-1661
atures	-1662
▁factors	-1663
▁appe	-1664
ibility	-1665
cd	-1666
Field	-1667
▁reflect	-1668
pre	-1669
File	-1670
ok	-1671
▁required	-1672
idence	-1673
▁//	-1674
▁code	-1675
ocial	-1676
ired	-1677
▁License	-1678
perties	-1679
ration	-1680
rop	-1681
▁multiple	-1682
▁bl	-1683
(&	-1684
ypes	-1685
▁change	-1686
Load	-1687
trans	-1688
inary	-1689
anguage	-1690
cal	-1691
▁sever	-1692
arge	-1693
▁gen	-1694
▁consist	-1695
CH	-1696
ium	-1697
wn	-1698
▁target	-1699
anced	-1700
version	-1701
▁dr	-1702
▁focus	-1703
lying	-1704
indow	-1705
hether	-1706
▁trad	-1707
ww	-1708
▁response	-1709
UN	-1710
len	-1711
▁prob	-1712
ici	-1713
▁address	-1714
otal	-1715
imens	-1716
▁influ	-1717
True	-1718
db	-1719
▁percent	-1720
▁observ	-1721
▁content	-1722
▁net	-1723
pper	-1724
format	-1725
▁run	-1726
▁educ	-1727
▁create	-1728
Text	-1729
Col	-1730
ique	-1731
Request	-1732
api	-1733
▁He	-1734
▁expl	-1735
ination	-1736
=\	-1737
Get	-1738
Node	-1739
aces	-1740
▁body	-1741
ither	-1742
▁formula	-1743
mit	-1744
▁years	-1745
plit	-1746
fl	-1747
▁ben	-1748
ced	-1749
rem	-1750
▁express	-1751
▁above	-1752
▁build	-1753
▁before	-1754
▁square	-1755
az	-1756
lev	-1757
▁emp	-1758
▁[]	-1759
ailed	-1760
Re	-1761
▁though	-1762
▁Q	-1763
▁table	-1764
▁period	-1765
})	-1766
div	-1767
check	-1768
▁implement	-1769
ouble	-1770
▁So	-1771
ENT	-1772
ember	-1773
▁way	-1774
▁character	-1775
▁===	-1776
▁und	-1777
istic	-1778
anges	-1779
org	-1780
▁available	-1781
roll	-1782
void	-1783
ATE	-1784
>>	-1785
▁static	-1786
▁functions	-1787
ches	-1788
ole	-1789
▁personal	-1790
▁pur	-1791
Path	-1792
ternal	-1793
NAME	-1794
static	-1795
egin	-1796
▁default	-1797
tml	-1798
▁Qu	-1799
▁offer	-1800
tings	-1801
▁structure	-1802
ats	-1803
$.	-1804
aging	-1805
Step	-1806
FF	-1807
▁cost	-1808
▁beg	-1809
▁evalu	-1810
ails	-1811
▁np	-1812
▁root	-1813
igned	-1814
▁left	-1815
▁now	-1816
ival	-1817
Im	-1818
Map	-1819
▁ide	-1820
request	-1821
object	-1822
▁block	-1823
ynam	-1824
▁being	-1825
▁single	-1826
ags	-1827
▁behav	-1828
▁invest	-1829
▁life	-1830
▁sequ	-1831
epend	-1832
dom	-1833
▁leg	-1834
clude	-1835
}{\	-1836
client	-1837
verse	-1838
part	-1839
▁Cl	-1840
opt	-1841
En	-1842
"),	-1843
asing	-1844
▁neg	-1845
ope	-1846
PE	-1847
▁bi	-1848
▁performance	-1849
current	-1850
los	-1851
▁down	-1852
mut	-1853
arr	-1854
output	-1855
rag	-1856
▁pattern	-1857
▁analysis	-1858
▁dom	-1859
acy	-1860
ands	-1861
rior	-1862
label	-1863
▁rate	-1864
oolean	-1865
▁care	-1866
eff	-1867
omic	-1868
▁possible	-1869
▁cle	-1870
▁event	-1871
vious	-1872
▁instance	-1873
ules	-1874
ored	-1875
eturn	-1876
▁open	-1877
gl	-1878
Index	-1879
▁interest	-1880
erc	-1881
field	-1882
IM	-1883
amb	-1884
▁mot	-1885
▁You	-1886
estions	-1887
▁exist	-1888
▁question	-1889
▁space	-1890
EX	-1891
▁saf	-1892
iation	-1893
View	-1894
run	-1895
▁aff	-1896
▁treat	-1897
▁deg	-1898
ending	-1899
Context	-1900
▁times	-1901
chan	-1902
▁select	-1903
▁When	-1904
▁weight	-1905
ensor	-1906
▁position	-1907
igure	-1908
▁physical	-1909
odes	-1910
▁social	-1911
▁distin	-1912
▁play	-1913
mon	-1914
PRO	-1915
▁cy	-1916
▁had	-1917
tes	-1918
olic	-1919
▁understanding	-1920
ven	-1921
▁improv	-1922
▁assess	-1923
itut	-1924
▁effective	-1925
User	-1926
▁ach	-1927
tx	-1928
▁index	-1929
▁force	-1930
▁prime	-1931
ries	-1932
nal	-1933
cor	-1934
ounds	-1935
▁project	-1936
▁view	-1937
AG	-1938
Sh	-1939
[]	-1940
plate	-1941
Wh	-1942
▁der	-1943
▁item	-1944
ponent	-1945
idd	-1946
▁Ind	-1947
(\	-1948
abor	-1949
echo	-1950
word	-1951
istance	-1952
jo	-1953
▁sch	-1954
▁critical	-1955
▁While	-1956
nection	-1957
Size	-1958
http	-1959
off	-1960
▁success	-1961
link	-1962
▁next	-1963
Class	-1964
Info	-1965
▁four	-1966
▁conc	-1967
ason	-1968
▁elements	-1969
▁multi	-1970
ird	-1971
rec	-1972
▁last	-1973
▁frame	-1974
▁len	-1975
desc	-1976
stru	-1977
Output	-1978
Element	-1979
▁mass	-1980
Array	-1981
Up	-1982
▁side	-1983
ering	-1984
▁cert	-1985
▁circ	-1986
thon	-1987
▁challeng	-1988
sive	-1989
▁press	-1990
sequ	-1991
fe	-1992
▁By	-1993
▁approxim	-1994
▁{}	-1995
base	-1996
ways	-1997
▁report	-1998
▁base	-1999
▁associated	-2000
▁ge	-2001
▁low	-2002
UL	-2003
phas	-2004
▁array	-2005
▁she	-2006
▁natural	-2007
IL	-2008
▁typically	-2009
lib	-2010
▁Z	-2011
▁look	-2012
▁significantly	-2013
▁initial	-2014
▁relations	-2015
▁terms	-2016
ainer	-2017
▁source	-2018
js	-2019
da	-2020
▁comput	-2021
▁calculate	-2022
ek	-2023
▁link	-2024
▁${	-2025
ople	-2026
begin	-2027
icle	-2028
▁another	-2029
IG	-2030
▁further	-2031
status	-2032
sqrt	-2033
▁levels	-2034
Def	-2035
IR	-2036
ager	-2037
tra	-2038
▁ant	-2039
▁draw	-2040
Al	-2041
▁unit	-2042
oot	-2043
▁divis	-2044
▁Re	-2045
uture	-2046
ING	-2047
ecess	-2048
▁describ	-2049
▁vert	-2050
▁establ	-2051
ling	-2052
▁means	-2053
▁experience	-2054
agn	-2055
ients	-2056
hand	-2057
▁opp	-2058
▁zero	-2059
As	-2060
irection	-2061
▁whether	-2062
▁fam	-2063
iev	-2064
▁limit	-2065
eq	-2066
None	-2067
▁own	-2068
Reg	-2069
)(	-2070
\\	-2071
▁Sh	-2072
std	-2073
▁sugg	-2074
De	-2075
ilities	-2076
Service	-2077
break	-2078
▁let	-2079
################	-2080
ises	-2081
roups	-2082
rate	-2083
bra	-2084
▁emphas	-2085
verage	-2086
iving	-2087
▁mechan	-2088
▁iss	-2089
▁original	-2090
Message	-2091
▁row	-2092
prot	-2093
▁law	-2094
▁abs	-2095
Item	-2096
ttps	-2097
▁minim	-2098
lease	-2099
▁children	-2100
▁defined	-2101
Over	-2102
md	-2103
▁distance	-2104
▁continu	-2105
▁solve	-2106
▁recogn	-2107
build	-2108
write	-2109
.,	-2110
html	-2111
Equal	-2112
Event	-2113
▁called	-2114
▁ca	-2115
way	-2116
▁learning	-2117
man	-2118
olutions	-2119
▁here	-2120
onstr	-2121
ordin	-2122
▁node	-2123
▁tak	-2124
▁Ar	-2125
lied	-2126
image	-2127
ires	-2128
▁cases	-2129
ubl	-2130
call	-2131
▁maxim	-2132
▁correct	-2133
▁various	-2134
▁below	-2135
▁document	-2136
ctx	-2137
imate	-2138
ftware	-2139
ication	-2140
message	-2141
▁conn	-2142
▁hy	-2143
▁take	-2144
day	-2145
][	-2146
▁local	-2147
Code	-2148
utton	-2149
▁remains	-2150
clus	-2151
TY	-2152
atform	-2153
▁intro	-2154
▁either	-2155
▁light	-2156
▁valid	-2157
hold	-2158
▁again	-2159
alcul	-2160
▁methods	-2161
▁divid	-2162
Form	-2163
ecut	-2164
gor	-2165
▁concept	-2166
cos	-2167
term	-2168
App	-2169
▁demonstr	-2170
▁gra	-2171
▁den	-2172
ection	-2173
▁benef	-2174
▁suggest	-2175
▁temper	-2176
ograph	-2177
mun	-2178
▁prom	-2179
    ``	-2180
▁::	-2181
pace	-2182
▁meaning	-2183
mt	-2184
eta	-2185
Result	-2186
▁task	-2187
▁amount	-2188
group	-2189
________	-2190
▁height	-2191
▁account	-2192
▁respons	-2193
▁fac	-2194
vers	-2195
iness	-2196
▁matrix	-2197
ouse	-2198
TR	-2199
▁prevent	-2200
oms	-2201
▁ax	-2202
▁Int	-2203
▁pa	-2204
query	-2205
ilar	-2206
▁distinct	-2207
ording	-2208
block	-2209
▁subst	-2210
▁relationship	-2211
On	-2212
space	-2213
▁gover	-2214
▁among	-2215
ride	-2216
Man	-2217
fn	-2218
empt	-2219
gorith	-2220
gen	-2221
▁variable	-2222
Pr	-2223
update	-2224
color	-2225
▁image	-2226
)$	-2227
ixed	-2228
▁prot	-2229
▁want	-2230
erefore	-2231
rows	-2232
ours	-2233
▁large	-2234
▁rece	-2235
emory	-2236
▁language	-2237
▁flow	-2238
has	-2239
▁map	-2240
AP	-2241
core	-2242
ention	-2243
response	-2244
ident	-2245
▁princ	-2246
▁impact	-2247
▁emot	-2248
no	-2249
pite	-2250
uster	-2251
▁people	-2252
parse	-2253
================	-2254
▁On	-2255
pret	-2256
▁port	-2257
([	-2258
With	-2259
IP	-2260
inition	-2261
ont	-2262
▁ill	-2263
uro	-2264
ott	-2265
ids	-2266
▁angle	-2267
sm	-2268
▁▁▁	-2269
▁assum	-2270
alle	-2271
▁deep	-2272
ounter	-2273
▁provided	-2274
}^{	-2275
▁larg	-2276
ius	-2277
iction	-2278
float	-2279
ik	-2280
▁consum	-2281
Log	-2282
based	-2283
uint	-2284
▁necess	-2285
style	-2286
expect	-2287
▁coll	-2288
▁surface	-2289
▁greater	-2290
#[	-2291
US	-2292
▁air	-2293
".	-2294
Not	-2295
▁econ	-2296
▁along	-2297
Or	-2298
icro	-2299
▁vol	-2300
▁remain	-2301
instance	-2302
▁designed	-2303
xy	-2304
ude	-2305
include	-2306
context	-2307
▁(!	-2308
▁network	-2309
__(	-2310
▁since	-2311
izes	-2312
ty	-2313
orage	-2314
▁higher	-2315
▁strong	-2316
▁numer	-2317
▁expression	-2318
TION	-2319
▁distribution	-2320
CL	-2321
now	-2322
▁fund	-2323
Hand	-2324
amples	-2325
IF	-2326
els	-2327
UES	-2328
▁conduct	-2329
▁q	-2330
hel	-2331
▁transform	-2332
▁speed	-2333
respon	-2334
▁options	-2335
gs	-2336
▁lik	-2337
▁plan	-2338
target	-2339
▁lower	-2340
mbol	-2341
oper	-2342
lim	-2343
▁compre	-2344
active	-2345
▁column	-2346
▁behavior	-2347
ustr	-2348
▁bas	-2349
▁True	-2350
▁diff	-2351
▁analy	-2352
fact	-2353
Response	-2354
null	-2355
▁es	-2356
ribute	-2357
box	-2358
atio	-2359
▁probability	-2360
▁prior	-2361
ready	-2362
▁occur	-2363
▁accur	-2364
▁print	-2365
▁making	-2366
mathb	-2367
▁changes	-2368
Group	-2369
Val	-2370
▁vector	-2371
bl	-2372
){	-2373
head	-2374
▁},	-2375
▁food	-2376
itch	-2377
▁load	-2378
uments	-2379
▁dynam	-2380
▁custom	-2381
">	-2382
▁activ	-2383
▁tre	-2384
bug	-2385
meric	-2386
ourse	-2387
top	-2388
▁volume	-2389
▁De	-2390
df	-2391
then	-2392
▁free	-2393
Post	-2394
aster	-2395
▁eas	-2396
Sc	-2397
▁stre	-2398
ilit	-2399
▁<<	-2400
▁place	-2401
▁sit	-2402
▁color	-2403
pha	-2404
▁scient	-2405
▁DE	-2406
▁≤	-2407
aut	-2408
flow	-2409
▁prec	-2410
ights	-2411
▁rest	-2412
`,	-2413
▁primary	-2414
▁early	-2415
▁expected	-2416
▁comprehen	-2417
event	-2418
▁identify	-2419
)]	-2420
hib	-2421
Of	-2422
sl	-2423
▁max	-2424
▁ke	-2425
▁experi	-2426
▁author	-2427
▁obt	-2428
MP	-2429
filename	-2430
▁models	-2431
TH	-2432
width	-2433
▁sust	-2434
▁Sc	-2435
▁quant	-2436
bit	-2437
jor	-2438
▁Py	-2439
▁provide	-2440
FA	-2441
../../	-2442
OD	-2443
omial	-2444
▁sample	-2445
actions	-2446
▁mathem	-2447
▁prote	-2448
▁negative	-2449
options	-2450
▁histor	-2451
▁random	-2452
Ref	-2453
aring	-2454
ee	-2455
abled	-2456
iff	-2457
Mod	-2458
▁year	-2459
▁world	-2460
Status	-2461
omen	-2462
▁sequence	-2463
▁short	-2464
▁discuss	-2465
▁much	-2466
olving	-2467
reate	-2468
▁previous	-2469
Ent	-2470
ayout	-2471
Sub	-2472
module	-2473
▁employ	-2474
▁highlight	-2475
▁sw	-2476
▁Find	-2477
struction	-2478
CON	-2479
ledge	-2480
▁message	-2481
▁cm	-2482
TER	-2483
Pl	-2484
▁challenges	-2485
▁simple	-2486
models	-2487
▁types	-2488
▁problems	-2489
▁condition	-2490
▁full	-2491
bar	-2492
////////	-2493
▁central	-2494
▁activity	-2495
▁gr	-2496
atory	-2497
():	-2498
▁They	-2499
next	-2500
▁java	-2501
select	-2502
SERT	-2503
').	-2504
▁questions	-2505
ges	-2506
▁involves	-2507
$\	-2508
▁certain	-2509
▁series	-2510
lood	-2511
respond	-2512
▁dise	-2513
▁br	-2514
apter	-2515
▁cells	-2516
','	-2517
ards	-2518
▁write	-2519
just	-2520
▁integer	-2521
▁\\	-2522
▁Americ	-2523
▁Math	-2524
▁exact	-2525
istics	-2526
duced	-2527
▁constant	-2528
▁mill	-2529
ah	-2530
Count	-2531
gment	-2532
▁similar	-2533
▁mus	-2534
▁bal	-2535
sin	-2536
▁clear	-2537
▁global	-2538
Trans	-2539
cket	-2540
iles	-2541
▁equations	-2542
down	-2543
▁lines	-2544
ideo	-2545
GL	-2546
▁version	-2547
times	-2548
▁Le	-2549
▁includes	-2550
true	-2551
▁least	-2552
▁linear	-2553
▁parent	-2554
rap	-2555
▁New	-2556
Model	-2557
conn	-2558
,'	-2559
▁mom	-2560
atab	-2561
▁book	-2562
ogle	-2563
▁day	-2564
find	-2565
cy	-2566
▁AN	-2567
wise	-2568
▁provides	-2569
web	-2570
▁several	-2571
▁contains	-2572
▁treatment	-2573
ifier	-2574
ension	-2575
▁variables	-2576
)=	-2577
dr	-2578
my	-2579
iate	-2580
src	-2581
▁copy	-2582
▁effort	-2583
▁action	-2584
▁growth	-2585
▁around	-2586
iversity	-2587
doc	-2588
local	-2589
▁et	-2590
iciency	-2591
▁reduce	-2592
▁arr	-2593
▁ensure	-2594
$,	-2595
emic	-2596
ference	-2597
table	-2598
sole	-2599
▁determine	-2600
itionally	-2601
▁page	-2602
mark	-2603
▁normal	-2604
atives	-2605
stream	-2606
EC	-2607
ground	-2608
▁increasing	-2609
gebra	-2610
▁mut	-2611
▁fraction	-2612
▁maximum	-2613
alf	-2614
▁particip	-2615
▁practice	-2616
▁important	-2617
▁management	-2618
▁loss	-2619
ene	-2620
exp	-2621
▁▁▁▁▁▁▁▁▁▁	-2622
▁head	-2623
▁users	-2624
method	-2625
▁pair	-2626
▁streng	-2627
▁);	-2628
Build	-2629
▁kil	-2630
content	-2631
▁sol	-2632
vis	-2633
attr	-2634
▁cho	-2635
▁rather	-2636
PO	-2637
From	-2638
▁explo	-2639
orem	-2640
▁En	-2641
Client	-2642
▁visual	-2643
▁made	-2644
spec	-2645
filter	-2646
au	-2647
▁→	-2648
▁average	-2649
np	-2650
ensity	-2651
▁emerg	-2652
uda	-2653
Ut	-2654
SH	-2655
At	-2656
body	-2657
ym	-2658
Ser	-2659
do	-2660
aving	-2661
▁bo	-2662
▁general	-2663
▁−	-2664
ender	-2665
title	-2666
▁"$	-2667
▁pressure	-2668
▁option	-2669
ye	-2670
▁▁▁▁▁▁▁▁▁▁▁▁	-2671
▁publ	-2672
▁correspond	-2673
izer	-2674
▁reli	-2675
▁special	-2676
\"	-2677
▁respect	-2678
final	-2679
▁very	-2680
Att	-2681
▁outcomes	-2682
ABLE	-2683
▁materials	-2684
eration	-2685
▁po	-2686
▁units	-2687
▁tim	-2688
▁Pl	-2689
params	-2690
▁approximately	-2691
▁comprehensive	-2692
▁components	-2693
number	-2694
ii	-2695
obj	-2696
Call	-2697
raint	-2698
Be	-2699
pped	-2700
used	-2701
▁algorith	-2702
▁sec	-2703
Read	-2704
▁school	-2705
utes	-2706
ump	-2707
pecially	-2708
arth	-2709
ME	-2710
▁framework	-2711
▁math	-2712
dec	-2713
ceed	-2714
▁Pr	-2715
▁teach	-2716
ories	-2717
olumn	-2718
split	-2719
ancial	-2720
CE	-2721
Table	-2722
▁region	-2723
ULT	-2724
▁don	-2725
Override	-2726
rams	-2727
▁App	-2728
▁...	-2729
sec	-2730
sets	-2731
ted	-2732
▁sens	-2733
▁leading	-2734
she	-2735
▁related	-2736
▁stat	-2737
▁difference	-2738
pping	-2739
▁bus	-2740
▁features	-2741
▁triangle	-2742
▁direction	-2743
False	-2744
aim	-2745
nown	-2746
adata	-2747
mission	-2748
ambda	-2749
env	-2750
Loc	-2751
▁emotional	-2752
▁future	-2753
display	-2754
element	-2755
▁operations	-2756
eturns	-2757
▁convert	-2758
process	-2759
unk	-2760
▁think	-2761
▁``	-2762
▁compos	-2763
▁quality	-2764
Desc	-2765
▁independ	-2766
acity	-2767
▁tools	-2768
Date	-2769
▁flu	-2770
CR	-2771
INSERT	-2772
▁platform	-2773
source	-2774
▁False	-2775
▁recomm	-2776
▁might	-2777
▁land	-2778
▁Eng	-2779
ALUES	-2780
▁lo	-2781
board	-2782
▁comb	-2783
▁supports	-2784
▁altern	-2785
Su	-2786
▁govern	-2787
▁software	-2788
values	-2789
▁engine	-2790
~~	-2791
▁device	-2792
▁temperature	-2793
▁achiev	-2794
though	-2795
▁fail	-2796
All	-2797
So	-2798
▁Des	-2799
▁ver	-2800
▁learn	-2801
ising	-2802
ialize	-2803
HT	-2804
Comp	-2805
host	-2806
▁hold	-2807
hy	-2808
last	-2809
etic	-2810
▁main	-2811
join	-2812
position	-2813
▁NOT	-2814
▁cannot	-2815
▁property	-2816
▁interpret	-2817
▁properties	-2818
▁shift	-2819
▁application	-2820
ones	-2821
▁contra	-2822
▁sat	-2823
▁Test	-2824
▁coordin	-2825
▁broader	-2826
▁evidence	-2827
▁All	-2828
▁digital	-2829
push	-2830
ury	-2831
▁Set	-2832
▁enhance	-2833
▁dimens	-2834
▁ve	-2835
▁already	-2836
▁begin	-2837
)/	-2838
eloc	-2839
long	-2840
▁guid	-2841
▁toward	-2842
▁align	-2843
DB	-2844
where	-2845
parent	-2846
▁collect	-2847
▁groups	-2848
ancing	-2849
▁still	-2850
OL	-2851
▁month	-2852
▁population	-2853
▁construct	-2854
▁ur	-2855
▁areas	-2856
▁major	-2857
▁Data	-2858
EY	-2859
▁INTO	-2860
orted	-2861
▁turn	-2862
System	-2863
req	-2864
plication	-2865
▁pack	-2866
▁ir	-2867
▁os	-2868
onal	-2869
▁close	-2870
VER	-2871
▁market	-2872
side	-2873
root	-2874
▁regard	-2875
▁Ph	-2876
ctor	-2877
ils	-2878
while	-2879
atabase	-2880
▁OR	-2881
abling	-2882
▁std	-2883
▁And	-2884
▁resources	-2885
▁solutions	-2886
▁allows	-2887
▁service	-2888
oud	-2889
▁directly	-2890
","	-2891
▁]	-2892
enced	-2893
OP	-2894
▁combin	-2895
▁always	-2896
ming	-2897
token	-2898
▁consistent	-2899
cs	-2900
char	-2901
▁sl	-2902
matrix	-2903
sing	-2904
EST	-2905
server	-2906
icult	-2907
▁knowledge	-2908
orth	-2909
▁environmental	-2910
option	-2911
pan	-2912
▁additional	-2913
▁influence	-2914
It	-2915
▁integers	-2916
oring	-2917
pose	-2918
▁super	-2919
br	-2920
▁subject	-2921
▁financial	-2922
New	-2923
▁fn	-2924
uit	-2925
Number	-2926
ibr	-2927
idx	-2928
rl	-2929
▁did	-2930
▁cultural	-2931
▁especially	-2932
▁team	-2933
▁unt	-2934
itude	-2935
ements	-2936
▁indu	-2937
Rec	-2938
elif	-2939
▁α	-2940
▁complet	-2941
▁ability	-2942
ured	-2943
").	-2944
▁Calcul	-2945
▁shap	-2946
▁bound	-2947
▁offers	-2948
Prov	-2949
del	-2950
▁separ	-2951
ategory	-2952
atics	-2953
po	-2954
leg	-2955
enu	-2956
▁component	-2957
▁polic	-2958
▁cr	-2959
▁strategies	-2960
atter	-2961
shape	-2962
(-	-2963
▁old	-2964
▁ratio	-2965
oose	-2966
raft	-2967
aling	-2968
▁center	-2969
ging	-2970
▁figure	-2971
▁aw	-2972
▁events	-2973
▁medical	-2974
▁nature	-2975
▁red	-2976
CRE	-2977
▁applications	-2978
▁sides	-2979
step	-2980
▁match	-2981
▁word	-2982
▁VALUES	-2983
▁overall	-2984
que	-2985
▁cover	-2986
pid	-2987
▁operation	-2988
aged	-2989
gener	-2990
buf	-2991
rade	-2992
▁Not	-2993
▁become	-2994
open	-2995
>,	-2996
Base	-2997
level	-2998
HO	-2999
Query	-3000
▁enabling	-3001
ised	-3002
aches	-3003
▁aim	-3004
elocity	-3005
imin	-3006
▁moment	-3007
thers	-3008
▁five	-3009
▁production	-3010
▁United	-3011
▁/*	-3012
ills	-3013
▁interval	-3014
▁shown	-3015
▁rot	-3016
ters	-3017
▁increase	-3018
aking	-3019
▁effects	-3020
▁blood	-3021
lem	-3022
names	-3023
pri	-3024
▁status	-3025
Per	-3026
ieve	-3027
allel	-3028
▁species	-3029
ESS	-3030
▁**	-3031
▁resulting	-3032
impl	-3033
cel	-3034
frame	-3035
)\	-3036
Column	-3037
theta	-3038
▁needs	-3039
▁equival	-3040
package	-3041
sg	-3042
utils	-3043
▁observed	-3044
▁clin	-3045
▁((	-3046
span	-3047
▁At	-3048
▁resource	-3049
▁education	-3050
▁update	-3051
Block	-3052
API	-3053
▁scientific	-3054
pass	-3055
▁distributed	-3056
▁reve	-3057
▁>=	-3058
cast	-3059
▁format	-3060
igger	-3061
▁concern	-3062
▁search	-3063
▁requires	-3064
FI	-3065
ares	-3066
▁profess	-3067
SI	-3068
Inter	-3069
▁disease	-3070
}"	-3071
▁patterns	-3072
▁avoid	-3073
book	-3074
▁continuous	-3075
▁Is	-3076
▁economic	-3077
reed	-3078
Rep	-3079
such	-3080
▁Or	-3081
▁written	-3082
ube	-3083
▁circle	-3084
."	-3085
erate	-3086
rees	-3087
leep	-3088
▁Inst	-3089
▁adapt	-3090
UM	-3091
sych	-3092
tag	-3093
▁Get	-3094
show	-3095
▁expos	-3096
▁float	-3097
▁later	-3098
lick	-3099
ometry	-3100
aries	-3101
▁;	-3102
UP	-3103
▁bool	-3104
efined	-3105
expected	-3106
Select	-3107
fully	-3108
▁Reg	-3109
▁illustr	-3110
'],	-3111
vec	-3112
▁Err	-3113
▁shape	-3114
▁say	-3115
▁developed	-3116
era	-3117
ably	-3118
Update	-3119
▁incor	-3120
▁polit	-3121
aily	-3122
▁age	-3123
▁label	-3124
▁unique	-3125
▁dam	-3126
▁writing	-3127
▁historical	-3128
▁good	-3129
▁With	-3130
And	-3131
▁complete	-3132
▁practices	-3133
▁section	-3134
align	-3135
ched	-3136
▁autom	-3137
Row	-3138
▁Equ	-3139
nov	-3140
ores	-3141
main	-3142
}/	-3143
▁Mat	-3144
arrow	-3145
▁args	-3146
}.	-3147
cular	-3148
Is	-3149
change	-3150
▁ground	-3151
Stream	-3152
▁applied	-3153
▁<=	-3154
Check	-3155
train	-3156
orn	-3157
▁fore	-3158
pc	-3159
▁proper	-3160
msg	-3161
HE	-3162
▁There	-3163
▁effectively	-3164
aff	-3165
PL	-3166
Manager	-3167
mock	-3168
▁returns	-3169
▁internal	-3170
▁appear	-3171
▁history	-3172
like	-3173
▁maintain	-3174
▁Cont	-3175
▁One	-3176
▁ful	-3177
▁core	-3178
ql	-3179
▁List	-3180
=>	-3181
omin	-3182
otype	-3183
▁processes	-3184
▁aud	-3185
▁reference	-3186
try	-3187
▁hyp	-3188
▁days	-3189
▁modern	-3190
▁kg	-3191
etch	-3192
INT	-3193
post	-3194
tage	-3195
encies	-3196
You	-3197
www	-3198
▁Additionally	-3199
mary	-3200
ves	-3201
resents	-3202
++)	-3203
tle	-3204
▁break	-3205
▁against	-3206
▁contrast	-3207
https	-3208
▁experim	-3209
Let	-3210
▁training	-3211
alpha	-3212
wargs	-3213
dep	-3214
aps	-3215
CA	-3216
MS	-3217
equal	-3218
▁difficult	-3219
▁predict	-3220
▁University	-3221
ales	-3222
icial	-3223
Str	-3224
atal	-3225
▁necessary	-3226
▁contribute	-3227
:"	-3228
▁safety	-3229
ui	-3230
acc	-3231
▁patients	-3232
▁sense	-3233
▁findings	-3234
▁ther	-3235
▁practical	-3236
▁studies	-3237
ze	-3238
arily	-3239
▁presence	-3240
aced	-3241
▁py	-3242
▁game	-3243
curity	-3244
▁wid	-3245
ulations	-3246
embers	-3247
remove	-3248
Types	-3249
Act	-3250
tim	-3251
▁cos	-3252
▁Col	-3253
▁vir	-3254
ached	-3255
▁pay	-3256
reen	-3257
No	-3258
▁diag	-3259
▁emb	-3260
▁Let	-3261
ML	-3262
template	-3263
Parameter	-3264
▁frequency	-3265
$(	-3266
▁published	-3267
iple	-3268
anged	-3269
▁others	-3270
▁initi	-3271
▁bit	-3272
IO	-3273
can	-3274
▁apply	-3275
▁micro	-3276
land	-3277
mune	-3278
adr	-3279
aint	-3280
▁hours	-3281
▁considered	-3282
cles	-3283
▁reason	-3284
▁Im	-3285
isms	-3286
height	-3287
▁display	-3288
▁progress	-3289
▁try	-3290
▁miss	-3291
cdot	-3292
▁IS	-3293
▁stream	-3294
orch	-3295
▁detailed	-3296
-\	-3297
Ass	-3298
Ed	-3299
kes	-3300
olved	-3301
rypt	-3302
▁words	-3303
▁review	-3304
Options	-3305
tract	-3306
child	-3307
erse	-3308
▁whole	-3309
▁rule	-3310
▁divided	-3311
itable	-3312
▁memory	-3313
.__	-3314
▁velocity	-3315
Property	-3316
Tem	-3317
Null	-3318
nummer	-3319
ptr	-3320
command	-3321
▁client	-3322
▁increased	-3323
▁fundam	-3324
roid	-3325
eger	-3326
▁resistance	-3327
When	-3328
▁business	-3329
Dis	-3330
▁Ad	-3331
▁π	-3332
▁soci	-3333
▁helps	-3334
iques	-3335
▁Some	-3336
▁tree	-3337
resh	-3338
ulate	-3339
istry	-3340
device	-3341
▁technology	-3342
TP	-3343
ensive	-3344
He	-3345
Color	-3346
▁decl	-3347
▁connection	-3348
▁lack	-3349
▁move	-3350
▁stress	-3351
▁decimal	-3352
▁accel	-3353
sk	-3354
▁mag	-3355
▁ways	-3356
ottom	-3357
▁investig	-3358
▁names	-3359
vention	-3360
irm	-3361
project	-3362
▁divisors	-3363
abilities	-3364
▁course	-3365
ectors	-3366
Page	-3367
Fil	-3368
FAULT	-3369
▁established	-3370
*/	-3371
EL	-3372
▁week	-3373
page	-3374
▁minimum	-3375
▁filter	-3376
▁appropri	-3377
clear	-3378
hood	-3379
▁likely	-3380
oding	-3381
▁situ	-3382
TYPE	-3383
ithub	-3384
]);	-3385
Le	-3386
▁efficiency	-3387
common	-3388
▁http	-3389
▁record	-3390
▁commonly	-3391
Solution	-3392
▁plant	-3393
▁becomes	-3394
graph	-3395
▁Type	-3396
cp	-3397
rays	-3398
ns	-3399
▁acad	-3400
▁track	-3401
▁third	-3402
▁deliver	-3403
▁card	-3404
Const	-3405
Option	-3406
{}	-3407
....	-3408
Pos	-3409
▁algorithm	-3410
ributes	-3411
▁instead	-3412
▁Def	-3413
)}	-3414
)$$	-3415
SON	-3416
▁commit	-3417
printf	-3418
▁family	-3419
+\	-3420
lish	-3421
▁Comp	-3422
▁represents	-3423
▁Ass	-3424
AND	-3425
MM	-3426
▁tool	-3427
▁six	-3428
Button	-3429
▁scale	-3430
false	-3431
▁issues	-3432
▁gas	-3433
inner	-3434
▁CO	-3435
tic	-3436
oriz	-3437
▁activities	-3438
nn	-3439
,\	-3440
ynomial	-3441
▁compared	-3442
▁settings	-3443
ront	-3444
▁offering	-3445
▁until	-3446
▁stra	-3447
super	-3448
▁forms	-3449
TE	-3450
raise	-3451
ln	-3452
▁valu	-3453
▁better	-3454
img	-3455
fs	-3456
console	-3457
▁itself	-3458
▁integration	-3459
yond	-3460
▁host	-3461
▁depend	-3462
ds	-3463
▁beyond	-3464
▁boolean	-3465
cer	-3466
elling	-3467
Acc	-3468
▁entire	-3469
▁reduced	-3470
▁feature	-3471
iddle	-3472
▁student	-3473
logger	-3474
lice	-3475
overy	-3476
}}\	-3477
vari	-3478
▁article	-3479
tual	-3480
▁best	-3481
Fact	-3482
apache	-3483
▁unders	-3484
essages	-3485
▁OF	-3486
contin	-3487
description	-3488
cf	-3489
Start	-3490
izations	-3491
)^	-3492
▁sympt	-3493
rupt	-3494
▁fractions	-3495
▁American	-3496
▁regular	-3497
Det	-3498
▁bar	-3499
▁origin	-3500
types	-3501
Method	-3502
▁proced	-3503
▁round	-3504
▁active	-3505
▁done	-3506
ina	-3507
ulti	-3508
▁reducing	-3509
mm	-3510
▁extends	-3511
▁States	-3512
▁identity	-3513
Head	-3514
strict	-3515
▁exhib	-3516
stri	-3517
hesis	-3518
Builder	-3519
▁Acc	-3520
ercise	-3521
ux	-3522
ortun	-3523
▁fost	-3524
delete	-3525
▁half	-3526
ATION	-3527
▁Then	-3528
▁psych	-3529
▁community	-3530
▁limited	-3531
▁encou	-3532
▁No	-3533
▁sustain	-3534
<<	-3535
▁double	-3536
▁environments	-3537
det	-3538
▁institut	-3539
bon	-3540
▁legal	-3541
Length	-3542
conf	-3543
▁yet	-3544
▁allowing	-3545
▁political	-3546
▁Class	-3547
. 	-3548
alk	-3549
▁definition	-3550
▁rect	-3551
dated	-3552
▁clos	-3553
▁$(	-3554
▁Su	-3555
▁once	-3556
▁liter	-3557
'.	-3558
px	-3559
▁affect	-3560
iveness	-3561
estamp	-3562
Now	-3563
store	-3564
Resource	-3565
props	-3566
▁adjust	-3567
first	-3568
pol	-3569
▁daily	-3570
ialog	-3571
SS	-3572
▁gl	-3573
ERR	-3574
▁chem	-3575
gram	-3576
oph	-3577
▁via	-3578
)))	-3579
▁innov	-3580
{"	-3581
force	-3582
▁\$	-3583
▁feed	-3584
        ``	-3585
▁width	-3586
scope	-3587
Py	-3588
▁Te	-3589
match	-3590
▁Function	-3591
▁nut	-3592
known	-3593
▁som	-3594
service	-3595
▁collabor	-3596
▁professional	-3597
▁arch	-3598
▁vi	-3599
icon	-3600
location	-3601
▁advanced	-3602
▁ball	-3603
▁addition	-3604
 `	-3605
▁communication	-3606
▁regions	-3607
rawLoad	-3608
Example	-3609
▁dest	-3610
Ad	-3611
iform	-3612
▁mor	-3613
▁online	-3614
▁harm	-3615
except	-3616
▁channel	-3617
olicy	-3618
CM	-3619
oh	-3620
▁command	-3621
going	-3622
fficient	-3623
▁traditional	-3624
IB	-3625
End	-3626
What	-3627
inst	-3628
task	-3629
▁inform	-3630
section	-3631
▁steps	-3632
plan	-3633
▁axis	-3634
▁ensuring	-3635
▁academic	-3636
▁['	-3637
▁equivalent	-3638
roller	-3639
▁clinical	-3640
stack	-3641
▁lit	-3642
▁objects	-3643
uid	-3644
ocol	-3645
Image	-3646
_,	-3647
ias	-3648
}_{	-3649
▁tw	-3650
▁clean	-3651
▁angles	-3652
range	-3653
!(	-3654
$$\	-3655
older	-3656
pers	-3657
▁involving	-3658
▁specified	-3659
unit	-3660
▁toget	-3661
▁mode	-3662
PR	-3663
await	-3664
google	-3665
throw	-3666
▁serve	-3667
isf	-3668
Content	-3669
▁past	-3670
▁together	-3671
Part	-3672
DA	-3673
▁narr	-3674
mathbf	-3675
▁needed	-3676
▁execut	-3677
stars	-3678
iting	-3679
▁ut	-3680
▁util	-3681
▁maintaining	-3682
achine	-3683
▁techniques	-3684
cell	-3685
ops	-3686
▁substant	-3687
mand	-3688
▁motion	-3689
▁efficient	-3690
▁Up	-3691
▁cross	-3692
property	-3693
▁repe	-3694
edic	-3695
uses	-3696
atical	-3697
▁details	-3698
DO	-3699
enses	-3700
▁minutes	-3701
▁relev	-3702
dfrac	-3703
signed	-3704
ites	-3705
gr	-3706
▁products	-3707
ORT	-3708
fill	-3709
▁shared	-3710
files	-3711
▁digits	-3712
ishing	-3713
▁sources	-3714
scale	-3715
▁query	-3716
}}{	-3717
blem	-3718
Met	-3719
pty	-3720
Line	-3721
▁heat	-3722
ai	-3723
urren	-3724
▁frequently	-3725
▁phase	-3726
▁Sub	-3727
▁Object	-3728
repon	-3729
▁oppos	-3730
rics	-3731
ifies	-3732
DIR	-3733
avig	-3734
▁paper	-3735
▁expand	-3736
▁hard	-3737
reponame	-3738
Run	-3739
▁states	-3740
▁ann	-3741
▁location	-3742
lines	-3743
ili	-3744
opyright	-3745
NA	-3746
github	-3747
Default	-3748
Action	-3749
lication	-3750
▁coeff	-3751
▁voltage	-3752
insert	-3753
CC	-3754
ership	-3755
earch	-3756
channel	-3757
▁few	-3758
▁serves	-3759
▁deriv	-3760
▁parallel	-3761
iring	-3762
▁diverse	-3763
▁generate	-3764
▁home	-3765
▁jour	-3766
▁accept	-3767
▁Stud	-3768
▁Since	-3769
▁benefits	-3770
▁But	-3771
▁inc	-3772
▁Fact	-3773
axis	-3774
▁simpl	-3775
pred	-3776
▁appropriate	-3777
▁uses	-3778
should	-3779
=(	-3780
▁US	-3781
▁enables	-3782
Create	-3783
▁optim	-3784
dim	-3785
▁layer	-3786
phere	-3787
debug	-3788
▁sent	-3789
hent	-3790
▁install	-3791
▁included	-3792
ilt	-3793
▁eth	-3794
[:	-3795
riter	-3796
▁parameters	-3797
▁Per	-3798
▁degrees	-3799
anging	-3800
▁improve	-3801
QL	-3802
▁examples	-3803
ribe	-3804
▁CON	-3805
pring	-3806
offset	-3807
Handler	-3808
▁compet	-3809
▁why	-3810
▁odd	-3811
▁actual	-3812
▁contact	-3813
send	-3814
▁reach	-3815
How	-3816
non	-3817
▁described	-3818
iance	-3819
▁cut	-3820
▁Example	-3821
▁domain	-3822
▁promot	-3823
▁Value	-3824
inite	-3825
▁meet	-3826
▁Trans	-3827
▁fields	-3828
cert	-3829
handle	-3830
column	-3831
ls	-3832
(_	-3833
ATA	-3834
▁issue	-3835
▁expect	-3836
▁fall	-3837
enge	-3838
typ	-3839
▁Use	-3840
Question	-3841
bool	-3842
▁importance	-3843
ponents	-3844
▁services	-3845
▁works	-3846
▁connect	-3847
related	-3848
▁dynamic	-3849
IV	-3850
Point	-3851
▁Number	-3852
Token	-3853
▁rights	-3854
IST	-3855
▁denomin	-3856
▁sets	-3857
▁engagement	-3858
▁created	-3859
sig	-3860
▁theory	-3861
("./	-3862
Instance	-3863
▁symbol	-3864
▁existing	-3865
ios	-3866
▁widely	-3867
total	-3868
ney	-3869
Dev	-3870
▁decision	-3871
▁files	-3872
▁movement	-3873
Frame	-3874
▁multiply	-3875
Function	-3876
▁Fl	-3877
▁capt	-3878
▁pi	-3879
▁‘	-3880
▁conducted	-3881
▁follows	-3882
clusion	-3883
▁conver	-3884
SET	-3885
mem	-3886
orizon	-3887
▁Inter	-3888
ips	-3889
ernel	-3890
▁experiences	-3891
lambda	-3892
▁thread	-3893
outh	-3894
rep	-3895
▁claim	-3896
Version	-3897
patch	-3898
▁keep	-3899
▁items	-3900
erved	-3901
▁incorpor	-3902
ifically	-3903
▁insights	-3904
bot	-3905
▁estim	-3906
more	-3907
▁op	-3908
kg	-3909
▁capacity	-3910
Gener	-3911
▁larger	-3912
dro	-3913
▁circuit	-3914
PER	-3915
▁thereby	-3916
Work	-3917
▁obtain	-3918
▁date	-3919
ingu	-3920
proto	-3921
▁monitor	-3922
▁handle	-3923
abs	-3924
▁▁▁▁▁▁▁▁▁▁▁▁▁▁	-3925
aws	-3926
▁System	-3927
INE	-3928
▁price	-3929
oder	-3930
▁box	-3931
▁exists	-3932
▁immed	-3933
▁poly	-3934
▁rout	-3935
▁gives	-3936
idden	-3937
```	-3938
▁See	-3939
ething	-3940
▁binary	-3941
NO	-3942
inline	-3943
imals	-3944
rical	-3945
aves	-3946
▁cause	-3947
igen	-3948
header	-3949
ASK	-3950
ks	-3951
anch	-3952
tmp	-3953
▁Part	-3954
▁skin	-3955
▁independent	-3956
▁corresponding	-3957
Link	-3958
atively	-3959
avor	-3960
hema	-3961
author	-3962
alt	-3963
cuda	-3964
▁shows	-3965
>(	-3966
▁science	-3967
One	-3968
eli	-3969
ening	-3970
▁signal	-3971
UE	-3972
eros	-3973
zero	-3974
▁strategy	-3975
▁la	-3976
itory	-3977
▁Returns	-3978
iples	-3979
omy	-3980
ective	-3981
lies	-3982
argument	-3983
ulated	-3984
▁far	-3985
▁proport	-3986
ometric	-3987
''	-3988
urope	-3989
ronic	-3990
hash	-3991
▁mole	-3992
etime	-3993
▁supported	-3994
▁site	-3995
▁symptoms	-3996
amma	-3997
▁kilog	-3998
▁Each	-3999
▁contain	-4000
entry	-4001
Write	-4002
register	-4003
▁fundamental	-4004
keys	-4005
Url	-4006
▁AS	-4007
▁ear	-4008
▁near	-4009
mask	-4010
▁women	-4011
▁Man	-4012
ae	-4013
▁compar	-4014
free	-4015
ARN	-4016
▁diet	-4017
assertEqual	-4018
batch	-4019
▁expert	-4020
dist	-4021
cache	-4022
▁feet	-4023
▁underlying	-4024
kwargs	-4025
ecute	-4026
▁After	-4027
▁testing	-4028
▁damage	-4029
pat	-4030
olute	-4031
eline	-4032
astic	-4033
▁collection	-4034
▁whose	-4035
▁straight	-4036
Component	-4037
▁parts	-4038
Dec	-4039
▁persist	-4040
▁going	-4041
▁hom	-4042
ifying	-4043
▁admin	-4044
▁server	-4045
RAN	-4046
Address	-4047
▁alternative	-4048
yl	-4049
items	-4050
▁sin	-4051
buffer	-4052
▁concent	-4053
EXT	-4054
▁mis	-4055
ayers	-4056
empty	-4057
]]	-4058
▁Gener	-4059
▁interface	-4060
▁Despite	-4061
▁Form	-4062
icles	-4063
product	-4064
▁conversion	-4065
grid	-4066
▁advance	-4067
▁{\	-4068
▁window	-4069
ulum	-4070
▁makes	-4071
$$.	-4072
Mode	-4073
Hel	-4074
▁diagn	-4075
replace	-4076
▁rapid	-4077
Case	-4078
▁API	-4079
parser	-4080
▁efforts	-4081
▁hypot	-4082
tical	-4083
▁quick	-4084
▁!==	-4085
/**	-4086
}^	-4087
▁yield	-4088
Us	-4089
▁give	-4090
Exp	-4091
care	-4092
Arg	-4093
▁involved	-4094
Source	-4095
ologies	-4096
▁plane	-4097
plot	-4098
eed	-4099
▁Option	-4100
▁style	-4101
▁module	-4102
CK	-4103
▁Sim	-4104
LA	-4105
▁highly	-4106
MO	-4107
▁added	-4108
render	-4109
▁Therefore	-4110
ufact	-4111
Oper	-4112
````	-4113
exports	-4114
amed	-4115
edia	-4116
▁rates	-4117
▁mental	-4118
}(	-4119
mode	-4120
▁national	-4121
Mat	-4122
ged	-4123
▁entry	-4124
.)	-4125
▁Cent	-4126
▁linked	-4127
▁idea	-4128
▁led	-4129
▁fully	-4130
lier	-4131
▁video	-4132
▁smaller	-4133
auth	-4134
Tra	-4135
vm	-4136
edd	-4137
arser	-4138
▁travel	-4139
▁<-	-4140
▁Europe	-4141
▁ID	-4142
refix	-4143
▁Can	-4144
▁media	-4145
Buffer	-4146
▁compl	-4147
▁recommended	-4148
▁– 	-4149
dat	-4150
sign	-4151
aled	-4152
▁algebra	-4153
eral	-4154
▁quadr	-4155
▁intern	-4156
Del	-4157
td	-4158
document	-4159
▁Dis	-4160
▁satisf	-4161
▁store	-4162
▁increases	-4163
PF	-4164
session	-4165
porary	-4166
▁perspect	-4167
bt	-4168
apy	-4169
▁inj	-4170
lope	-4171
▁remov	-4172
▁opportun	-4173
beta	-4174
ORD	-4175
Server	-4176
URL	-4177
close	-4178
Listener	-4179
BU	-4180
▁radius	-4181
▁enter	-4182
▁inher	-4183
▁external	-4184
KEY	-4185
acing	-4186
dx	-4187
Init	-4188
Fl	-4189
sor	-4190
▁strength	-4191
▁educational	-4192
address	-4193
"))	-4194
osis	-4195
▁prefer	-4196
▁empty	-4197
using	-4198
loss	-4199
▁produce	-4200
rea	-4201
resource	-4202
double	-4203
itute	-4204
uple	-4205
points	-4206
▁digit	-4207
Sche	-4208
▁catch	-4209
window	-4210
stract	-4211
▁brain	-4212
sys	-4213
▁devices	-4214
bind	-4215
aneous	-4216
romise	-4217
▁synt	-4218
rapper	-4219
copy	-4220
▁generally	-4221
Width	-4222
▁Earth	-4223
eb	-4224
▁face	-4225
▁attention	-4226
Task	-4227
()=>	-4228
prov	-4229
▁polynomial	-4230
▁principles	-4231
▁bre	-4232
▁configuration	-4233
▁Research	-4234
cat	-4235
aly	-4236
see	-4237
▁risks	-4238
▁Div	-4239
▁creating	-4240
Var	-4241
Params	-4242
python	-4243
ison	-4244
▁policy	-4245
▁electric	-4246
▁members	-4247
prototype	-4248
arity	-4249
▁spir	-4250
orizontal	-4251
▁argument	-4252
▁relative	-4253
▁fixed	-4254
▁forces	-4255
▁Sum	-4256
isions	-4257
▁exactly	-4258
▁qual	-4259
▁May	-4260
.$	-4261
▁Dec	-4262
▁cru	-4263
▁define	-4264
CD	-4265
▁Error	-4266
▁sizeof	-4267
ega	-4268
bytes	-4269
▁tax	-4270
▁basic	-4271
▁https	-4272
atically	-4273
▁broad	-4274
OS	-4275
▁depth	-4276
▁encourag	-4277
▁exposure	-4278
▁{@	-4279
vey	-4280
▁AB	-4281
save	-4282
▁undefined	-4283
`.	-4284
▁security	-4285
▁rein	-4286
ilarly	-4287
▁inches	-4288
▁actions	-4289
("./../../	-4290
usion	-4291
▁measures	-4292
▁resid	-4293
aid	-4294
▁supporting	-4295
▁Ge	-4296
oney	-4297
inder	-4298
▁parse	-4299
▁too	-4300
ATH	-4301
pread	-4302
MASK	-4303
▁"${	-4304
▁put	-4305
apply	-4306
byte	-4307
%%	-4308
▁company	-4309
Label	-4310
▁decre	-4311
Cluster	-4312
▁Now	-4313
▁phot	-4314
▁according	-4315
▁veh	-4316
▁reading	-4317
▁balance	-4318
▁remove	-4319
▁except	-4320
Max	-4321
▁mer	-4322
There	-4323
▁elev	-4324
anks	-4325
loor	-4326
lation	-4327
angles	-4328
▁him	-4329
annot	-4330
bal	-4331
▁render	-4332
Spec	-4333
▁tiss	-4334
▁fig	-4335
▁ongoing	-4336
aste	-4337
▁achieve	-4338
▁simply	-4339
oice	-4340
▁mathematical	-4341
wrap	-4342
normal	-4343
Filter	-4344
{{	-4345
Ph	-4346
cmd	-4347
▁selected	-4348
▁jo	-4349
▁divide	-4350
▁meaningful	-4351
▁representation	-4352
structure	-4353
oration	-4354
ACK	-4355
oll	-4356
gn	-4357
ASS	-4358
Box	-4359
IFT	-4360
▁reflects	-4361
▁working	-4362
fix	-4363
▁useful	-4364
▁edge	-4365
▁pain	-4366
▁Do	-4367
lin	-4368
imple	-4369
Off	-4370
▁parameter	-4371
▁patient	-4372
▁skills	-4373
▁growing	-4374
ung	-4375
▁division	-4376
▁vers	-4377
itation	-4378
RA	-4379
▁young	-4380
▁derived	-4381
▁(-	-4382
▁Work	-4383
CODE	-4384
▁substantial	-4385
ife	-4386
(*	-4387
ci	-4388
icip	-4389
▁aware	-4390
▁web	-4391
></	-4392
▁degree	-4393
arsh	-4394
na	-4395
▁valuable	-4396
▁cancer	-4397
fort	-4398
▁manufact	-4399
▁indicates	-4400
▁something	-4401
NULL	-4402
room	-4403
▁structures	-4404
ZE	-4405
▁Date	-4406
▁mind	-4407
▁curve	-4408
▁offset	-4409
▁heart	-4410
▁Further	-4411
Ob	-4412
▁pounds	-4413
▁AC	-4414
alloc	-4415
▁reported	-4416
▁identified	-4417
pu	-4418
quare	-4419
angular	-4420
▁happ	-4421
▁accurate	-4422
▁json	-4423
plicit	-4424
▁('	-4425
▁processing	-4426
▁significance	-4427
LOG	-4428
allow	-4429
AGE	-4430
▁seen	-4431
Layout	-4432
only	-4433
▁thought	-4434
RES	-4435
▁implementation	-4436
lt	-4437
▁government	-4438
Child	-4439
UB	-4440
Pre	-4441
▁Ser	-4442
anel	-4443
Each	-4444
▁advant	-4445
▁cred	-4446
▁Bu	-4447
cial	-4448
▁Question	-4449
VAL	-4450
▁density	-4451
placement	-4452
▁seconds	-4453
▁throws	-4454
endif	-4455
)),	-4456
▁km	-4457
supp	-4458
▁Rec	-4459
hspace	-4460
};	-4461
▁ten	-4462
▁propos	-4463
▁errors	-4464
▁assign	-4465
weight	-4466
▁Me	-4467
▁II	-4468
▁having	-4469
USER	-4470
▁produc	-4471
hest	-4472
make	-4473
cm	-4474
▁Am	-4475
▁demand	-4476
▁transfer	-4477
▁strategic	-4478
reshold	-4479
neg	-4480
▁State	-4481
▁transformation	-4482
des	-4483
▁accom	-4484
CF	-4485
▁feel	-4486
▁auth	-4487
button	-4488
GET	-4489
fty	-4490
amin	-4491
async	-4492
▁rules	-4493
▁sort	-4494
▁presents	-4495
▁theorem	-4496
sect	-4497
▁indicating	-4498
▁Python	-4499
▁approaches	-4500
▁Key	-4501
eper	-4502
exit	-4503
▁tests	-4504
icular	-4505
swers	-4506
Num	-4507
gress	-4508
random	-4509
▁English	-4510
?:	-4511
asic	-4512
▁ult	-4513
▁multiplication	-4514
▁TABLE	-4515
▁note	-4516
semb	-4517
▁grid	-4518
▁recent	-4519
▁ask	-4520
▁Solution	-4521
dig	-4522
▁share	-4523
Container	-4524
idespread	-4525
▁attempt	-4526
▁vital	-4527
▁First	-4528
▁dimensions	-4529
▁recognized	-4530
▁vary	-4531
Module	-4532
▁segment	-4533
▁sleep	-4534
idget	-4535
SHIFT	-4536
netic	-4537
infty	-4538
▁tag	-4539
▁counter	-4540
▁^	-4541
▁uint	-4542
PS	-4543
▁widespread	-4544
▁•	-4545
▁smo	-4546
click	-4547
zz	-4548
Iter	-4549
▁statement	-4550
▁meters	-4551
mos	-4552
Change	-4553
PROC	-4554
rs	-4555
▁optimal	-4556
▁generated	-4557
rete	-4558
undred	-4559
rist	-4560
▁relevant	-4561
temp	-4562
▁climate	-4563
▁providing	-4564
▁DEFAULT	-4565
▁webs	-4566
▁Rep	-4567
▁job	-4568
▁calculated	-4569
Dir	-4570
▁sure	-4571
▁upon	-4572
ports	-4573
'))	-4574
metic	-4575
▁facilit	-4576
▁nu	-4577
irc	-4578
▁foundational	-4579
▁standards	-4580
▁Over	-4581
raints	-4582
▁functional	-4583
▁That	-4584
Device	-4585
▁assert	-4586
▁throughout	-4587
▁operational	-4588
▁relationships	-4589
▁loop	-4590
▁session	-4591
Command	-4592
▁structural	-4593
▁occurs	-4594
Min	-4595
inv	-4596
▁located	-4597
▁className	-4598
OF	-4599
▁enhances	-4600
▁obj	-4601
script	-4602
▁analyz	-4603
adding	-4604
▁improved	-4605
▁lies	-4606
▁She	-4607
▁Copyright	-4608
▁enhancing	-4609
▁international	-4610
▁fit	-4611
xml	-4612
▁challenge	-4613
▁~	-4614
itual	-4615
▁tail	-4616
ians	-4617
require	-4618
och	-4619
]:	-4620
SION	-4621
rule	-4622
▁magn	-4623
java	-4624
▁relig	-4625
uel	-4626
▁foot	-4627
▁connected	-4628
▁Act	-4629
Entry	-4630
▁stem	-4631
Valid	-4632
▁Although	-4633
▁doesn	-4634
raction	-4635
▁mob	-4636
vector	-4637
$$,	-4638
DR	-4639
▁wide	-4640
▁prompt	-4641
ros	-4642
continue	-4643
CP	-4644
yles	-4645
▁choose	-4646
lections	-4647
▁flex	-4648
▁Sch	-4649
////////////////	-4650
tree	-4651
▁limitations	-4652
▁months	-4653
txt	-4654
▁storage	-4655
)+	-4656
that	-4657
▁plot	-4658
▁million	-4659
▁norm	-4660
><	-4661
nap	-4662
incia	-4663
}=	-4664
missions	-4665
▁'/	-4666
▁subsequ	-4667
▁rev	-4668
entity	-4669
ple	-4670
▁Their	-4671
partial	-4672
▁crucial	-4673
▁organizations	-4674
▁labor	-4675
istory	-4676
▁callback	-4677
▁expressed	-4678
▁moving	-4679
▁await	-4680
DF	-4681
▁containing	-4682
TM	-4683
▁starting	-4684
Pack	-4685
▁ste	-4686
▁great	-4687
▁params	-4688
▁'',	-4689
▁mar	-4690
global	-4691
▁longer	-4692
ban	-4693
mathbb	-4694
▁mechanisms	-4695
▁costs	-4696
▁sex	-4697
▁guide	-4698
________,	-4699
▁effectiveness	-4700
kit	-4701
▁calculator	-4702
=$	-4703
▁Update	-4704
Right	-4705
▁—	-4706
Equals	-4707
react	-4708
asure	-4709
▁Af	-4710
Tag	-4711
bor	-4712
▁grad	-4713
▁communities	-4714
DATE	-4715
▁###	-4716
Utils	-4717
▁taken	-4718
second	-4719
▁concerns	-4720
DATA	-4721
foo	-4722
▁Be	-4723
▁scen	-4724
Current	-4725
sv	-4726
hex	-4727
world	-4728
▁differences	-4729
▁Ed	-4730
▁spect	-4731
▁seem	-4732
▁var	-4733
▁Array	-4734
^{-	-4735
Rem	-4736
▁database	-4737
dt	-4738
Api	-4739
▁aspect	-4740
ART	-4741
icate	-4742
Cache	-4743
▁torch	-4744
▁adult	-4745
Factory	-4746
▁healthcare	-4747
afe	-4748
center	-4749
Args	-4750
fect	-4751
ief	-4752
▁easy	-4753
▁death	-4754
▁url	-4755
Co	-4756
results	-4757
ultip	-4758
year	-4759
mu	-4760
▁symb	-4761
riptor	-4762
imeter	-4763
▁async	-4764
▁phen	-4765
dimens	-4766
'])	-4767
▁primarily	-4768
▁takes	-4769
▁upper	-4770
▁evaluation	-4771
pare	-4772
Height	-4773
▁proof	-4774
cons	-4775
▁narrative	-4776
inding	-4777
CS	-4778
rief	-4779
expr	-4780
▁iter	-4781
▁syn	-4782
pg	-4783
thread	-4784
xi	-4785
▁images	-4786
▁carbon	-4787
▁fluid	-4788
▁prop	-4789
ida	-4790
mk	-4791
▁nodes	-4792
▁continue	-4793
metric	-4794
erve	-4795
RL	-4796
CREATE	-4797
▁doc	-4798
▁chemical	-4799
PORT	-4800
▁Dr	-4801
Top	-4802
▁Line	-4803
▁got	-4804
ographic	-4805
▁{'	-4806
▁Log	-4807
▁Go	-4808
#!	-4809
mpty	-4810
mitted	-4811
▁conflic	-4812
ened	-4813
sort	-4814
EM	-4815
ampl	-4816
▁kind	-4817
▁ANY	-4818
istration	-4819
▁demonstrated	-4820
▁choice	-4821
pop	-4822
▁depends	-4823
ha	-4824
▁programs	-4825
▁',	-4826
▁detect	-4827
▁elimin	-4828
move	-4829
coming	-4830
thing	-4831
faces	-4832
oman	-4833
displaystyle	-4834
▁marked	-4835
▁contributing	-4836
itect	-4837
▁Mathem	-4838
ithmetic	-4839
▁evolution	-4840
Tensor	-4841
▁mid	-4842
lat	-4843
ERROR	-4844
encing	-4845
▁white	-4846
▁compute	-4847
system	-4848
▁surv	-4849
▁Pol	-4850
▁introduced	-4851
Channel	-4852
▁formal	-4853
kin	-4854
▁potentially	-4855
Host	-4856
▁trend	-4857
▁men	-4858
Aut	-4859
▁equals	-4860
▁cogn	-4861
acters	-4862
▁hundred	-4863
▁compliance	-4864
}_	-4865
▁ensures	-4866
rot	-4867
plug	-4868
▁His	-4869
structor	-4870
▁suitable	-4871
▁adopt	-4872
▁cycle	-4873
▁assessment	-4874
▁["	-4875
real	-4876
▁vertical	-4877
▁denominator	-4878
APP	-4879
▁slow	-4880
▁finding	-4881
▁indicate	-4882
▁arguments	-4883
▁strict	-4884
▁accessible	-4885
▁forward	-4886
▁appears	-4887
▁able	-4888
callback	-4889
onic	-4890
▁Bl	-4891
uck	-4892
▁notation	-4893
BA	-4894
▁vectors	-4895
▁inverse	-4896
uler	-4897
sql	-4898
dest	-4899
▁combined	-4900
▁stri	-4901
▁screen	-4902
▁complexity	-4903
▁title	-4904
iet	-4905
▁strengthen	-4906
fin	-4907
urable	-4908
being	-4909
phi	-4910
Names	-4911
MAX	-4912
▁>>	-4913
▁severe	-4914
▁setting	-4915
▁sym	-4916
▁ign	-4917
▁tang	-4918
Entity	-4919
ibrary	-4920
Print	-4921
▁compound	-4922
▁principle	-4923
▁received	-4924
▁&=	-4925
▁technical	-4926
LEARN	-4927
network	-4928
▁manage	-4929
▁acid	-4930
▁accuracy	-4931
▁presented	-4932
Back	-4933
▁rational	-4934
urs	-4935
▁tasks	-4936
ario	-4937
draw	-4938
▁src	-4939
▁building	-4940
▁goal	-4941
▁exception	-4942
▁Figure	-4943
▁measurement	-4944
▁leads	-4945
access	-4946
lug	-4947
unch	-4948
▁Thus	-4949
▁hab	-4950
domain	-4951
xx	-4952
}+	-4953
▁identifying	-4954
▁referred	-4955
FILE	-4956
pay	-4957
▁cub	-4958
andid	-4959
▁integral	-4960
istor	-4961
▁green	-4962
ITY	-4963
quad	-4964
▁Check	-4965
ORM	-4966
ivation	-4967
}`	-4968
▁thous	-4969
hedu	-4970
▁National	-4971
▁imag	-4972
settings	-4973
hat	-4974
NS	-4975
Since	-4976
▁Co	-4977
▁exceed	-4978
ado	-4979
sheet	-4980
component	-4981
aa	-4982
▁computer	-4983
▁plays	-4984
▁token	-4985
▁sil	-4986
▁previously	-4987
▁protein	-4988
▁suggests	-4989
▁refers	-4990
▁coordinates	-4991
▁grav	-4992
▁structured	-4993
grad	-4994
▁diam	-4995
artment	-4996
Attribute	-4997
iece	-4998
▁Total	-4999
▁represented	-5000
arp	-5001
oles	-5002
▁evaluate	-5003
ventional	-5004
uff	-5005
▁charge	-5006
▁anc	-5007
protected	-5008
stry	-5009
▁slope	-5010
▁calculation	-5011
IND	-5012
▁combination	-5013
▁infra	-5014
▁expans	-5015
Float	-5016
Next	-5017
admin	-5018
▁Create	-5019
▁sound	-5020
bound	-5021
``    ``	-5022
▁actually	-5023
▁ones	-5024
▁Given	-5025
*}	-5026
▁developing	-5027
argin	-5028
▁followed	-5029
Idx	-5030
▁medic	-5031
▁matter	-5032
Ext	-5033
▁confidence	-5034
▁sun	-5035
ancy	-5036
elihood	-5037
▁cop	-5038
▁Here	-5039
SIZE	-5040
drop	-5041
roy	-5042
vironment	-5043
▁Exception	-5044
SP	-5045
▁currently	-5046
prop	-5047
▁precise	-5048
▁"/	-5049
rong	-5050
▁fat	-5051
▁From	-5052
▁respond	-5053
▁hour	-5054
ceived	-5055
▁gain	-5056
)*	-5057
▁failure	-5058
auto	-5059
▁isol	-5060
Header	-5061
▁stage	-5062
role	-5063
▁'<	-5064
hetic	-5065
▁lib	-5066
▁mem	-5067
▁consequ	-5068
cknow	-5069
most	-5070
▁Using	-5071
ber	-5072
umbers	-5073
Vari	-5074
▁dru	-5075
▁schol	-5076
▁regarding	-5077
Des	-5078
▁opposite	-5079
connect	-5080
operator	-5081
▁func	-5082
▁sem	-5083
Style	-5084
▁otherwise	-5085
▁Ap	-5086
First	-5087
example	-5088
▁concepts	-5089
Delete	-5090
▁navig	-5091
icens	-5092
▁explore	-5093
▁implemented	-5094
▁Note	-5095
▁safe	-5096
▁description	-5097
ony	-5098
une	-5099
▁ep	-5100
~~~~	-5101
container	-5102
▁vertex	-5103
▁Med	-5104
Tim	-5105
▁sufficient	-5106
▁deeper	-5107
▁purpose	-5108
▁researchers	-5109
▁behind	-5110
(`	-5111
▁fire	-5112
riend	-5113
▁organization	-5114
▁participants	-5115
▁figures	-5116
▁inner	-5117
▁transport	-5118
ivery	-5119
Handle	-5120
ades	-5121
▁email	-5122
▁earlier	-5123
)?	-5124
▁trigger	-5125
▁intended	-5126
eft	-5127
▁despite	-5128
▁rig	-5129
into	-5130
Vis	-5131
▁capable	-5132
▁script	-5133
ried	-5134
asc	-5135
▁According	-5136
CI	-5137
▁dynamics	-5138
▁black	-5139
▁guidance	-5140
▁remaining	-5141
Access	-5142
▁roots	-5143
▁pairs	-5144
▁ec	-5145
▁wall	-5146
olver	-5147
Find	-5148
assertEquals	-5149
Session	-5150
▁gradu	-5151
ography	-5152
▁##	-5153
▁excess	-5154
amera	-5155
▁come	-5156
bf	-5157
EMA	-5158
)).	-5159
Process	-5160
PFN	-5161
▁consumption	-5162
▁Its	-5163
▁mix	-5164
layer	-5165
▁machine	-5166
▁produced	-5167
Sum	-5168
font	-5169
ppgl	-5170
▁THE	-5171
unt	-5172
mean	-5173
▁century	-5174
▁percentage	-5175
▁Prop	-5176
rest	-5177
▁threat	-5178
▁surround	-5179
Supp	-5180
Callback	-5181
Search	-5182
▁engage	-5183
inant	-5184
▁milit	-5185
▁monitoring	-5186
▁resil	-5187
Target	-5188
▁`    ``	-5189
norm	-5190
▁++	-5191
▁viol	-5192
▁prepar	-5193
UI	-5194
alled	-5195
▁reliable	-5196
late	-5197
EE	-5198
XXXX	-5199
Control	-5200
gu	-5201
Store	-5202
ellig	-5203
ango	-5204
▁acceleration	-5205
▁interactions	-5206
▁Det	-5207
▁responses	-5208
▁adding	-5209
enn	-5210
▁register	-5211
▁responsible	-5212
done	-5213
email	-5214
▁spread	-5215
ba	-5216
▁/>	-5217
"],	-5218
▁dat	-5219
big	-5220
PATH	-5221
▁house	-5222
▁Furthermore	-5223
Empty	-5224
boolean	-5225
oom	-5226
▁'./	-5227
▁mo	-5228
),(	-5229
iment	-5230
▁instr	-5231
▁que	-5232
planation	-5233
▁characters	-5234
amm	-5235
▁""	-5236
▁neuro	-5237
hs	-5238
otes	-5239
▁emphasizes	-5240
Body	-5241
▁therm	-5242
▁regul	-5243
▁creation	-5244
addr	-5245
▁Par	-5246
▁little	-5247
gments	-5248
▁horizontal	-5249
▁shif	-5250
ENSE	-5251
▁awareness	-5252
Net	-5253
ugg	-5254
▁city	-5255
▁construction	-5256
rown	-5257
thern	-5258
▁supply	-5259
▁λ	-5260
▁investment	-5261
Hash	-5262
▁extensive	-5263
▁dedic	-5264
▁never	-5265
▁cognitive	-5266
PFNGL	-5267
peed	-5268
▁genetic	-5269
END	-5270
▁Result	-5271
erence	-5272
custom	-5273
▁restrict	-5274
▁Afric	-5275
▁reduction	-5276
▁planning	-5277
▁lett	-5278
jection	-5279
▁ideal	-5280
cr	-5281
istical	-5282
▁industry	-5283
▁contributes	-5284
▁IO	-5285
▁explan	-5286
Provider	-5287
Click	-5288
#!/	-5289
▁determined	-5290
▁scal	-5291
VE	-5292
lications	-5293
STAT	-5294
▁away	-5295
irr	-5296
▁relation	-5297
▁container	-5298
lang	-5299
▁respectively	-5300
MENT	-5301
▁extended	-5302
ca	-5303
▁derivative	-5304
ools	-5305
▁failed	-5306
▁selection	-5307
▁WAR	-5308
Char	-5309
Order	-5310
eric	-5311
▁bottom	-5312
Format	-5313
▁Intern	-5314
ipeline	-5315
tf	-5316
▁repl	-5317
card	-5318
pm	-5319
pute	-5320
iers	-5321
toString	-5322
"`	-5323
▁button	-5324
ICENSE	-5325
▁Min	-5326
▁acknow	-5327
▁fru	-5328
fields	-5329
▁requirements	-5330
car	-5331
▁Oct	-5332
relation	-5333
▁soil	-5334
▁buffer	-5335
builder	-5336
Calcul	-5337
lor	-5338
mul	-5339
schema	-5340
transform	-5341
▁story	-5342
orph	-5343
pir	-5344
▁categ	-5345
▁holds	-5346
▁psychological	-5347
mail	-5348
Layer	-5349
TS	-5350
▁heav	-5351
▁trust	-5352
}-	-5353
▁hydro	-5354
▁platforms	-5355
ogen	-5356
job	-5357
crate	-5358
▁complic	-5359
strial	-5360
control	-5361
oded	-5362
▁vit	-5363
▁specifically	-5364
▁Rem	-5365
napsh	-5366
▁mathematics	-5367
.”	-5368
Sec	-5369
esh	-5370
▁attack	-5371
Here	-5372
account	-5373
Register	-5374
urb	-5375
▁minimal	-5376
▁release	-5377
ometimes	-5378
ecause	-5379
▁("	-5380
▁];	-5381
Ok	-5382
abet	-5383
ilos	-5384
Graph	-5385
______	-5386
▁religious	-5387
ervation	-5388
▁fmt	-5389
▁characteristics	-5390
▁measured	-5391
▁foundation	-5392
rier	-5393
▁Const	-5394
apping	-5395
GE	-5396
PA	-5397
▁squares	-5398
cores	-5399
▁player	-5400
▁transition	-5401
Math	-5402
ections	-5403
                	-5404
▁seed	-5405
▁basis	-5406
ancel	-5407
▁assume	-5408
▁architect	-5409
▁mit	-5410
sted	-5411
."""	-5412
▁train	-5413
▁theore	-5414
rome	-5415
Mock	-5416
ommune	-5417
▁subtract	-5418
▁Cor	-5419
standing	-5420
JSON	-5421
▁weak	-5422
ike	-5423
etal	-5424
Integer	-5425
▁solving	-5426
▁technique	-5427
▁WARRAN	-5428
unwrap	-5429
▁seeking	-5430
▁applicable	-5431
▁isinstance	-5432
jac	-5433
den	-5434
▁decisions	-5435
\":	-5436
('/	-5437
look	-5438
▁divisible	-5439
▁enum	-5440
▁authent	-5441
▁precision	-5442
cfg	-5443
▁returned	-5444
orig	-5445
▁repeated	-5446
enance	-5447
▁spaces	-5448
ITION	-5449
edge	-5450
▁tit	-5451
▁increasingly	-5452
sider	-5453
▁military	-5454
▁More	-5455
▁stability	-5456
irectory	-5457
▁insert	-5458
▁fem	-5459
▁samples	-5460
▁fib	-5461
ear	-5462
▁taking	-5463
▁inside	-5464
▁thus	-5465
alysis	-5466
"));	-5467
▁});	-5468
iam	-5469
akes	-5470
▁interaction	-5471
switch	-5472
ifest	-5473
▁EX	-5474
/(	-5475
Assert	-5476
▁enough	-5477
▁powerful	-5478
Note	-5479
gt	-5480
▁notable	-5481
▁extract	-5482
▁joint	-5483
▁score	-5484
ifications	-5485
inally	-5486
Range	-5487
success	-5488
rary	-5489
▁institutions	-5490
▁circum	-5491
▁periods	-5492
ribution	-5493
(__	-5494
▁tend	-5495
▁behavi	-5496
fit	-5497
▁liqu	-5498
,”	-5499
$('	-5500
Delta	-5501
▁biological	-5502
▁populations	-5503
clone	-5504
metadata	-5505
namespace	-5506
▁miles	-5507
▁reflecting	-5508
▁phenomen	-5509
▁website	-5510
▁absolute	-5511
FL	-5512
_.	-5513
Rel	-5514
iffer	-5515
▁running	-5516
▁fast	-5517
orial	-5518
nections	-5519
▁formation	-5520
▁rob	-5521
itors	-5522
▁landsc	-5523
cap	-5524
▁drop	-5525
▁profession	-5526
Total	-5527
clusive	-5528
gent	-5529
▁protection	-5530
ohn	-5531
▁bin	-5532
▁accum	-5533
icensed	-5534
pend	-5535
▁metab	-5536
▁oil	-5537
bits	-5538
▁Gu	-5539
Match	-5540
▁reduces	-5541
Offset	-5542
▁expressions	-5543
inf	-5544
▁fr	-5545
▁req	-5546
▁Time	-5547
Return	-5548
LECT	-5549
Last	-5550
Level	-5551
▁Base	-5552
aved	-5553
▁dry	-5554
---	-5555
▁exercise	-5556
▁Two	-5557
ume	-5558
▁establish	-5559
usr	-5560
diff	-5561
▁conv	-5562
othing	-5563
▁Pre	-5564
Down	-5565
Account	-5566
vas	-5567
▁things	-5568
▁dedicated	-5569
▁mechanism	-5570
Dep	-5571
▁sustainable	-5572
sample	-5573
▁achieved	-5574
Local	-5575
▁[[	-5576
▁operator	-5577
reme	-5578
Product	-5579
WORD	-5580
orders	-5581
▁camp	-5582
▁therefore	-5583
ROM	-5584
▁Rs	-5585
▁Supp	-5586
Thread	-5587
▁suggesting	-5588
eval	-5589
=[	-5590
▁Mod	-5591
Job	-5592
▁Out	-5593
▁fill	-5594
▁background	-5595
▁deeply	-5596
rowser	-5597
Mon	-5598
▁Apache	-5599
▁conventional	-5600
oto	-5601
▁acqu	-5602
ricult	-5603
▁calculations	-5604
labels	-5605
▁enable	-5606
▁Chapter	-5607
▁dict	-5608
making	-5609
leted	-5610
▁deviation	-5611
headers	-5612
▁plants	-5613
irth	-5614
Non	-5615
▁EN	-5616
▁comment	-5617
urred	-5618
▁ce	-5619
▁profound	-5620
▁answers	-5621
▁outcome	-5622
▁stop	-5623
forward	-5624
▁chart	-5625
jango	-5626
▁Version	-5627
CU	-5628
▁hash	-5629
▁io	-5630
under	-5631
delta	-5632
(((	-5633
▁insight	-5634
ARE	-5635
▁rows	-5636
▁private	-5637
▁placed	-5638
▁culture	-5639
dk	-5640
osing	-5641
rout	-5642
STR	-5643
Ptr	-5644
▁trig	-5645
ho	-5646
▁improving	-5647
pyx	-5648
Rule	-5649
pool	-5650
▁possess	-5651
":"	-5652
▁"<	-5653
▁Fr	-5654
fold	-5655
bi	-5656
Sign	-5657
Settings	-5658
chron	-5659
▁Graph	-5660
▁solid	-5661
▁experiment	-5662
▁supplement	-5663
Pass	-5664
▁Table	-5665
▁integrated	-5666
▁mock	-5667
▁enhanced	-5668
▁stored	-5669
▁Read	-5670
SY	-5671
creen	-5672
Internal	-5673
Web	-5674
▁discussion	-5675
unsigned	-5676
HER	-5677
▁wire	-5678
▁uncert	-5679
▁_,	-5680
Open	-5681
▁split	-5682
▁Tri	-5683
▁innovation	-5684
▁allowed	-5685
▁recovery	-5686
interface	-5687
▁stim	-5688
▁beginning	-5689
▁chain	-5690
Par	-5691
)-	-5692
▁send	-5693
Tree	-5694
ipment	-5695
▁therapy	-5696
▁quantity	-5697
equals	-5698
loader	-5699
ino	-5700
▁AND	-5701
▁uniform	-5702
ups	-5703
mar	-5704
▁vertices	-5705
▁AR	-5706
▁said	-5707
▁drawn	-5708
▁focused	-5709
ture	-5710
▁perspective	-5711
meta	-5712
sigma	-5713
▁info	-5714
▁Spec	-5715
▁formed	-5716
▁blue	-5717
▁explain	-5718
▁Jul	-5719
ested	-5720
Operation	-5721
aj	-5722
▁contexts	-5723
▁Cal	-5724
ocal	-5725
▁managing	-5726
 =	-5727
▁WIT	-5728
▁Mon	-5729
ALL	-5730
▁Car	-5731
▁belief	-5732
▁healthy	-5733
password	-5734
▁Red	-5735
ees	-5736
which	-5737
▁integrity	-5738
▁really	-5739
▁pick	-5740
▁confir	-5741
si	-5742
stop	-5743
▁duration	-5744
SC	-5745
osp	-5746
▁bacter	-5747
▁causes	-5748
▁letters	-5749
▁pages	-5750
properties	-5751
▁postnummer	-5752
ners	-5753
resolve	-5754
▁money	-5755
Kode	-5756
Kommune	-5757
▁obtained	-5758
Postnummer	-5759
KommuneKode	-5760
▁env	-5761
▁Other	-5762
Poststed	-5763
linear	-5764
▁customer	-5765
▁diagram	-5766
▁likelihood	-5767
▁Jan	-5768
css	-5769
▁optional	-5770
▁Ab	-5771
safe	-5772
▁carry	-5773
Configuration	-5774
[-	-5775
▁Inc	-5776
▁numerous	-5777
▁Sy	-5778
fmt	-5779
Invalid	-5780
▁however	-5781
leq	-5782
prefix	-5783
▁describe	-5784
▁employed	-5785
▁tissue	-5786
▁intellig	-5787
▁logic	-5788
▁closed	-5789
▁consult	-5790
chain	-5791
ateral	-5792
▁Christ	-5793
▁Health	-5794
▁performed	-5795
ivil	-5796
▁lat	-5797
▁member	-5798
▁My	-5799
craft	-5800
▁Calculate	-5801
▁infrastructure	-5802
▁β	-5803
After	-5804
▁extra	-5805
}=\	-5806
odies	-5807
▁hypothesis	-5808
sed	-5809
▁perfect	-5810
▁middle	-5811
▁technologies	-5812
ission	-5813
Storage	-5814
quir	-5815
▁letter	-5816
ighest	-5817
Document	-5818
▁@@	-5819
▁characterized	-5820
simp	-5821
▁cou	-5822
▁engaging	-5823
errors	-5824
feature	-5825
AMP	-5826
▁expansion	-5827
ana	-5828
OK	-5829
TIES	-5830
▁atmos	-5831
▁coefficient	-5832
PROPER	-5833
▁Germ	-5834
urally	-5835
Enc	-5836
andard	-5837
cut	-5838
LINE	-5839
▁separate	-5840
Parameters	-5841
ilon	-5842
▁built	-5843
ithy	-5844
ster	-5845
▁Name	-5846
▁msg	-5847
▁West	-5848
▁Ref	-5849
.*	-5850
▁Self	-5851
ley	-5852
Cell	-5853
▁rise	-5854
▁signs	-5855
▁raw	-5856
help	-5857
▁Rev	-5858
▁surg	-5859
▁highlighting	-5860
▁pow	-5861
fd	-5862
▁journey	-5863
TEST	-5864
istr	-5865
▁÷	-5866
spect	-5867
▁capital	-5868
▁World	-5869
Active	-5870
▁procedure	-5871
SD	-5872
handler	-5873
▁columns	-5874
urface	-5875
▁country	-5876
▁room	-5877
components	-5878
▁representing	-5879
PAR	-5880
Util	-5881
cing	-5882
Given	-5883
napshot	-5884
arith	-5885
▁bur	-5886
▁today	-5887
▁…	-5888
▁consistently	-5889
selves	-5890
ellow	-5891
▁goals	-5892
▁tell	-5893
▁living	-5894
▁delivery	-5895
   	-5896
Window	-5897
PU	-5898
▁compare	-5899
▁wave	-5900
=-	-5901
▁specialized	-5902
▁charg	-5903
▁easily	-5904
Unit	-5905
▁ord	-5906
](	-5907
▁alter	-5908
oy	-5909
▁visible	-5910
Ke	-5911
▁comes	-5912
Returns	-5913
EMAIL	-5914
▁dog	-5915
▁requiring	-5916
▁directory	-5917
▁opportunities	-5918
Values	-5919
▁underscores	-5920
▁Problem	-5921
▁positions	-5922
▁electrical	-5923
SA	-5924
▁Brit	-5925
▁engineering	-5926
osen	-5927
▁philos	-5928
sim	-5929
\$	-5930
▁edges	-5931
oke	-5932
ircle	-5933
▁official	-5934
Vert	-5935
player	-5936
▁batch	-5937
▁Dep	-5938
ridge	-5939
▁notice	-5940
▁desired	-5941
▁(`	-5942
▁imm	-5943
▁db	-5944
▁secure	-5945
▁coordinate	-5946
QU	-5947
▁front	-5948
▁receive	-5949
#####	-5950
▁experienced	-5951
imeters	-5952
SO	-5953
mount	-5954
▁Similarly	-5955
▁Mar	-5956
BO	-5957
rum	-5958
▁CA	-5959
▁vul	-5960
Policy	-5961
▁society	-5962
ulas	-5963
ponential	-5964
▁rich	-5965
urity	-5966
▁purch	-5967
▁Instead	-5968
▁notes	-5969
▁begins	-5970
▁wrong	-5971
▁unknown	-5972
elines	-5973
dates	-5974
▁colle	-5975
▁ideas	-5976
▁AD	-5977
▁During	-5978
Left	-5979
▁nearly	-5980
dimensional	-5981
▁detection	-5982
Bytes	-5983
PROPERTY	-5984
Bar	-5985
internal	-5986
ictionary	-5987
▁topic	-5988
▁depending	-5989
▁reinfor	-5990
▁reaction	-5991
▁eight	-5992
▁spiritual	-5993
▁intervention	-5994
▁pul	-5995
▁contem	-5996
Sy	-5997
▁deploy	-5998
▁▁▁▁▁	-5999
▁introduc	-6000
PC	-6001
ressed	-6002
▁(*	-6003
▁mm	-6004
▁Exp	-6005
ById	-6006
▁RE	-6007
initial	-6008
▁er	-6009
▁nor	-6010
▁muscle	-6011
uous	-6012
▁wait	-6013
Json	-6014
▁Common	-6015
ODO	-6016
▁largest	-6017
rand	-6018
▁signals	-6019
dataset	-6020
Provincia	-6021
Use	-6022
lemma	-6023
▁Phys	-6024
▁Ag	-6025
▁roles	-6026
▁quickly	-6027
cb	-6028
▁criter	-6029
▁})	-6030
objects	-6031
mic	-6032
rew	-6033
vue	-6034
FS	-6035
▁Once	-6036
▁*)	-6037
▁promote	-6038
words	-6039
▁big	-6040
▁noted	-6041
iences	-6042
▁favor	-6043
ventions	-6044
▁industrial	-6045
▁instruction	-6046
aker	-6047
anger	-6048
FO	-6049
queue	-6050
▁bond	-6051
▁feedback	-6052
▁AI	-6053
▁serious	-6054
Position	-6055
▁music	-6056
flags	-6057
▁stands	-6058
▁demands	-6059
▁Sm	-6060
▁tf	-6061
▁records	-6062
▁TODO	-6063
▁recip	-6064
seq	-6065
▁Under	-6066
omb	-6067
uri	-6068
Inst	-6069
▁plus	-6070
}>	-6071
score	-6072
▁absor	-6073
▁contributed	-6074
rq	-6075
git	-6076
▁highlights	-6077
License	-6078
▁driven	-6079
rack	-6080
▁save	-6081
▁hyper	-6082
Me	-6083
kens	-6084
connection	-6085
conv	-6086
Stack	-6087
Grid	-6088
PUT	-6089
▁mil	-6090
Schema	-6091
▁European	-6092
airs	-6093
That	-6094
ada	-6095
▁professionals	-6096
di	-6097
▁WARRANTIES	-6098
ampling	-6099
▁estimate	-6100
▁magnetic	-6101
^{\	-6102
ository	-6103
▁countries	-6104
▁category	-6105
▁consists	-6106
yes	-6107
▁updated	-6108
png	-6109
enum	-6110
▁bytes	-6111
▁sal	-6112
iological	-6113
▁successful	-6114
▁File	-6115
framework	-6116
>',	-6117
▁absence	-6118
Properties	-6119
▁war	-6120
Ident	-6121
omain	-6122
▁magnitude	-6123
▁api	-6124
ifact	-6125
▁quadratic	-6126
▁CH	-6127
▁[];	-6128
▁lbs	-6129
Record	-6130
ution	-6131
protobuf	-6132
Props	-6133
wd	-6134
▁rele	-6135
MIN	-6136
▁Requ	-6137
▁Id	-6138
Parser	-6139
execute	-6140
▁outside	-6141
▁continues	-6142
▁anti	-6143
▁immune	-6144
▁delete	-6145
circ	-6146
vents	-6147
▁immediate	-6148
▁capabilities	-6149
▁bill	-6150
▁animals	-6151
▁Val	-6152
▁Ne	-6153
▁infl	-6154
modules	-6155
▁networks	-6156
anted	-6157
▁mount	-6158
▁recognition	-6159
▁transmission	-6160
ARY	-6161
cho	-6162
▁sys	-6163
game	-6164
Long	-6165
ament	-6166
▁diss	-6167
▁etc	-6168
▁Vari	-6169
Connection	-6170
dy	-6171
cover	-6172
Template	-6173
rev	-6174
OUT	-6175
▁teaching	-6176
▁ing	-6177
▁income	-6178
▁setup	-6179
▁Any	-6180
▁persistent	-6181
Vector	-6182
LOCK	-6183
gy	-6184
CONF	-6185
▁ctx	-6186
▁electron	-6187
ixel	-6188
▁became	-6189
sheets	-6190
ynamic	-6191
▁Pat	-6192
▁keys	-6193
▁prove	-6194
▁compan	-6195
▁reject	-6196
▁vision	-6197
Metadata	-6198
ipal	-6199
▁Science	-6200
▁famil	-6201
▁mig	-6202
category	-6203
parameters	-6204
▁encounter	-6205
dot	-6206
▁situation	-6207
REG	-6208
▁passed	-6209
▁μ	-6210
▁KEY	-6211
▁animal	-6212
▁remote	-6213
▁behaviors	-6214
▁highest	-6215
▁missing	-6216
▁Ang	-6217
▁bul	-6218
▁multipl	-6219
▁wind	-6220
▁package	-6221
▁permissions	-6222
(){	-6223
▁HT	-6224
▁motor	-6225
▁piece	-6226
▁governing	-6227
▁vulner	-6228
▁Hel	-6229
iling	-6230
▁distingu	-6231
▁fix	-6232
Location	-6233
▁resilience	-6234
limit	-6235
▁detail	-6236
II	-6237
adow	-6238
▁stack	-6239
▁⟨	-6240
sem	-6241
▁kilogram	-6242
▁differential	-6243
▁proportion	-6244
archar	-6245
rices	-6246
▁dataset	-6247
ificate	-6248
▁protect	-6249
▁mask	-6250
▁shapes	-6251
▁diameter	-6252
▁cache	-6253
Errorf	-6254
▁dimension	-6255
▁kin	-6256
▁usually	-6257
webkit	-6258
have	-6259
▁Nov	-6260
▁vehicle	-6261
▁topics	-6262
▁geometry	-6263
▁operating	-6264
CRIP	-6265
imum	-6266
Controller	-6267
▁commitment	-6268
▁discover	-6269
▁liquid	-6270
ultaneous	-6271
Obj	-6272
]),	-6273
▁header	-6274
SELECT	-6275
▁Index	-6276
▁explicit	-6277
▁mechanical	-6278
ij	-6279
fail	-6280
▁infinite	-6281
eps	-6282
▁implied	-6283
ran	-6284
▁affected	-6285
▁Init	-6286
omega	-6287
UID	-6288
decode	-6289
▁recommend	-6290
@[	-6291
quality	-6292
FE	-6293
▁};	-6294
▁acknowled	-6295
▁variety	-6296
Menu	-6297
}}$	-6298
▁span	-6299
ffic	-6300
▁cook	-6301
▁involve	-6302
ipl	-6303
▁User	-6304
▁thing	-6305
▁promin	-6306
▁defin	-6307
HOUT	-6308
▁informed	-6309
ipped	-6310
scious	-6311
▁entity	-6312
win	-6313
▁alone	-6314
▁",	-6315
Some	-6316
itative	-6317
Idle	-6318
▁fuel	-6319
imit	-6320
uk	-6321
zip	-6322
▁poor	-6323
▁scope	-6324
▁maintenance	-6325
▁stable	-6326
▁usage	-6327
Meta	-6328
▁doing	-6329
▁themselves	-6330
DES	-6331
▁parents	-6332
▁applying	-6333
▁revealed	-6334
▁exc	-6335
▁rare	-6336
▁convers	-6337
▁projects	-6338
▁thinking	-6339
▁held	-6340
▁sustained	-6341
lig	-6342
▁urban	-6343
▁objective	-6344
▁Text	-6345
▁gene	-6346
▁removed	-6347
()).	-6348
ellect	-6349
Port	-6350
depth	-6351
Que	-6352
allet	-6353
▁drawing	-6354
icients	-6355
ved	-6356
deg	-6357
▁mobile	-6358
▁collaboration	-6359
▁Flag	-6360
▁limits	-6361
▁agricult	-6362
▁candid	-6363
▁clearly	-6364
SQL	-6365
ying	-6366
inity	-6367
Timeout	-6368
none	-6369
▁Write	-6370
▁dx	-6371
ournal	-6372
Temp	-6373
children	-6374
▁subsequent	-6375
Sw	-6376
▁inputs	-6377
▁choices	-6378
ilateral	-6379
▁piv	-6380
organ	-6381
▁closely	-6382
▁appearance	-6383
▁∈	-6384
iler	-6385
,-	-6386
▁equipment	-6387
▁messages	-6388
▁Aug	-6389
▁recur	-6390
▁cluster	-6391
▁surrounding	-6392
validate	-6393
▁React	-6394
------------	-6395
▁PRO	-6396
Helper	-6397
Reference	-6398
Conn	-6399
▁insp	-6400
▁cardi	-6401
ao	-6402
▁robust	-6403
▁warm	-6404
▁Techn	-6405
▁successfully	-6406
augh	-6407
Found	-6408
includ	-6409
▁finite	-6410
structions	-6411
otic	-6412
/*!	-6413
selected	-6414
>>>	-6415
Mark	-6416
Do	-6417
hedule	-6418
urrency	-6419
▁popular	-6420
wait	-6421
▁John	-6422
▁minor	-6423
▁attribute	-6424
udo	-6425
▁procedures	-6426
Matrix	-6427
▁board	-6428
▁classes	-6429
▁partial	-6430
}$.	-6431
▁enduring	-6432
bb	-6433
ker	-6434
DS	-6435
▁War	-6436
]))	-6437
Msg	-6438
ese	-6439
▁priorit	-6440
{-	-6441
hi	-6442
iately	-6443
▁esc	-6444
▁benefit	-6445
▁caused	-6446
WS	-6447
Mem	-6448
gon	-6449
ester	-6450
stro	-6451
▁crate	-6452
▁references	-6453
erge	-6454
tensor	-6455
▁extend	-6456
!!	-6457
symbol	-6458
ultiply	-6459
||	-6460
▁momentum	-6461
RI	-6462
▁har	-6463
poses	-6464
▁particles	-6465
▁influenced	-6466
▁metric	-6467
contains	-6468
install	-6469
power	-6470
▁relatively	-6471
tests	-6472
▁reality	-6473
pendicular	-6474
▁commerc	-6475
TIM	-6476
See	-6477
▁fostering	-6478
`)	-6479
▁thor	-6480
uries	-6481
▁rectangle	-6482
▁exhibit	-6483
soft	-6484
▁emphasizing	-6485
▁numpy	-6486
▁NO	-6487
▁truth	-6488
greg	-6489
username	-6490
rations	-6491
▁Algebra	-6492
▁composition	-6493
itivity	-6494
▁inquir	-6495
▁roll	-6496
MOD	-6497
}\\	-6498
▁connections	-6499
▁triangles	-6500
▁Map	-6501
UD	-6502
▁disrupt	-6503
▁promoting	-6504
ributed	-6505
IGN	-6506
apeut	-6507
hol	-6508
cloud	-6509
returns	-6510
▁Her	-6511
calcul	-6512
▁smallest	-6513
▁plug	-6514
▁novel	-6515
▁switch	-6516
▁neigh	-6517
▁Apr	-6518
clos	-6519
ford	-6520
▁blocks	-6521
▁emerged	-6522
▁jud	-6523
NN	-6524
licenses	-6525
Collection	-6526
Nice	-6527
▁pict	-6528
▁JSON	-6529
▁remainder	-6530
▁constraints	-6531
aign	-6532
exists	-6533
▁slight	-6534
▁conflict	-6535
menu	-6536
Selector	-6537
▁sometimes	-6538
▁moves	-6539
▁recognize	-6540
▁Open	-6541
images	-6542
imation	-6543
gar	-6544
uzz	-6545
▁places	-6546
Project	-6547
▁ok	-6548
▁tables	-6549
▁won	-6550
Cre	-6551
▁fun	-6552
▁everyday	-6553
ORE	-6554
▁che	-6555
▁Method	-6556
▁intellect	-6557
ball	-6558
▁advoc	-6559
▁older	-6560
Therefore	-6561
ocker	-6562
▁interpretation	-6563
Eng	-6564
Logger	-6565
▁shaped	-6566
VERSION	-6567
▁wild	-6568
▁balanced	-6569
report	-6570
required	-6571
▁initiatives	-6572
▁documentation	-6573
OM	-6574
ipp	-6575
%.	-6576
▁Just	-6577
▁Run	-6578
Rout	-6579
▁occurred	-6580
▁theoretical	-6581
▁General	-6582
Can	-6583
▁glob	-6584
ama	-6585
ided	-6586
lower	-6587
scription	-6588
ework	-6589
storage	-6590
▁download	-6591
▁pen	-6592
Show	-6593
▁summary	-6594
issions	-6595
▁TH	-6596
▁lot	-6597
▁profile	-6598
full	-6599
▁Rel	-6600
▁Mathematics	-6601
xid	-6602
▁idx	-6603
assign	-6604
hexrays	-6605
▁cool	-6606
▁moral	-6607
▁weeks	-6608
▁reverse	-6609
▁began	-6610
▁someone	-6611
▁exploration	-6612
▁rotation	-6613
▁flag	-6614
▁mitig	-6615
testing	-6616
ensions	-6617
Panel	-6618
utf	-6619
▁intent	-6620
▁strugg	-6621
equality	-6622
holder	-6623
aml	-6624
plt	-6625
tri	-6626
▁ancient	-6627
▁Theorem	-6628
▁reserved	-6629
▁North	-6630
▁chronic	-6631
▁delay	-6632
()))	-6633
▁univers	-6634
slice	-6635
▁exchange	-6636
ourt	-6637
Red	-6638
spring	-6639
orous	-6640
▁players	-6641
▁Ac	-6642
>)	-6643
Then	-6644
▁replace	-6645
SU	-6646
▁utf	-6647
Title	-6648
users	-6649
iated	-6650
ascular	-6651
each	-6652
▁Net	-6653
▁dark	-6654
▁react	-6655
ffix	-6656
▁Current	-6657
writ	-6658
DI	-6659
▁annual	-6660
▁vacc	-6661
▁challenging	-6662
▁contemporary	-6663
▁concentration	-6664
▁Prime	-6665
timeout	-6666
▁strings	-6667
cluster	-6668
▁fish	-6669
▁extreme	-6670
▁handling	-6671
▁nutri	-6672
▁occup	-6673
traction	-6674
Irq	-6675
▁simultaneous	-6676
(()	-6677
ercises	-6678
]='	-6679
▁eye	-6680
▁click	-6681
eries	-6682
▁geometric	-6683
bose	-6684
▁Even	-6685
rage	-6686
println	-6687
▁assigned	-6688
▁deb	-6689
▁statistical	-6690
▁lab	-6691
enter	-6692
``````	-6693
▁temperatures	-6694
COL	-6695
oul	-6696
▁Of	-6697
ailability	-6698
>;	-6699
nodes	-6700
specific	-6701
▁kilograms	-6702
pa	-6703
Dialog	-6704
▁Law	-6705
rich	-6706
▁season	-6707
▁"#	-6708
▁Linear	-6709
Func	-6710
PRE	-6711
▁aimed	-6712
▁''	-6713
▁believ	-6714
arnings	-6715
▁Cre	-6716
appro	-6717
▁clock	-6718
▁proposed	-6719
▁discipl	-6720
Sl	-6721
▁[],	-6722
fg	-6723
▁seven	-6724
atistics	-6725
▁landscape	-6726
[:,	-6727
jacent	-6728
▁creative	-6729
▁thousand	-6730
▁contributions	-6731
fc	-6732
>();	-6733
▁sexual	-6734
prev	-6735
agent	-6736
▁win	-6737
ishes	-6738
WN	-6739
Icon	-6740
▁aspects	-6741
aud	-6742
wards	-6743
▁demonstrate	-6744
ederal	-6745
▁clarity	-6746
LICENSE	-6747
ITE	-6748
▁android	-6749
ateway	-6750
▁bits	-6751
▁Equations	-6752
ractions	-6753
application	-6754
ads	-6755
nat	-6756
apeutic	-6757
▁numerical	-6758
▁agreed	-6759
▁immediately	-6760
logging	-6761
▁▁▁▁▁▁▁	-6762
TIME	-6763
ycle	-6764
essel	-6765
▁remained	-6766
▁temp	-6767
FFFF	-6768
▁completed	-6769
after	-6770
eces	-6771
cosystem	-6772
▁Show	-6773
compass	-6774
apan	-6775
bash	-6776
▁sequences	-6777
BC	-6778
▁Sw	-6779
▁named	-6780
<'	-6781
▁divers	-6782
▁consequences	-6783
BE	-6784
` `	-6785
defined	-6786
Description	-6787
▁Feb	-6788
▁South	-6789
▁dietary	-6790
route	-6791
▁paint	-6792
▁looking	-6793
▁ST	-6794
▁live	-6795
▁assist	-6796
▁statistics	-6797
ACE	-6798
▁resist	-6799
▁authority	-6800
%,	-6801
▁enabled	-6802
hing	-6803
tool	-6804
▁Software	-6805
urance	-6806
▁execution	-6807
▁cov	-6808
arter	-6809
▁Through	-6810
▁serving	-6811
▁trade	-6812
")]	-6813
▁Such	-6814
▁license	-6815
▁gamma	-6816
▁Mark	-6817
▁Att	-6818
▁KIND	-6819
▁International	-6820
cls	-6821
depend	-6822
▁High	-6823
▁physics	-6824
▁Default	-6825
▁emphasized	-6826
Rest	-6827
▁stock	-6828
atial	-6829
pattern	-6830
▁Optional	-6831
jpg	-6832
mid	-6833
Second	-6834
▁nan	-6835
▁Found	-6836
login	-6837
xygen	-6838
▁particle	-6839
▁mac	-6840
▁helping	-6841
*(	-6842
exist	-6843
▁WITHOUT	-6844
▁mirr	-6845
▁sorted	-6846
kernel	-6847
▁varchar	-6848
▁ON	-6849
▁intake	-6850
▁thorough	-6851
uman	-6852
▁Another	-6853
connected	-6854
fetch	-6855
▁families	-6856
▁extension	-6857
TC	-6858
Pay	-6859
▁decline	-6860
▁calculating	-6861
}]	-6862
▁Point	-6863
▁adults	-6864
▁beneficial	-6865
▁authors	-6866
)[	-6867
{(	-6868
rav	-6869
ocket	-6870
▁automatically	-6871
Tab	-6872
mber	-6873
iding	-6874
▁cards	-6875
features	-6876
cv	-6877
▁drug	-6878
itution	-6879
▁append	-6880
reset	-6881
anguages	-6882
▁addressing	-6883
docs	-6884
▁Excel	-6885
``        ``	-6886
CONT	-6887
_{\	-6888
▁Pe	-6889
▁batter	-6890
▁late	-6891
Double	-6892
▁measurements	-6893
track	-6894
▁observations	-6895
▁Sp	-6896
wide	-6897
zon	-6898
oted	-6899
amily	-6900
▁Multi	-6901
▁generation	-6902
▁pred	-6903
groups	-6904
▁lesson	-6905
DITION	-6906
▁Factor	-6907
=`	-6908
My	-6909
▁thick	-6910
equate	-6911
classes	-6912
▁reliability	-6913
▁dim	-6914
▁flat	-6915
▁coefficients	-6916
wner	-6917
▁portion	-6918
▁naturally	-6919
▁enjo	-6920
▁transc	-6921
Pool	-6922
UPDATE	-6923
▁purposes	-6924
▁ecosystem	-6925
Fe	-6926
URE	-6927
▁molecular	-6928
tan	-6929
▁DNA	-6930
▁faster	-6931
Pat	-6932
▁password	-6933
▁embedd	-6934
WE	-6935
▁tum	-6936
▁easier	-6937
olar	-6938
▁trees	-6939
▁pal	-6940
▁anxi	-6941
dp	-6942
timestamp	-6943
▁attributes	-6944
Ab	-6945
iliar	-6946
water	-6947
▁library	-6948
▁dir	-6949
Wrapper	-6950
HTTP	-6951
▁achieving	-6952
atin	-6953
ollowing	-6954
▁verify	-6955
▁du	-6956
▁film	-6957
Ret	-6958
arant	-6959
sync	-6960
▁gather	-6961
Area	-6962
plugin	-6963
▁lock	-6964
▁modul	-6965
.</	-6966
▁eigen	-6967
▁calls	-6968
▁shifts	-6969
IGHT	-6970
Execut	-6971
▁typical	-6972
sn	-6973
ICE	-6974
▁"\	-6975
▁Post	-6976
Reader	-6977
▁(\	-6978
gan	-6979
▁targeted	-6980
▁infection	-6981
ola	-6982
▁neut	-6983
complete	-6984
essions	-6985
▁technological	-6986
▁"%	-6987
▁Second	-6988
Jo	-6989
▁asked	-6990
ouch	-6991
enable	-6992
ocr	-6993
▁{"	-6994
bability	-6995
urations	-6996
▁routine	-6997
nel	-6998
▁Functions	-6999
blems	-7000
▁tailored	-7001
▁sn	-7002
▁cyl	-7003
policy	-7004
▁capac	-7005
▁dimin	-7006
▁games	-7007
ultiple	-7008
▁comfort	-7009
rench	-7010
views	-7011
▁retri	-7012
edef	-7013
MT	-7014
▁'.	-7015
icode	-7016
▁describes	-7017
Keys	-7018
▁Educ	-7019
sr	-7020
▁regression	-7021
metry	-7022
▁contract	-7023
▁perceived	-7024
▁belong	-7025
=${	-7026
throws	-7027
▁alignment	-7028
▁hot	-7029
▁resolve	-7030
stats	-7031
) 	-7032
typeof	-7033
▁goes	-7034
WA	-7035
ico	-7036
▁perpendicular	-7037
▁marks	-7038
▁Model	-7039
▁`(	-7040
anner	-7041
▁hands	-7042
▁cubic	-7043
▁policies	-7044
▁composed	-7045
gpu	-7046
▁arithmetic	-7047
▁survival	-7048
▁Additional	-7049
vol	-7050
, 	-7051
▁centers	-7052
▁Pa	-7053
▁foods	-7054
▁formulas	-7055
▁waste	-7056
▁tensor	-7057
▁excessive	-7058
chunk	-7059
rames	-7060
▁Code	-7061
otient	-7062
ometers	-7063
▁programming	-7064
▁Group	-7065
▁grade	-7066
when	-7067
▁Build	-7068
▁smooth	-7069
▁therapeutic	-7070
Http	-7071
!("	-7072
▁impl	-7073
widget	-7074
▁metal	-7075
▁showing	-7076
▁movements	-7077
▁sector	-7078
▁integrating	-7079
▁tut	-7080
▁recorded	-7081
▁ago	-7082
▁sole	-7083
life	-7084
▁civil	-7085
▁template	-7086
▁initiative	-7087
hab	-7088
▁Isl	-7089
ostic	-7090
▁dividing	-7091
▁advantages	-7092
olid	-7093
icity	-7094
▁measuring	-7095
▁leadership	-7096
▁explanation	-7097
IA	-7098
▁nutr	-7099
umin	-7100
▁titled	-7101
▁reflection	-7102
imary	-7103
=$(	-7104
MAT	-7105
rab	-7106
▁India	-7107
▁veget	-7108
ibilities	-7109
▁numerator	-7110
▁Questions	-7111
exec	-7112
Core	-7113
layout	-7114
▁provider	-7115
(!	-7116
payload	-7117
abetes	-7118
|\	-7119
grade	-7120
▁medium	-7121
▁Di	-7122
▁encouraged	-7123
bmatrix	-7124
▁freed	-7125
attributes	-7126
background	-7127
Root	-7128
Dr	-7129
ECT	-7130
▁mal	-7131
▁bird	-7132
▁cloud	-7133
Ge	-7134
▁Us	-7135
▁threshold	-7136
events	-7137
▁BAS	-7138
▁sites	-7139
invalid	-7140
ulumi	-7141
abric	-7142
predict	-7143
▁teachers	-7144
While	-7145
▁push	-7146
smithy	-7147
▁complement	-7148
▁prolong	-7149
▁properly	-7150
Script	-7151
itis	-7152
(".	-7153
cus	-7154
▁exponential	-7155
▁multiplying	-7156
▁Bo	-7157
▁whe	-7158
▁regardless	-7159
▁Public	-7160
▁intellectual	-7161
▁cube	-7162
▁twice	-7163
▁largely	-7164
▁commercial	-7165
▁views	-7166
STATUS	-7167
▁Count	-7168
▁jav	-7169
high	-7170
aph	-7171
sued	-7172
hidden	-7173
▁ethical	-7174
▁variance	-7175
Parent	-7176
Descriptor	-7177
▁mixed	-7178
▁chosen	-7179
▁grams	-7180
▁oxygen	-7181
: 	-7182
▁please	-7183
stood	-7184
▁floor	-7185
Op	-7186
▁antib	-7187
forEach	-7188
ustral	-7189
▁schools	-7190
ECK	-7191
shared	-7192
operation	-7193
▁earth	-7194
tab	-7195
rd	-7196
mac	-7197
▁manip	-7198
('.	-7199
toBe	-7200
▁virtual	-7201
csv	-7202
LAST	-7203
digit	-7204
▁SE	-7205
agon	-7206
▁intelligence	-7207
serial	-7208
▁colors	-7209
▁focusing	-7210
ermine	-7211
▁addresses	-7212
PT	-7213
▁prep	-7214
▁lasting	-7215
Byte	-7216
▁documented	-7217
ussian	-7218
generate	-7219
▁variation	-7220
even	-7221
gb	-7222
ogg	-7223
home	-7224
▁URL	-7225
▁Oper	-7226
achment	-7227
Another	-7228
imately	-7229
▁shaping	-7230
▁criteria	-7231
sb	-7232
▁Many	-7233
available	-7234
▁evolving	-7235
rust	-7236
▁Control	-7237
▁SET	-7238
▁anxiety	-7239
_[	-7240
Plug	-7241
▁says	-7242
loop	-7243
ibly	-7244
rase	-7245
Debug	-7246
▁birth	-7247
Bl	-7248
▁Sec	-7249
cluded	-7250
Prot	-7251
▁lens	-7252
▁Promise	-7253
▁craft	-7254
ka	-7255
▁ice	-7256
▁hair	-7257
NUM	-7258
uary	-7259
▁Aut	-7260
GR	-7261
▁confirm	-7262
▁datetime	-7263
▁regulatory	-7264
▁resolution	-7265
▁logarith	-7266
OB	-7267
shift	-7268
▁rank	-7269
▁British	-7270
opts	-7271
INTER	-7272
▁Japan	-7273
describe	-7274
These	-7275
orter	-7276
▁perception	-7277
▁reson	-7278
▁requests	-7279
▁orient	-7280
▁showed	-7281
equation	-7282
ams	-7283
mma	-7284
attribute	-7285
gi	-7286
ummy	-7287
▁gold	-7288
▁Service	-7289
▁abstract	-7290
▁encompass	-7291
tip	-7292
equence	-7293
BD	-7294
vest	-7295
▁wood	-7296
▁Art	-7297
▁advantage	-7298
Items	-7299
▁farm	-7300
▁night	-7301
ky	-7302
NOT	-7303
▁prominent	-7304
serve	-7305
▁evaluated	-7306
)"	-7307
convert	-7308
▁observation	-7309
▁interventions	-7310
▁manufacturing	-7311
________________	-7312
▁actively	-7313
▁inequality	-7314
▁Area	-7315
tick	-7316
oses	-7317
tags	-7318
▁byte	-7319
▁selecting	-7320
NV	-7321
▁{};	-7322
NC	-7323
READ	-7324
▁functionality	-7325
▁stages	-7326
ogram	-7327
▁visit	-7328
webpack	-7329
mplement	-7330
IX	-7331
▁Students	-7332
assertTrue	-7333
attle	-7334
▁tmp	-7335
arest	-7336
inputs	-7337
▁laws	-7338
before	-7339
▁Unit	-7340
▁radiation	-7341
pkg	-7342
▁Numbers	-7343
DITIONS	-7344
▁organic	-7345
inger	-7346
letion	-7347
constructor	-7348
ceive	-7349
Auth	-7350
created	-7351
▁entries	-7352
▁algorithms	-7353
cu	-7354
clean	-7355
▁tangent	-7356
▁∠	-7357
irtual	-7358
▁gravity	-7359
▁China	-7360
▁drive	-7361
pk	-7362
dem	-7363
▁layers	-7364
});	-7365
▁peak	-7366
▁lengths	-7367
▁ultimately	-7368
Queue	-7369
▁correlation	-7370
▁dental	-7371
▁elevated	-7372
ws	-7373
▁auto	-7374
stderr	-7375
▁brand	-7376
Enabled	-7377
▁invalid	-7378
▁instrument	-7379
Dim	-7380
▁IP	-7381
▁remember	-7382
……	-7383
FORM	-7384
▁teacher	-7385
('./	-7386
Custom	-7387
estic	-7388
▁slightly	-7389
▁`        ``	-7390
▁transaction	-7391
OC	-7392
cancel	-7393
▁logical	-7394
▁sq	-7395
entials	-7396
▁colon	-7397
ipher	-7398
▁BASIS	-7399
▁Square	-7400
▁Solutions	-7401
▁isn	-7402
▁Power	-7403
Sync	-7404
▁solar	-7405
▁mg	-7406
▁soft	-7407
bounds	-7408
▁leaves	-7409
▁lost	-7410
▁literature	-7411
▁King	-7412
ala	-7413
▁cold	-7414
▁Institute	-7415
la	-7416
▁pool	-7417
▁arbit	-7418
▁CONDITIONS	-7419
LS	-7420
Ver	-7421
▁computing	-7422
Expr	-7423
▁analyze	-7424
▁disorders	-7425
▁namespace	-7426
iny	-7427
execut	-7428
▁adjacent	-7429
▁God	-7430
▁CD	-7431
']['	-7432
erson	-7433
▁emerging	-7434
▁cmd	-7435
▁fa	-7436
▁dialog	-7437
▁rooted	-7438
▁intense	-7439
▁correctly	-7440
FT	-7441
++;	-7442
▁systemic	-7443
ificial	-7444
▁chapter	-7445
▁Integ	-7446
▁Pract	-7447
Definition	-7448
Vec	-7449
▁noise	-7450
edit	-7451
typedef	-7452
▁native	-7453
▁existence	-7454
POST	-7455
▁wav	-7456
region	-7457
▁preval	-7458
▁proceed	-7459
▁frameworks	-7460
FR	-7461
Async	-7462
profile	-7463
hom	-7464
▁Dig	-7465
▁agent	-7466
Kind	-7467
setup	-7468
▁Licensed	-7469
eyond	-7470
▁spatial	-7471
VA	-7472
chart	-7473
▁reasoning	-7474
Report	-7475
cursor	-7476
border	-7477
▁Config	-7478
            ``	-7479
▁Desc	-7480
▁symbols	-7481
rx	-7482
▁</	-7483
▁frequent	-7484
osed	-7485
cases	-7486
*)	-7487
▁boundary	-7488
Av	-7489
oon	-7490
▁continued	-7491
orse	-7492
secut	-7493
flag	-7494
▁spring	-7495
▁collective	-7496
Cert	-7497
▁channels	-7498
▁interactive	-7499
ilib	-7500
▁agre	-7501
▁inhib	-7502
▁subset	-7503
antic	-7504
▁Google	-7505
skip	-7506
▁Austral	-7507
oly	-7508
record	-7509
▁lives	-7510
▁foster	-7511
▁controlled	-7512
Using	-7513
▁conven	-7514
▁thermal	-7515
▁objectives	-7516
▁claims	-7517
▁compat	-7518
▁preserv	-7519
▁minus	-7520
road	-7521
▁rely	-7522
rw	-7523
("/	-7524
▁ring	-7525
phant	-7526
catch	-7527
}}{\	-7528
Transaction	-7529
▁prolonged	-7530
▁graphs	-7531
commit	-7532
▁cit	-7533
onomy	-7534
▁statements	-7535
eve	-7536
Before	-7537
▁squared	-7538
etc	-7539
Close	-7540
▁mach	-7541
▁fair	-7542
aur	-7543
▁matrices	-7544
"\	-7545
▁poll	-7546
plicate	-7547
▁campaign	-7548
VID	-7549
lab	-7550
▁MA	-7551
ship	-7552
▁exit	-7553
▁copyright	-7554
UTO	-7555
▁served	-7556
Success	-7557
▁locations	-7558
lear	-7559
▁initially	-7560
folder	-7561
affe	-7562
▁'../	-7563
ainty	-7564
ocab	-7565
uard	-7566
▁companies	-7567
rf	-7568
Env	-7569
Author	-7570
▁brief	-7571
▁hidden	-7572
▁acceler	-7573
luc	-7574
▁interested	-7575
▁although	-7576
plus	-7577
▁apprec	-7578
annotation	-7579
("#	-7580
▁egg	-7581
)):	-7582
ette	-7583
asons	-7584
▁Web	-7585
ulating	-7586
OLD	-7587
▁reveals	-7588
▁moist	-7589
▁collected	-7590
some	-7591
▁trial	-7592
▁Engine	-7593
▁'#	-7594
▁composite	-7595
▁circular	-7596
($	-7597
Doc	-7598
Stud	-7599
▁improvement	-7600
▁prefix	-7601
(|	-7602
Opt	-7603
▁manifest	-7604
found	-7605
engine	-7606
\":\"	-7607
▁experimental	-7608
▁pure	-7609
▁modified	-7610
▁household	-7611
▁rat	-7612
▁'@	-7613
()),	-7614
▁books	-7615
▁qualified	-7616
HTML	-7617
requency	-7618
'):	-7619
site	-7620
▁instances	-7621
▁Vec	-7622
▁FROM	-7623
cohol	-7624
▁Maths	-7625
▁societal	-7626
▁enjoy	-7627
▁glass	-7628
Pe	-7629
rium	-7630
▁Hash	-7631
▁skip	-7632
▁demonstrating	-7633
▁compounds	-7634
igma	-7635
ulative	-7636
▁conclusion	-7637
ONE	-7638
uuid	-7639
▁Both	-7640
columns	-7641
▁Java	-7642
AA	-7643
▁alpha	-7644
▁gender	-7645
Package	-7646
▁treatments	-7647
▁Program	-7648
▁responsibility	-7649
variables	-7650
area	-7651
▁mission	-7652
▁audience	-7653
__,	-7654
▁aims	-7655
▁friction	-7656
iable	-7657
▁partition	-7658
▁queue	-7659
▁Because	-7660
Div	-7661
▁arrang	-7662
▁domains	-7663
▁bra	-7664
screen	-7665
%%%%	-7666
▁humans	-7667
▁Union	-7668
Fields	-7669
endar	-7670
▁onto	-7671
▁agents	-7672
▁mention	-7673
urch	-7674
Explanation	-7675
▁gets	-7676
▁Less	-7677
sts	-7678
▁preparation	-7679
▁electro	-7680
trace	-7681
▁instanceof	-7682
▁multiplied	-7683
DEFAULT	-7684
▁weather	-7685
▁transl	-7686
▁diabetes	-7687
decl	-7688
▁Project	-7689
two	-7690
strip	-7691
/.	-7692
▁marketing	-7693
pin	-7694
claim	-7695
▁Also	-7696
xide	-7697
▁Black	-7698
comment	-7699
Application	-7700
▁conservation	-7701
}}$$	-7702
)}{	-7703
istent	-7704
ragment	-7705
\,	-7706
.",	-7707
RC	-7708
rained	-7709
padding	-7710
MODE	-7711
▁surfaces	-7712
>'	-7713
HA	-7714
▁vast	-7715
▁Event	-7716
▁operate	-7717
bed	-7718
▁Among	-7719
ilation	-7720
▁decades	-7721
rightarrow	-7722
▁implements	-7723
▁band	-7724
outer	-7725
▁fresh	-7726
▁guarant	-7727
PASS	-7728
▁infections	-7729
sion	-7730
▁factorization	-7731
abil	-7732
▁preced	-7733
dl	-7734
collect	-7735
elt	-7736
aching	-7737
Examples	-7738
bus	-7739
▁estimated	-7740
▁cast	-7741
▁scores	-7742
▁simultaneously	-7743
▁pan	-7744
▁prem	-7745
encode	-7746
EV	-7747
▁getting	-7748
urt	-7749
ifiers	-7750
arian	-7751
perform	-7752
▁classified	-7753
TW	-7754
Impl	-7755
▁accounts	-7756
^\	-7757
UND	-7758
▁anticip	-7759
bucket	-7760
socket	-7761
▁artistic	-7762
▁physiological	-7763
iat	-7764
▁Input	-7765
Self	-7766
▁Start	-7767
▁export	-7768
▁focuses	-7769
▁clar	-7770
▁expertise	-7771
ests	-7772
▁injury	-7773
notation	-7774
▁implications	-7775
arc	-7776
stackrel	-7777
▁changing	-7778
Po	-7779
UNC	-7780
▁hex	-7781
▁theme	-7782
▁vessel	-7783
sufficient	-7784
▁distinctive	-7785
▁imaging	-7786
▁instant	-7787
▁intensity	-7788
urg	-7789
▁oral	-7790
▁hope	-7791
pher	-7792
scrib	-7793
▁sales	-7794
za	-7795
ancer	-7796
Boolean	-7797
summary	-7798
ffff	-7799
atalog	-7800
▁changed	-7801
xs	-7802
lap	-7803
▁doll	-7804
▁rapidly	-7805
▁determining	-7806
▁Basic	-7807
▁ecological	-7808
▁swe	-7809
▁Product	-7810
wer	-7811
▁intersect	-7812
'].	-7813
writer	-7814
getElement	-7815
cean	-7816
tics	-7817
▁metabolic	-7818
/{	-7819
ether	-7820
driven	-7821
▁Divis	-7822
▁Ob	-7823
▁secondary	-7824
▁diseases	-7825
▁progression	-7826
Edit	-7827
torch	-7828
▁Char	-7829
}).	-7830
▁haz	-7831
▁aws	-7832
iverse	-7833
▁capture	-7834
▁freedom	-7835
aming	-7836
house	-7837
▁priv	-7838
bottom	-7839
▁dependent	-7840
ategy	-7841
BUG	-7842
▁applies	-7843
▁regional	-7844
▁emissions	-7845
mov	-7846
▁trace	-7847
▁builder	-7848
MD	-7849
price	-7850
▁examined	-7851
mo	-7852
\",	-7853
zone	-7854
aser	-7855
▁Dist	-7856
ventory	-7857
▁audio	-7858
▁SQL	-7859
▁horm	-7860
▁curric	-7861
▁chunk	-7862
arios	-7863
tools	-7864
▁secret	-7865
▁spectrum	-7866
Writer	-7867
▁School	-7868
▁journal	-7869
▁understood	-7870
equiv	-7871
▁driving	-7872
▁schem	-7873
▁analyzing	-7874
▁seek	-7875
▁alloc	-7876
itud	-7877
prod	-7878
▁dro	-7879
▁constructed	-7880
Hence	-7881
▁segments	-7882
)',	-7883
Role	-7884
zy	-7885
Conf	-7886
▁median	-7887
▁examination	-7888
▁Image	-7889
▁paths	-7890
▁Center	-7891
▁metadata	-7892
Big	-7893
lets	-7894
Render	-7895
▁displacement	-7896
pb	-7897
ste	-7898
▁Standard	-7899
▁Your	-7900
▁breath	-7901
rig	-7902
▁attr	-7903
▁operates	-7904
▁tick	-7905
sequence	-7906
▁Why	-7907
▁Factors	-7908
▁sensitivity	-7909
▁demonstrates	-7910
Dist	-7911
seed	-7912
"/	-7913
::{	-7914
ANG	-7915
▁variations	-7916
ipe	-7917
BASE	-7918
▁advancing	-7919
oval	-7920
▁intervals	-7921
▁chance	-7922
▁nations	-7923
▁era	-7924
initialize	-7925
:]	-7926
▁tx	-7927
▁PR	-7928
▁manner	-7929
▁released	-7930
▁availability	-7931
▁tox	-7932
▁displ	-7933
▁diversity	-7934
▁rough	-7935
ospital	-7936
manager	-7937
empl	-7938
otion	-7939
ued	-7940
▁utility	-7941
collection	-7942
▁'\	-7943
▁Free	-7944
▁Associ	-7945
▁nation	-7946
lint	-7947
▁Journal	-7948
▁_{	-7949
master	-7950
perm	-7951
▁Max	-7952
Required	-7953
▁expectations	-7954
▁intersection	-7955
▁"",	-7956
▁rac	-7957
Program	-7958
Only	-7959
erial	-7960
▁trying	-7961
▁Integer	-7962
▁Equation	-7963
ORY	-7964
▁lever	-7965
Te	-7966
Two	-7967
)/(	-7968
called	-7969
epoch	-7970
▁earn	-7971
▁indicated	-7972
unique	-7973
"},	-7974
▁cuda	-7975
▁props	-7976
Variable	-7977
▁sections	-7978
_;	-7979
▁teeth	-7980
CB	-7981
inese	-7982
▁analog	-7983
▁evaluating	-7984
▁cat	-7985
▁intu	-7986
cope	-7987
▁proportional	-7988
dc	-7989
▁{},	-7990
▁exercises	-7991
▁improvements	-7992
▁trends	-7993
▁attract	-7994
▁tro	-7995
▁dual	-7996
▁Down	-7997
▁Examples	-7998
ya	-7999
repo	-8000
▁Elect	-8001
▁expanded	-8002
El	-8003
bc	-8004
fun	-8005
▁cong	-8006
▁links	-8007
ILITY	-8008
▁profit	-8009
ilibrium	-8010
▁entirely	-8011
▁situations	-8012
▁kernel	-8013
▁carefully	-8014
Nullable	-8015
ses	-8016
▁quantities	-8017
Rad	-8018
fa	-8019
▁worth	-8020
urrence	-8021
Selection	-8022
month	-8023
member	-8024
▁participation	-8025
▁discussed	-8026
concat	-8027
caffe	-8028
derive	-8029
▁readers	-8030
▁assumption	-8031
▁pharm	-8032
▁consistency	-8033
▁confirmed	-8034
▁Foundation	-8035
▁Newton	-8036
▁algebraic	-8037
margin	-8038
emp	-8039
Expression	-8040
layers	-8041
▁fails	-8042
▁reached	-8043
▁ip	-8044
▁pound	-8045
▁Department	-8046
mazon	-8047
▁javax	-8048
▁protocol	-8049
▁phenomenon	-8050
Multi	-8051
▁layout	-8052
rim	-8053
distance	-8054
ptember	-8055
▁played	-8056
irections	-8057
▁alt	-8058
"])	-8059
Common	-8060
▁survey	-8061
alking	-8062
upload	-8063
▁Level	-8064
▁traditions	-8065
cpy	-8066
▁Hence	-8067
tc	-8068
▁teams	-8069
illing	-8070
▁minimize	-8071
▁bot	-8072
▁male	-8073
Domain	-8074
ober	-8075
comfort	-8076
▁master	-8077
Argument	-8078
short	-8079
▁Solve	-8080
:-	-8081
▁organiz	-8082
GB	-8083
Cur	-8084
UNT	-8085
ael	-8086
▁Mc	-8087
ifferent	-8088
▁consumer	-8089
▁Rad	-8090
▁Draw	-8091
Tool	-8092
▁America	-8093
▁unsigned	-8094
▁pars	-8095
▁mapping	-8096
cppgl	-8097
Struct	-8098
▁pieces	-8099
▁Develop	-8100
▁route	-8101
Loader	-8102
▁delib	-8103
Cond	-8104
Perm	-8105
ought	-8106
amount	-8107
▁pull	-8108
variable	-8109
▁delivered	-8110
toEqual	-8111
extend	-8112
cost	-8113
▁arc	-8114
▁outer	-8115
▁assemb	-8116
▁producing	-8117
▁compelling	-8118
▁-=	-8119
Sp	-8120
ects	-8121
▁pregn	-8122
ench	-8123
▁guidelines	-8124
▁pret	-8125
▁matches	-8126
kind	-8127
stat	-8128
▁acts	-8129
$('#	-8130
vars	-8131
ipping	-8132
▁habit	-8133
▁ends	-8134
secutive	-8135
▁simplify	-8136
ERS	-8137
▁lingu	-8138
ifdef	-8139
Network	-8140
▁patent	-8141
gorithm	-8142
Scale	-8143
▁walk	-8144
ossible	-8145
▁weights	-8146
▁electronic	-8147
asm	-8148
lers	-8149
osph	-8150
hr	-8151
router	-8152
BL	-8153
▁protective	-8154
Vertex	-8155
▁Unless	-8156
MC	-8157
▁York	-8158
Transform	-8159
icing	-8160
Plugin	-8161
FC	-8162
▁termin	-8163
best	-8164
datetime	-8165
Mapping	-8166
▁principal	-8167
▁completely	-8168
▁preventing	-8169
Enum	-8170
video	-8171
▁Path	-8172
sizeof	-8173
▁identification	-8174
▁produces	-8175
▁Node	-8176
ryption	-8177
▁labels	-8178
▁bring	-8179
▁logging	-8180
iom	-8181
▁lowest	-8182
Sim	-8183
▁adher	-8184
Len	-8185
▁skill	-8186
▁schema	-8187
▁alcohol	-8188
▁planet	-8189
▁hous	-8190
▁sold	-8191
▁directed	-8192
anned	-8193
Constant	-8194
▁managed	-8195
}+\	-8196
Card	-8197
▁hon	-8198
Batch	-8199
▁conscious	-8200
▁rain	-8201
epsilon	-8202
USE	-8203
▁./	-8204
Draw	-8205
▁fear	-8206
▁traffic	-8207
Password	-8208
>"	-8209
Constants	-8210
pow	-8211
Fail	-8212
etric	-8213
▁python	-8214
platform	-8215
▁xs	-8216
here	-8217
CHECK	-8218
▁constitut	-8219
▁explored	-8220
But	-8221
▁grounded	-8222
newcommand	-8223
▁substance	-8224
▁flo	-8225
etween	-8226
▁indices	-8227
ativity	-8228
▁aligned	-8229
ierarch	-8230
▁timeout	-8231
▁bone	-8232
▁renew	-8233
▁_.	-8234
▁Tra	-8235
}&	-8236
▁Rob	-8237
▁Will	-8238
▁straightforward	-8239
Attr	-8240
ota	-8241
dirname	-8242
interval	-8243
▁creates	-8244
▁languages	-8245
▁σ	-8246
ading	-8247
▁calc	-8248
▁picture	-8249
▁←	-8250
eties	-8251
▁driver	-8252
▁metrics	-8253
▁TO	-8254
▁identifier	-8255
▁medications	-8256
▁reports	-8257
▁interact	-8258
▁nit	-8259
sleep	-8260
▁href	-8261
▁foreign	-8262
oggle	-8263
.\	-8264
scal	-8265
aligned	-8266
▁atmosphere	-8267
omorph	-8268
▁touch	-8269
▁convey	-8270
▁gap	-8271
▁extrem	-8272
▁angular	-8273
CHAR	-8274
Thus	-8275
phone	-8276
segment	-8277
▁French	-8278
▁raised	-8279
▁preferred	-8280
uma	-8281
▁ded	-8282
▁female	-8283
▁Sk	-8284
▁identical	-8285
Serial	-8286
▁careful	-8287
▁none	-8288
Profile	-8289
▁inquiry	-8290
▁examines	-8291
▁Long	-8292
udget	-8293
▁implies	-8294
▁complications	-8295
Failed	-8296
▁updates	-8297
▁leave	-8298
▁strain	-8299
▁opportunity	-8300
▁comparison	-8301
docker	-8302
▁Answer	-8303
▁African	-8304
PP	-8305
PACK	-8306
▁opts	-8307
▁station	-8308
▁aest	-8309
▁inherent	-8310
)^{	-8311
small	-8312
▁conj	-8313
▁LL	-8314
▁}{	-8315
▁Skin	-8316
▁vehicles	-8317
▁scholarly	-8318
ULE	-8319
phantom	-8320
roduction	-8321
▁East	-8322
▁staff	-8323
▁whereas	-8324
▁regulation	-8325
owner	-8326
▁proteins	-8327
database	-8328
▁examine	-8329
▁classroom	-8330
▁plate	-8331
▁comparing	-8332
multi	-8333
▁June	-8334
▁gard	-8335
arshal	-8336
▁ingred	-8337
▁starts	-8338
▁combinations	-8339
▁genu	-8340
▁seems	-8341
EW	-8342
▁guess	-8343
▁drink	-8344
▁modify	-8345
vs	-8346
▁gir	-8347
▁Micro	-8348
mediate	-8349
supported	-8350
Volume	-8351
▁plans	-8352
▁generating	-8353
riptions	-8354
▁treated	-8355
:`	-8356
▁immun	-8357
Activity	-8358
▁timestamp	-8359
▁BC	-8360
▁merely	-8361
▁scenarios	-8362
gamma	-8363
▁repro	-8364
▁tension	-8365
iforn	-8366
▁lists	-8367
▁advised	-8368
lined	-8369
▁View	-8370
oday	-8371
▁Bar	-8372
▁cry	-8373
▁branch	-8374
GS	-8375
▁March	-8376
▁sed	-8377
▁vec	-8378
▁eyes	-8379
changed	-8380
▁econom	-8381
___	-8382
emy	-8383
▁trac	-8384
>&	-8385
▁SD	-8386
▁engaged	-8387
▁= 	-8388
ldots	-8389
▁looks	-8390
▁explores	-8391
bas	-8392
Full	-8393
[\	-8394
rogen	-8395
▁La	-8396
itter	-8397
▁Gree	-8398
Section	-8399
LI	-8400
boot	-8401
ipse	-8402
▁marg	-8403
▁recon	-8404
▁illustrates	-8405
cpu	-8406
volume	-8407
▁reactions	-8408
▁flexibility	-8409
asion	-8410
▁workers	-8411
oma	-8412
▁..	-8413
▁Which	-8414
services	-8415
▁Consider	-8416
Eff	-8417
pdf	-8418
eled	-8419
▁modeling	-8420
▁arises	-8421
▁fourth	-8422
ANT	-8423
▁tooth	-8424
▁lifest	-8425
▁feas	-8426
▁fine	-8427
Interval	-8428
******	-8429
*-	-8430
rote	-8431
▁bad	-8432
esian	-8433
▁road	-8434
▁majority	-8435
▁processed	-8436
▁prices	-8437
▁solved	-8438
▁agricultural	-8439
▁Sun	-8440
cember	-8441
ourses	-8442
unces	-8443
▁stay	-8444
'(	-8445
▁September	-8446
messages	-8447
▁gradually	-8448
CRIPTION	-8449
▁cele	-8450
▁peer	-8451
Selected	-8452
ito	-8453
ooks	-8454
▁maintained	-8455
("%	-8456
speed	-8457
▁employees	-8458
)));	-8459
ophy	-8460
ooper	-8461
▁interests	-8462
Bean	-8463
apes	-8464
▁vibr	-8465
▁pointer	-8466
▁symbolic	-8467
oe	-8468
▁sugar	-8469
▁leaving	-8470
▁collaborative	-8471
▁Prof	-8472
▁pand	-8473
▁vent	-8474
Repository	-8475
HS	-8476
▁diagnosis	-8477
▁artificial	-8478
]['	-8479
▁Air	-8480
▁θ	-8481
ucl	-8482
▁extent	-8483
▁inherently	-8484
)=\	-8485
ARB	-8486
▁fabric	-8487
▁Physics	-8488
▁Calculator	-8489
lop	-8490
release	-8491
▁nothing	-8492
FLAG	-8493
optim	-8494
Flags	-8495
▁perspectives	-8496
cules	-8497
▁reader	-8498
▁presentation	-8499
Plan	-8500
virtual	-8501
▁Western	-8502
▁prepared	-8503
elem	-8504
▁optimization	-8505
▁dou	-8506
▁depict	-8507
▁revers	-8508
▁validation	-8509
ixels	-8510
▁exert	-8511
RECT	-8512
▁friend	-8513
▁learners	-8514
▁versions	-8515
ocation	-8516
isation	-8517
Prop	-8518
▁scalar	-8519
▁circles	-8520
Trace	-8521
▁ampl	-8522
▁mort	-8523
▁forming	-8524
ht	-8525
▁Top	-8526
▁Volume	-8527
▁impacts	-8528
>.	-8529
]+	-8530
dots	-8531
Despite	-8532
enabled	-8533
▁organizational	-8534
HERE	-8535
▁ped	-8536
CONFIG	-8537
▁Lo	-8538
▁lemma	-8539
Calculate	-8540
factory	-8541
ifornia	-8542
▁January	-8543
▁educators	-8544
binary	-8545
Term	-8546
▁"./	-8547
▁minimizing	-8548
tp	-8549
}$,	-8550
plain	-8551
Iterator	-8552
ga	-8553
ADD	-8554
▁sea	-8555
▁burn	-8556
▁mist	-8557
▁Window	-8558
rime	-8559
atile	-8560
ividuals	-8561
▁ValueError	-8562
('<	-8563
memory	-8564
disable	-8565
▁federal	-8566
▁covered	-8567
▁√	-8568
fall	-8569
media	-8570
▁influences	-8571
▁assessments	-8572
▁developments	-8573
▁Are	-8574
▁introduces	-8575
▁measurable	-8576
focus	-8577
Display	-8578
▁eliminate	-8579
ENC	-8580
park	-8581
▁FOR	-8582
▁issued	-8583
resources	-8584
▁believed	-8585
integ	-8586
support	-8587
▁sessions	-8588
Engine	-8589
▁Chinese	-8590
▁({	-8591
▁throw	-8592
Sk	-8593
▁pursu	-8594
▁yields	-8595
▁investigation	-8596
▁October	-8597
ntax	-8598
ivated	-8599
▁sharing	-8600
indices	-8601
▁Formula	-8602
ND	-8603
exact	-8604
pad	-8605
nb	-8606
("\	-8607
▁fold	-8608
Memory	-8609
▁Return	-8610
zeros	-8611
undefined	-8612
▁cppgl	-8613
sudo	-8614
▁Tone	-8615
PASSWORD	-8616
▁difficulty	-8617
pair	-8618
▁kilometers	-8619
▁powers	-8620
Problem	-8621
▁publication	-8622
_(	-8623
series	-8624
▁minute	-8625
▁analyzed	-8626
ruary	-8627
▁serial	-8628
'));	-8629
▁battery	-8630
▁turns	-8631
Copy	-8632
directory	-8633
▁advancements	-8634
▁tab	-8635
▁impair	-8636
▁discovery	-8637
▁innovative	-8638
fast	-8639
▁Education	-8640
▁establishing	-8641
▁incorporating	-8642
Details	-8643
ACT	-8644
zer	-8645
▁Register	-8646
▁businesses	-8647
runtime	-8648
▁Call	-8649
className	-8650
▁disorder	-8651
idents	-8652
:\	-8653
Ac	-8654
extract	-8655
▁outlines	-8656
▁consecutive	-8657
/$	-8658
cript	-8659
mutable	-8660
KE	-8661
▁gall	-8662
▁pivotal	-8663
▁prev	-8664
▁assets	-8665
Identifier	-8666
inct	-8667
▁bed	-8668
▁fert	-8669
outhern	-8670
bold	-8671
ndle	-8672
Eq	-8673
▁characteristic	-8674
prime	-8675
▁insufficient	-8676
emon	-8677
▁advancement	-8678
Track	-8679
▁solely	-8680
▁started	-8681
▁sensitive	-8682
Any	-8683
▁diagonal	-8684
▁temporary	-8685
▁sing	-8686
valuate	-8687
▁boundaries	-8688
gers	-8689
▁breast	-8690
▁IF	-8691
Send	-8692
▁icon	-8693
Figure	-8694
Widget	-8695
▁administr	-8696
▁ounces	-8697
▁California	-8698
▁definitions	-8699
-(	-8700
nce	-8701
}</	-8702
}'	-8703
▁),	-8704
joint	-8705
▁Link	-8706
▁sell	-8707
▁ranging	-8708
SL	-8709
akers	-8710
▁combining	-8711
▁approximation	-8712
resp	-8713
▁sizes	-8714
▁categories	-8715
▁Num	-8716
▁Page	-8717
riends	-8718
▁analytical	-8719
▁primes	-8720
▁categor	-8721
▁balls	-8722
▁Comput	-8723
▁coding	-8724
(/	-8725
▁Dev	-8726
▁Non	-8727
Usage	-8728
▁font	-8729
▁Block	-8730
▁dtype	-8731
steps	-8732
iration	-8733
verify	-8734
▁corresponds	-8735
hide	-8736
▁console	-8737
▁sampling	-8738
▁eventually	-8739
▁safeg	-8740
▁corner	-8741
▁equilibrium	-8742
tn	-8743
▁mand	-8744
▁bodies	-8745
▁diagnostic	-8746
▁tradition	-8747
▁die	-8748
▁img	-8749
blocks	-8750
▁End	-8751
.")	-8752
Serv	-8753
CCESS	-8754
▁ordered	-8755
DC	-8756
▁trials	-8757
direction	-8758
▁emphasis	-8759
▁designated	-8760
umps	-8761
▁Only	-8762
▁discomfort	-8763
▁"""	-8764
▁appeal	-8765
▁defining	-8766
▁\"	-8767
legal	-8768
JECT	-8769
square	-8770
▁leaders	-8771
▁exponent	-8772
checked	-8773
initely	-8774
........	-8775
▁shell	-8776
▁dictionary	-8777
▁tens	-8778
▁filename	-8779
▁love	-8780
history	-8781
▁\,	-8782
▁speech	-8783
negative	-8784
ropy	-8785
INCRE	-8786
▁meta	-8787
▁anything	-8788
▁Tim	-8789
▁German	-8790
ulf	-8791
▁susp	-8792
oreign	-8793
▁interior	-8794
▁lambda	-8795
asp	-8796
▁April	-8797
▁Vector	-8798
▁tracking	-8799
Nodes	-8800
▁permut	-8801
▁Pres	-8802
ammation	-8803
▁contrad	-8804
▁arbitrary	-8805
DP	-8806
CLASS	-8807
getName	-8808
▁Boolean	-8809
▁subtraction	-8810
&&	-8811
sequently	-8812
▁surgical	-8813
▁illness	-8814
▁institutional	-8815
eners	-8816
▁domin	-8817
▁execute	-8818
▁computational	-8819
▁Plan	-8820
'},	-8821
since	-8822
▁Indian	-8823
▁sand	-8824
▁familiar	-8825
ipt	-8826
▁remark	-8827
▁ell	-8828
ani	-8829
▁PM	-8830
▁greatest	-8831
ira	-8832
QUES	-8833
▁waves	-8834
▁ignore	-8835
▁matching	-8836
aped	-8837
iders	-8838
factor	-8839
Ax	-8840
▁pipe	-8841
Proto	-8842
▁circul	-8843
▁Request	-8844
blue	-8845
▁tor	-8846
▁star	-8847
Ids	-8848
▁decrease	-8849
▁removal	-8850
exception	-8851
▁receiving	-8852
Interface	-8853
▁Bay	-8854
▁aligns	-8855
▁recipro	-8856
COMM	-8857
cred	-8858
counter	-8859
▁manual	-8860
actic	-8861
illed	-8862
▁Problems	-8863
▁visibility	-8864
▁considering	-8865
▁independently	-8866
▁arm	-8867
icker	-8868
▁orth	-8869
▁exempl	-8870
ceptor	-8871
▁reinforcing	-8872
DEX	-8873
NET	-8874
▁Element	-8875
TX	-8876
▁Make	-8877
▁Rule	-8878
future	-8879
Route	-8880
▁gained	-8881
▁believe	-8882
▁pd	-8883
Rect	-8884
▁highlighted	-8885
Dict	-8886
▁feat	-8887
ordinate	-8888
▁cellular	-8889
▁echo	-8890
download	-8891
Tx	-8892
▁filled	-8893
▁Hand	-8894
▁August	-8895
▁raises	-8896
argv	-8897
efficient	-8898
▁competitive	-8899
iki	-8900
▁thr	-8901
lik	-8902
]},	-8903
▁simulation	-8904
▁af	-8905
▁flags	-8906
▁quite	-8907
~~~~~~~~	-8908
▁happens	-8909
▁architecture	-8910
Lock	-8911
▁delta	-8912
▁genes	-8913
=\"	-8914
Font	-8915
▁presc	-8916
▁Amazon	-8917
▁amounts	-8918
▁rw	-8919
ovascular	-8920
▁assessing	-8921
logical	-8922
olumes	-8923
__.	-8924
▁(((	-8925
▁carried	-8926
▁accurately	-8927
▁Ga	-8928
URCE	-8929
▁vm	-8930
yield	-8931
▁Order	-8932
▁offered	-8933
▁ter	-8934
ALTER	-8935
``,	-8936
▁took	-8937
▁sustainability	-8938
Files	-8939
orient	-8940
▁alongside	-8941
▁incorrect	-8942
▁uncertainty	-8943
??	-8944
▁experts	-8945
▁cycles	-8946
amaz	-8947
▁December	-8948
▁($	-8949
ORS	-8950
▁pathways	-8951
but	-8952
constant	-8953
▁kinetic	-8954
MB	-8955
▁watch	-8956
However	-8957
▁behavioral	-8958
▁providers	-8959
zing	-8960
Global	-8961
▁billion	-8962
onom	-8963
▁isolated	-8964
▁menu	-8965
▁transformative	-8966
▁ArrayList	-8967
forms	-8968
▁slice	-8969
Prefix	-8970
irical	-8971
▁handler	-8972
▁activation	-8973
ogene	-8974
▁calculus	-8975
Timestamp	-8976
flu	-8977
feed	-8978
warn	-8979
▁mel	-8980
▁bias	-8981
▁sheet	-8982
DESCRIPTION	-8983
effective	-8984
▁delivering	-8985
▁rock	-8986
Answer	-8987
▁corpor	-8988
▁suffer	-8989
▁cycl	-8990
ocols	-8991
iones	-8992
▁pron	-8993
▁(_	-8994
▁ready	-8995
▁El	-8996
bert	-8997
▁vitamin	-8998
▁concrete	-8999
Sort	-9000
▁neural	-9001
XXX	-9002
duration	-9003
▁embedded	-9004
▁»	-9005
▁LCM	-9006
through	-9007
▁buy	-9008
language	-9009
GER	-9010
▁sentence	-9011
metrics	-9012
▁curriculum	-9013
springframework	-9014
▁Message	-9015
▁Fractions	-9016
'}	-9017
▁heavy	-9018
▁varies	-9019
Registry	-9020
▁linguistic	-9021
▁Param	-9022
▁sensor	-9023
dispatch	-9024
▁efficiently	-9025
▁".	-9026
▁terminal	-9027
▁inclusion	-9028
▁passing	-9029
▁documents	-9030
▁robot	-9031
▁substances	-9032
dtype	-9033
▁centimeters	-9034
▁sac	-9035
▁rising	-9036
▁fragment	-9037
▁explicitly	-9038
▁-*-	-9039
▁preferences	-9040
▁pet	-9041
Space	-9042
▁divine	-9043
▁narrow	-9044
▁classification	-9045
AIN	-9046
erialize	-9047
▁Ke	-9048
▁Ent	-9049
▁Nat	-9050
▁nearest	-9051
▁sett	-9052
▁Unlike	-9053
▁bacteria	-9054
▁dot	-9055
azy	-9056
▁meter	-9057
▁reset	-9058
▁sus	-9059
▁outputs	-9060
awn	-9061
▁advis	-9062
▁displayed	-9063
yy	-9064
ikip	-9065
▁vs	-9066
▁Jew	-9067
▁lie	-9068
Results	-9069
reference	-9070
OW	-9071
ynchron	-9072
Look	-9073
▁editor	-9074
aria	-9075
ammat	-9076
▁unless	-9077
▁evident	-9078
▁emphasize	-9079
paren	-9080
weights	-9081
▁distances	-9082
▁assumptions	-9083
▁discussions	-9084
▁November	-9085
▁affecting	-9086
Nd	-9087
▁[(	-9088
▁Emp	-9089
floor	-9090
elength	-9091
▁Em	-9092
accept	-9093
'+	-9094
//!	-9095
secret	-9096
▁virus	-9097
▁inflammation	-9098
ica	-9099
▁exposed	-9100
how	-9101
mig	-9102
▁phone	-9103
▁milk	-9104
▁Christian	-9105
▁toler	-9106
Pattern	-9107
▁intric	-9108
▁specify	-9109
LEN	-9110
▁standardized	-9111
iteral	-9112
▁django	-9113
▁targets	-9114
inn	-9115
squ	-9116
elsius	-9117
▁tuple	-9118
 +	-9119
BIT	-9120
ato	-9121
()));	-9122
▁degrad	-9123
▁-/	-9124
Free	-9125
▁clo	-9126
Messages	-9127
 ` 	-9128
itness	-9129
▁colleag	-9130
▁manufactur	-9131
MET	-9132
amazon	-9133
▁Section	-9134
▁scenario	-9135
nil	-9136
ered	-9137
▁rigid	-9138
▁workflow	-9139
▁emergency	-9140
([]	-9141
▁stated	-9142
`,`	-9143
ocy	-9144
▁Africa	-9145
ikipedia	-9146
)(((	-9147
▁schedule	-9148
More	-9149
note	-9150
▁Sign	-9151
▁validate	-9152
▁instructions	-9153
▁gram	-9154
▁tutorial	-9155
="${	-9156
▁Mean	-9157
ADDR	-9158
ulin	-9159
Integ	-9160
▁faces	-9161
ignment	-9162
▁headers	-9163
▁reporting	-9164
DD	-9165
▁cleaning	-9166
Art	-9167
uits	-9168
▁Altern	-9169
▁compact	-9170
▁filters	-9171
▁plastic	-9172
▁detected	-9173
units	-9174
▁traits	-9175
▁binding	-9176
.',	-9177
Cor	-9178
▁ml	-9179
dump	-9180
deep	-9181
losed	-9182
▁cart	-9183
>::	-9184
Mut	-9185
▁join	-9186
▁dt	-9187
▁firm	-9188
▁themes	-9189
▁moisture	-9190
configuration	-9191
fb	-9192
icians	-9193
▁constants	-9194
▁replacement	-9195
IPS	-9196
▁UK	-9197
▁Yet	-9198
direct	-9199
▁respir	-9200
ensus	-9201
▁dead	-9202
▁Δ	-9203
▁Opt	-9204
▁disk	-9205
▁hence	-9206
ham	-9207
▁AL	-9208
Auto	-9209
▁ever	-9210
▁legacy	-9211
cli	-9212
▁Dav	-9213
Import	-9214
▁Please	-9215
security	-9216
Tip	-9217
hal	-9218
▁UN	-9219
▁goods	-9220
compute	-9221
ABILITY	-9222
parameter	-9223
Initialize	-9224
▁illustrated	-9225
▁assumed	-9226
ano	-9227
▁timing	-9228
dst	-9229
nav	-9230
▁scan	-9231
measure	-9232
extern	-9233
stances	-9234
|.	-9235
SEC	-9236
erior	-9237
styles	-9238
▁February	-9239
Bit	-9240
cil	-9241
▁dy	-9242
Bool	-9243
VICE	-9244
usters	-9245
▁coher	-9246
Word	-9247
▁TR	-9248
goto	-9249
▁experiments	-9250
apers	-9251
▁Output	-9252
DEBUG	-9253
▁illustrate	-9254
▁narratives	-9255
>\	-9256
rypted	-9257
▁camera	-9258
fire	-9259
▁maps	-9260
▁Access	-9261
▁sphere	-9262
Category	-9263
▁tissues	-9264
▁scientists	-9265
▁distinction	-9266
brid	-9267
▁iron	-9268
▁steel	-9269
▁'-	-9270
▁Po	-9271
material	-9272
Db	-9273
May	-9274
"]["	-9275
extra	-9276
▁encoding	-9277
▁).	-9278
ounced	-9279
▁observe	-9280
rank	-9281
sert	-9282
▁Del	-9283
▁launch	-9284
iced	-9285
▁Sche	-9286
charge	-9287
friend	-9288
▁almost	-9289
mega	-9290
▁bank	-9291
NotFound	-9292
leton	-9293
▁varying	-9294
▁philosoph	-9295
▁installation	-9296
iii	-9297
stage	-9298
single	-9299
▁violence	-9300
]*	-9301
hm	-9302
)$.	-9303
▁merge	-9304
▁kwargs	-9305
▁equally	-9306
▁systematic	-9307
▁Simple	-9308
Has	-9309
▁Fe	-9310
Orig	-9311
Duration	-9312
▁assistance	-9313
getElementById	-9314
▁Vis	-9315
asive	-9316
btn	-9317
rho	-9318
LOC	-9319
▁Ident	-9320
▁asset	-9321
▁computed	-9322
▁introduction	-9323
▁moments	-9324
----------	-9325
▁July	-9326
expand	-9327
ichael	-9328
nu	-9329
hyth	-9330
antity	-9331
▁giving	-9332
▁payload	-9333
▁cancel	-9334
▁career	-9335
▁former	-9336
▁repair	-9337
▁Root	-9338
▁blog	-9339
▁Field	-9340
▁nine	-9341
driver	-9342
▁PAR	-9343
Limit	-9344
pipeline	-9345
ERT	-9346
ali	-9347
fol	-9348
▁Ver	-9349
▁Most	-9350
▁Analysis	-9351
▁AUTO	-9352
▁puzz	-9353
VI	-9354
ammatory	-9355
"}	-9356
trim	-9357
▁voice	-9358
▁funding	-9359
isis	-9360
eness	-9361
seconds	-9362
▁parser	-9363
Dash	-9364
▁$$(	-9365
channels	-9366
▁coverage	-9367
▁perman	-9368
▁relies	-9369
Region	-9370
ientific	-9371
▁Network	-9372
▁restore	-9373
▁polar	-9374
▁prepare	-9375
Just	-9376
▁Roman	-9377
readonly	-9378
▁strongly	-9379
blob	-9380
▁positioned	-9381
▁converted	-9382
FIN	-9383
▁listed	-9384
▁buf	-9385
▁peace	-9386
▁quantum	-9387
oting	-9388
▁replaced	-9389
yled	-9390
typename	-9391
controller	-9392
equalities	-9393
▁PropTypes	-9394
WR	-9395
loading	-9396
▁|=	-9397
▁INT	-9398
InternalFrame	-9399
TIONS	-9400
▁deal	-9401
aus	-9402
▁]];	-9403
▁granted	-9404
ideos	-9405
entally	-9406
▁lifestyle	-9407
▁acute	-9408
▁Pos	-9409
Short	-9410
omework	-9411
INCREMENT	-9412
▁adverse	-9413
▁internet	-9414
peat	-9415
▁Commun	-9416
▁introduce	-9417
edges	-9418
▁congru	-9419
▁causing	-9420
▁traject	-9421
▁preserving	-9422
▁trigon	-9423
▁cylinder	-9424
▁φ	-9425
Pop	-9426
entries	-9427
obile	-9428
▁invention	-9429
▁Ant	-9430
▁multiples	-9431
Seg	-9432
details	-9433
▁molecules	-9434
XY	-9435
▁harmful	-9436
▁payment	-9437
▁probably	-9438
Go	-9439
Enter	-9440
▁Division	-9441
asy	-9442
posite	-9443
Simple	-9444
editor	-9445
createElement	-9446
▁dys	-9447
▁chrom	-9448
Extension	-9449
Inv	-9450
▁Off	-9451
▁vict	-9452
itational	-9453
atom	-9454
ESTAMP	-9455
▁personalized	-9456
DECL	-9457
sent	-9458
▁acting	-9459
▁removing	-9460
iology	-9461
▁depart	-9462
band	-9463
esis	-9464
,$	-9465
mkdir	-9466
▁Next	-9467
Rev	-9468
▁evolved	-9469
▁integrate	-9470
Mapp	-9471
 (	-9472
olf	-9473
▁equipped	-9474
defer	-9475
▁fetch	-9476
}",	-9477
▁tags	-9478
▁smart	-9479
▁finally	-9480
▁superior	-9481
currentLoad	-9482
▁],	-9483
▁depression	-9484
riers	-9485
iterator	-9486
▁explained	-9487
▁occurring	-9488
RT	-9489
mv	-9490
▁tumor	-9491
▁Determine	-9492
▁Har	-9493
General	-9494
▁tempor	-9495
LLLL	-9496
▁Est	-9497
▁stick	-9498
▁playing	-9499
orrow	-9500
▁facilitate	-9501
black	-9502
CurrentLoad	-9503
▁attributed	-9504
+(	-9505
rypto	-9506
plates	-9507
▁revis	-9508
Initial	-9509
▁timely	-9510
olves	-9511
▁resemb	-9512
__)	-9513
what	-9514
▁fruit	-9515
transaction	-9516
BY	-9517
scalar	-9518
}:	-9519
latest	-9520
Consider	-9521
▁ownership	-9522
rules	-9523
▁'../../	-9524
▁learned	-9525
▁ft	-9526
▁mouse	-9527
▁sched	-9528
SUCCESS	-9529
wall	-9530
▁sav	-9531
Parse	-9532
▁vulnerable	-9533
loyment	-9534
GI	-9535
rict	-9536
▁gradient	-9537
rawCurrentLoad	-9538
▁amb	-9539
▁HTTP	-9540
▁adoption	-9541
dden	-9542
ctors	-9543
▁leaf	-9544
▁Child	-9545
▁association	-9546
[(	-9547
▁affects	-9548
aration	-9549
Rate	-9550
▁gluc	-9551
condition	-9552
Tags	-9553
gp	-9554
▁featuring	-9555
period	-9556
ifference	-9557
▁circumstances	-9558
RR	-9559
scroll	-9560
▁mirror	-9561
▁rigorous	-9562
▁inclusive	-9563
▁alert	-9564
▁nucle	-9565
rv	-9566
▁Hy	-9567
▁Organ	-9568
trigger	-9569
disabled	-9570
▁Practice	-9571
-}	-9572
(``	-9573
Scope	-9574
)`	-9575
Real	-9576
agnetic	-9577
TestCase	-9578
▁ms	-9579
subset	-9580
overline	-9581
▁laboratory	-9582
▁Port	-9583
SPI	-9584
izers	-9585
tuple	-9586
▁Celsius	-9587
▁medication	-9588
pmatrix	-9589
▁Explanation	-9590
▁df	-9591
▁involvement	-9592
▁sharp	-9593
▁Convert	-9594
zen	-9595
oids	-9596
RESULT	-9597
indexOf	-9598
▁reinforce	-9599
^(	-9600
rip	-9601
rought	-9602
▁discrete	-9603
Attributes	-9604
▁radio	-9605
elements	-9606
pytest	-9607
▁enumerate	-9608
▁destination	-9609
▁bind	-9610
▁cardiovascular	-9611
:%	-9612
SV	-9613
\",\"	-9614
▁universe	-9615
enty	-9616
compat	-9617
▁Resource	-9618
upper	-9619
▁protocols	-9620
▁beta	-9621
remote	-9622
atar	-9623
▁beam	-9624
NotNull	-9625
▁fs	-9626
door	-9627
▁sudden	-9628
prom	-9629
▁habits	-9630
▁ratios	-9631
▁possibility	-9632
Sm	-9633
▁bow	-9634
▁DO	-9635
▁stret	-9636
BB	-9637
riority	-9638
▁Learning	-9639
▁relevance	-9640
▁completion	-9641
TA	-9642
Main	-9643
▁colleagues	-9644
lege	-9645
alias	-9646
VALID	-9647
▁arise	-9648
▁panel	-9649
▁directions	-9650
Modal	-9651
▁owner	-9652
/${	-9653
>",	-9654
▁reven	-9655
LIST	-9656
apsed	-9657
Player	-9658
▁discount	-9659
Diff	-9660
▁Press	-9661
▁passes	-9662
▁viewed	-9663
▁disru	-9664
▁assignment	-9665
IVE	-9666
▁sql	-9667
▁Percent	-9668
UTH	-9669
ATTR	-9670
PECT	-9671
▁Eff	-9672
Socket	-9673
seline	-9674
balance	-9675
▁∀	-9676
Flag	-9677
HOME	-9678
simple	-9679
PD	-9680
▁zeros	-9681
Where	-9682
▁Disc	-9683
▁BY	-9684
abort	-9685
lands	-9686
▁coin	-9687
▁beaut	-9688
▁depos	-9689
▁installed	-9690
▁breed	-9691
▁Appro	-9692
▁radical	-9693
rated	-9694
Ra	-9695
overn	-9696
paths	-9697
▁coord	-9698
▁nuclear	-9699
▁domestic	-9700
▁perimeter	-9701
fp	-9702
gence	-9703
▁entities	-9704
tl	-9705
including	-9706
▁everything	-9707
NdEx	-9708
flat	-9709
Media	-9710
▁adopted	-9711
▁reaching	-9712
roke	-9713
▁soc	-9714
▁defines	-9715
▁displays	-9716
COMP	-9717
▁PDF	-9718
▁Tem	-9719
brief	-9720
Binary	-9721
hot	-9722
▁wat	-9723
proxy	-9724
HC	-9725
▁Word	-9726
▁▁▁▁▁▁▁▁▁▁▁	-9727
COUNT	-9728
protocol	-9729
Yes	-9730
Surface	-9731
rial	-9732
▁Our	-9733
▁tun	-9734
isely	-9735
embedd	-9736
▁Central	-9737
▁flexible	-9738
acci	-9739
▁scene	-9740
▁incons	-9741
▁indicators	-9742
▁underm	-9743
▁dominant	-9744
`);	-9745
▁rating	-9746
progress	-9747
▁contents	-9748
pection	-9749
▁advert	-9750
ja	-9751
IAL	-9752
actual	-9753
ashing	-9754
threshold	-9755
▁came	-9756
samples	-9757
ycl	-9758
ifth	-9759
▁Load	-9760
ignore	-9761
▁cutting	-9762
▁zone	-9763
Gen	-9764
▁texture	-9765
▁preserve	-9766
"+	-9767
▁'[	-9768
Edge	-9769
junit	-9770
▁liver	-9771
▁styles	-9772
▁yellow	-9773
Put	-9774
▁seam	-9775
��	-9776
▁ty	-9777
Email	-9778
▁mutual	-9779
▁fulfill	-9780
wt	-9781
Ang	-9782
▁[{	-9783
Sequence	-9784
▁threats	-9785
resentation	-9786
▁tone	-9787
ocratic	-9788
▁reveal	-9789
endpoint	-9790
▁Mass	-9791
▁interesting	-9792
holders	-9793
▁arrays	-9794
Exercise	-9795
Bot	-9796
tokens	-9797
▁nn	-9798
loys	-9799
ums	-9800
▁hit	-9801
atomic	-9802
Adapter	-9803
uly	-9804
fixed	-9805
▁runs	-9806
IMIT	-9807
mult	-9808
▁Big	-9809
▁administration	-9810
erry	-9811
native	-9812
▁unexpected	-9813
aby	-9814
▁wear	-9815
android	-9816
▁configurations	-9817
▁conceptual	-9818
▁eq	-9819
yaml	-9820
('#	-9821
▁decimals	-9822
filters	-9823
▁Whether	-9824
▁generator	-9825
▁·	-9826
Linear	-9827
outputs	-9828
▁opening	-9829
▁sensory	-9830
▁textbook	-9831
▁Environment	-9832
▁Probability	-9833
"):	-9834
hav	-9835
ora	-9836
poch	-9837
▁tub	-9838
▁'{	-9839
▁discourse	-9840
may	-9841
▁COLL	-9842
compare	-9843
▁addressed	-9844
▁orientation	-9845
▁probabilities	-9846
you	-9847
igenous	-9848
DIS	-9849
svg	-9850
eath	-9851
Light	-9852
▁coast	-9853
▁aggreg	-9854
ometer	-9855
verter	-9856
▁citiz	-9857
▁economy	-9858
▁medicine	-9859
▁*/;	-9860
jective	-9861
▁overview	-9862
ara	-9863
▁pin	-9864
onacci	-9865
▁dense	-9866
▁overs	-9867
vl	-9868
▁Solving	-9869
▁binomial	-9870
/--	-9871
▁winter	-9872
FUNC	-9873
▁beneath	-9874
▁articles	-9875
▁AM	-9876
▁flight	-9877
TIMESTAMP	-9878
▁assessed	-9879
SW	-9880
▁relax	-9881
▁designs	-9882
▁electricity	-9883
alert	-9884
merge	-9885
▁danger	-9886
▁genuine	-9887
▁abilities	-9888
▁expanding	-9889
▁inline	-9890
▁'%	-9891
phase	-9892
▁CAST	-9893
▁reflected	-9894
▁Day	-9895
within	-9896
▁excell	-9897
keep	-9898
Please	-9899
▁stems	-9900
▁modules	-9901
}}^{	-9902
▁desire	-9903
▁Pers	-9904
▁reasons	-9905
=%	-9906
PAC	-9907
scribe	-9908
▁comparable	-9909
green	-9910
▁repeat	-9911
OFF	-9912
▁covers	-9913
▁mother	-9914
▁Never	-9915
mathcal	-9916
▁friends	-9917
linux	-9918
iations	-9919
well	-9920
'][	-9921
wrapper	-9922
Implement	-9923
▁suc	-9924
unicode	-9925
▁Binary	-9926
umulative	-9927
OFTW	-9928
——	-9929
Editor	-9930
▁Canada	-9931
▁destroy	-9932
▁Gen	-9933
▁Mus	-9934
▁Prov	-9935
ordinates	-9936
▁aesthetic	-9937
▁regulations	-9938
▁tank	-9939
OFTWARE	-9940
Pointer	-9941
▁Real	-9942
PH	-9943
lay	-9944
▁inad	-9945
▁Ptr	-9946
▁border	-9947
▁budget	-9948
▁optical	-9949
▁maintains	-9950
TIC	-9951
▁EV	-9952
▁Without	-9953
▁portray	-9954
Many	-9955
▁Adv	-9956
▁Dem	-9957
▁divisor	-9958
tw	-9959
▁Var	-9960
▁denominators	-9961
▁communic	-9962
sat	-9963
iant	-9964
▁tan	-9965
▁intens	-9966
▁deployment	-9967
lr	-9968
▁ℕ	-9969
agger	-9970
sumer	-9971
pheric	-9972
▁repet	-9973
▁Suppose	-9974
emit	-9975
arding	-9976
▁regarded	-9977
▁party	-9978
▁fosters	-9979
▁mitigate	-9980
▁"-	-9981
matches	-9982
▁Matrix	-9983
▁Finally	-9984
▁compens	-9985
▁epis	-9986
▁signaling	-9987
▁ast	-9988
VALUE	-9989
▁padding	-9990
▁translation	-9991
front	-9992
▁commands	-9993
▁derivatives	-9994
conomic	-9995
▁rectangular	-9996
▁tip	-9997
timer	-9998
▁governance	-9999
TAG	-10000
Power	-10001
Sample	-10002
▁consumed	-10003
▁symmetry	-10004
▁quart	-10005
▁equality	-10006
▁increment	-10007
Dest	-10008
▁CHAR	-10009
▁Tree	-10010
effect	-10011
stdout	-10012
thag	-10013
parts	-10014
program	-10015
▁accepted	-10016
▁mild	-10017
Changed	-10018
▁glucose	-10019
ji	-10020
DIM	-10021
lif	-10022
▁Well	-10023
▁recover	-10024
▁quotient	-10025
▁Statistics	-10026
▁motivation	-10027
]).	-10028
▁sod	-10029
uction	-10030
▁decay	-10031
▁wealth	-10032
ferences	-10033
Rows	-10034
▁intr	-10035
regular	-10036
▁tested	-10037
▁IOException	-10038
▁east	-10039
▁credit	-10040
validation	-10041
tar	-10042
href	-10043
▁Fig	-10044
isition	-10045
▁collectively	-10046
▁Search	-10047
▁originally	-10048
▁interpreted	-10049
▁dram	-10050
▁court	-10051
optional	-10052
▁morph	-10053
▁injuries	-10054
izable	-10055
▁boost	-10056
Other	-10057
provider	-10058
INFO	-10059
Complex	-10060
Percent	-10061
▁labeled	-10062
▁thoughts	-10063
rangle	-10064
▁fiber	-10065
▁operand	-10066
ClusterConfig	-10067
()[	-10068
ulary	-10069
crement	-10070
icism	-10071
▁operators	-10072
▁inert	-10073
!=	-10074
LETE	-10075
▁reciprocal	-10076
modal	-10077
Directory	-10078
Pa	-10079
cup	-10080
tau	-10081
alty	-10082
orean	-10083
scill	-10084
▁aged	-10085
perature	-10086
▁polygon	-10087
▁permission	-10088
▁approximate	-10089
▁LI	-10090
▁Sep	-10091
theless	-10092
▁stronger	-10093
:(	-10094
Normal	-10095
▁cooper	-10096
▁Download	-10097
heses	-10098
comput	-10099
▁finish	-10100
cdots	-10101
▁legis	-10102
▁Profess	-10103
▁marking	-10104
Endpoint	-10105
▁candidate	-10106
▁productivity	-10107
coring	-10108
▁iterate	-10109
▁publish	-10110
▁raise	-10111
ceptions	-10112
▁partner	-10113
▁centered	-10114
Rightarrow	-10115
ini	-10116
▁proven	-10117
▁coprime	-10118
ROOT	-10119
▁neur	-10120
Symbol	-10121
▁neighb	-10122
ibration	-10123
▁synchron	-10124
▁worksheet	-10125
allelog	-10126
▁counts	-10127
uity	-10128
▁gar	-10129
▁Following	-10130
▁Select	-10131
▁respiratory	-10132
;\	-10133
▁Ω	-10134
▁####	-10135
intercept	-10136
▁hardware	-10137
Bal	-10138
▁trick	-10139
▁Review	-10140
▁promotes	-10141
▁safeguard	-10142
▁Soci	-10143
MODULE	-10144
ndrome	-10145
▁stake	-10146
▁enforce	-10147
▁examining	-10148
mag	-10149
person	-10150
▁Direct	-10151
▁mixture	-10152
Cap	-10153
Decl	-10154
swap	-10155
uation	-10156
▁exploring	-10157
FER	-10158
Drop	-10159
helper	-10160
▁seamless	-10161
▁classical	-10162
▁deliberate	-10163
▁transformed	-10164
white	-10165
▁Nor	-10166
▁falls	-10167
adv	-10168
▁syntax	-10169
▁endpoint	-10170
ertain	-10171
▁Windows	-10172
Mask	-10173
watch	-10174
prise	-10175
▁Every	-10176
BS	-10177
apse	-10178
▁undergo	-10179
ocabulary	-10180
once	-10181
▁surve	-10182
▁obvious	-10183
={{	-10184
accur	-10185
lookup	-10186
Feature	-10187
▁empirical	-10188
ympt	-10189
estinal	-10190
▁satell	-10191
semble	-10192
▁Energy	-10193
▁infinity	-10194
]$	-10195
▁atom	-10196
▁Great	-10197
▁stead	-10198
haust	-10199
PY	-10200
activity	-10201
▁satisfy	-10202
▁counting	-10203
▁bott	-10204
▁ease	-10205
▁tied	-10206
▁accommod	-10207
▁purchase	-10208
het	-10209
▁meeting	-10210
▁worksheets	-10211
AY	-10212
stone	-10213
assertThat	-10214
ria	-10215
ALSE	-10216
▁universal	-10217
▁race	-10218
elcome	-10219
▁separation	-10220
ILE	-10221
▁Ext	-10222
▁nerv	-10223
original	-10224
AF	-10225
▁```	-10226
▁neutral	-10227
▁discovered	-10228
VM	-10229
▁moved	-10230
▁Arithmetic	-10231
mong	-10232
▁bridge	-10233
▁subjects	-10234
▁ba	-10235
▁variant	-10236
uced	-10237
astro	-10238
Snapshot	-10239
constants	-10240
▁performing	-10241
▁controls	-10242
[[	-10243
fr	-10244
unct	-10245
▁marginal	-10246
▁intricate	-10247
WAIT	-10248
erged	-10249
iot	-10250
Have	-10251
tm	-10252
ILD	-10253
REE	-10254
▁Response	-10255
▁considerations	-10256
xc	-10257
▁slot	-10258
▁College	-10259
▁DateTime	-10260
▁incorporate	-10261
SM	-10262
ramid	-10263
theme	-10264
▁encourage	-10265
CN	-10266
Arr	-10267
▁van	-10268
separ	-10269
▁youth	-10270
▁Span	-10271
▁summer	-10272
▁iteration	-10273
formed	-10274
raining	-10275
▁sums	-10276
▁fol	-10277
▁incident	-10278
▁thousands	-10279
Ne	-10280
▁cb	-10281
oved	-10282
▁gly	-10283
▁Fin	-10284
added	-10285
undle	-10286
▁dogs	-10287
states	-10288
▁Fib	-10289
ressing	-10290
▁Series	-10291
▁estimates	-10292
aven	-10293
fprintf	-10294
▁crisis	-10295
▁authentic	-10296
▁symmetric	-10297
▁Information	-10298
IZ	-10299
▁compr	-10300
▁standing	-10301
▁Australia	-10302
▁Management	-10303
▁terr	-10304
WEB	-10305
▁checks	-10306
▁customers	-10307
bad	-10308
▁rfl	-10309
Cal	-10310
pet	-10311
▁ath	-10312
embed	-10313
▁faced	-10314
▁SOFTWARE	-10315
▁ranges	-10316
▁favorable	-10317
GIN	-10318
destroy	-10319
▁cul	-10320
asset	-10321
Random	-10322
▁facts	-10323
icularly	-10324
ki	-10325
▁clim	-10326
▁committed	-10327
▁Sur	-10328
▁zip	-10329
▁salt	-10330
loaded	-10331
▁surgery	-10332
▁polynomials	-10333
Decimal	-10334
▁Decimal	-10335
▁denoted	-10336
▁studied	-10337
▁hydrogen	-10338
▁Grade	-10339
ordered	-10340
▁loading	-10341
▁generates	-10342
▁adjustments	-10343
\{	-10344
Remove	-10345
▁digest	-10346
amic	-10347
▁hal	-10348
▁sqrt	-10349
▁margin	-10350
▁healing	-10351
▁continuously	-10352
▁sine	-10353
Amount	-10354
▁Valid	-10355
▁laser	-10356
ão	-10357
▁song	-10358
▁override	-10359
kl	-10360
ASE	-10361
▁Change	-10362
▁browser	-10363
▁literary	-10364
Future	-10365
▁adequate	-10366
sha	-10367
foot	-10368
▁insect	-10369
oment	-10370
▁assuming	-10371
▁synthesis	-10372
nes	-10373
Once	-10374
▁gravitational	-10375
)",	-10376
ndef	-10377
▁Import	-10378
▁mic	-10379
▁defense	-10380
bd	-10381
▁ru	-10382
▁Medic	-10383
▁atoms	-10384
Finally	-10385
▁phosph	-10386
▁attached	-10387
▁recently	-10388
reduce	-10389
▁Technology	-10390
▁necessarily	-10391
▁mul	-10392
Events	-10393
answer	-10394
▁Source	-10395
▁Association	-10396
xd	-10397
":[	-10398
▁spon	-10399
updated	-10400
▁exceptional	-10401
Agent	-10402
itudes	-10403
AE	-10404
__);	-10405
ni	-10406
▁kid	-10407
▁recognizing	-10408
nc	-10409
▁Cur	-10410
▁Histor	-10411
▁Systems	-10412
west	-10413
▁tele	-10414
parency	-10415
▁prevention	-10416
▁Ev	-10417
Solve	-10418
▁west	-10419
Admin	-10420
Stats	-10421
▁meth	-10422
▁consideration	-10423
▁recommendations	-10424
'''	-10425
▁mast	-10426
DateTime	-10427
▁encountered	-10428
Span	-10429
▁fewer	-10430
Iterate	-10431
▁circuits	-10432
▁struggle	-10433
▁attacks	-10434
="$	-10435
cnt	-10436
GO	-10437
▁cro	-10438
▁viable	-10439
▁wavelength	-10440
▁Http	-10441
▁` ` 	-10442
▁Greek	-10443
▁automated	-10444
▁mentioned	-10445
▁recursive	-10446
:'	-10447
colors	-10448
getId	-10449
django	-10450
Virtual	-10451
▁Constraint	-10452
agers	-10453
versely	-10454
▁stimul	-10455
▁philosophical	-10456
▁homes	-10457
History	-10458
Hz	-10459
serde	-10460
▁expenses	-10461
chat	-10462
ints	-10463
limits	-10464
RS	-10465
▁improves	-10466
▁noting	-10467
hw	-10468
phys	-10469
}$$.	-10470
▁weigh	-10471
▁heating	-10472
▁facilities	-10473
ffee	-10474
oking	-10475
Promise	-10476
pez	-10477
vi	-10478
)?;	-10479
mouse	-10480
question	-10481
▁clients	-10482
HOST	-10483
▁phenomena	-10484
gre	-10485
sol	-10486
▁edit	-10487
everal	-10488
▁Triangle	-10489
▁COLLATE	-10490
▁identifies	-10491
▁Engineering	-10492
PM	-10493
orry	-10494
▁warning	-10495
URI	-10496
}^{\	-10497
▁precisely	-10498
▁spin	-10499
▁Divisors	-10500
▁Moreover	-10501
]=	-10502
▁scr	-10503
▁Park	-10504
▁Space	-10505
▁cities	-10506
▁protected	-10507
![	-10508
▁µ	-10509
;":	-10510
FIL	-10511
BLOCK	-10512
▁redu	-10513
cludes	-10514
▁cryst	-10515
BER	-10516
▁Met	-10517
▁induction	-10518
▁foo	-10519
▁hun	-10520
Summary	-10521
extension	-10522
▁LO	-10523
▁metabol	-10524
Std	-10525
abc	-10526
rooms	-10527
▁experiencing	-10528
▁offic	-10529
amination	-10530
▁machines	-10531
▁Multiplication	-10532
▁hem	-10533
terior	-10534
▁redirect	-10535
Lo	-10536
▁Ret	-10537
▁rhyth	-10538
contact	-10539
▁Due	-10540
prost	-10541
▁forest	-10542
▁annually	-10543
Fn	-10544
Xml	-10545
hus	-10546
igue	-10547
topic	-10548
apture	-10549
▁thin	-10550
▁Custom	-10551
▁reserv	-10552
▁Process	-10553
nic	-10554
▁heightened	-10555
▁underscoring	-10556
meas	-10557
▁lip	-10558
▁memb	-10559
Metric	-10560
▁texts	-10561
▁Lesson	-10562
▁manager	-10563
Background	-10564
ighter	-10565
▁coins	-10566
▁eating	-10567
▁pad	-10568
ivial	-10569
▁reward	-10570
▁courses	-10571
proc	-10572
▁ske	-10573
atern	-10574
▁globally	-10575
tail	-10576
▁justice	-10577
▁severity	-10578
productive	-10579
submit	-10580
▁hierarch	-10581
particularly	-10582
FLO	-10583
EXPECT	-10584
▁residual	-10585
▁succeed	-10586
::<	-10587
Scroll	-10588
▁helpful	-10589
▁Fil	-10590
icacy	-10591
ulator	-10592
primary	-10593
verbose	-10594
?"	-10595
"].	-10596
▁rh	-10597
attrs	-10598
▁exhibits	-10599
▁draws	-10600
▁administer	-10601
▁evolutionary	-10602
psi	-10603
ctrl	-10604
▁Vol	-10605
tasks	-10606
▁aiming	-10607
▁priority	-10608
icator	-10609
▁birds	-10610
reverse	-10611
▁notion	-10612
▁checking	-10613
Br	-10614
Bus	-10615
IMARY	-10616
▁sports	-10617
seg	-10618
▁talk	-10619
▁nutrients	-10620
▁Arch	-10621
▁wrote	-10622
▁passage	-10623
succ	-10624
reader	-10625
▁seeds	-10626
ritical	-10627
▁Component	-10628
▁pip	-10629
▁prioritize	-10630
▁accumulation	-10631
'\	-10632
▁formats	-10633
▁organized	-10634
▁mk	-10635
▁town	-10636
▁wors	-10637
▁shares	-10638
▁ln	-10639
▁connecting	-10640
▁concentrations	-10641
sa	-10642
va	-10643
sch	-10644
hist	-10645
▁flavor	-10646
<?	-10647
nership	-10648
▁abnormal	-10649
▁delivers	-10650
ORK	-10651
$-	-10652
▁±	-10653
CUDA	-10654
▁park	-10655
Single	-10656
▁fract	-10657
▁forecast	-10658
vc	-10659
▁Last	-10660
▁Sort	-10661
▁drag	-10662
▁adaptation	-10663
▁exceeding	-10664
stud	-10665
radius	-10666
▁emerge	-10667
restrict	-10668
▁navigate	-10669
uling	-10670
▁covering	-10671
▁constraint	-10672
.");	-10673
fake	-10674
▁modulo	-10675
commands	-10676
▁allerg	-10677
▁happen	-10678
]}	-10679
▁relying	-10680
▁Calculus	-10681
▁generations	-10682
<>();	-10683
▁Color	-10684
▁avoiding	-10685
ously	-10686
▁AIPS	-10687
▁writer	-10688
▁roughly	-10689
Statement	-10690
▁satisfaction	-10691
──	-10692
whel	-10693
FORMAT	-10694
opping	-10695
▁proved	-10696
servation	-10697
CV	-10698
ny	-10699
need	-10700
yses	-10701
▁mol	-10702
▁beliefs	-10703
▁choosing	-10704
ifndef	-10705
▁macro	-10706
▁losses	-10707
▁recall	-10708
ENSION	-10709
▁Germany	-10710
hour	-10711
omas	-10712
▁abund	-10713
▁emotions	-10714
▁wants	-10715
▁Conn	-10716
▁Mock	-10717
DIRECT	-10718
▁drugs	-10719
▁Individuals	-10720
.(	-10721
▁didn	-10722
likely	-10723
▁acids	-10724
{},	-10725
▁san	-10726
▁instruments	-10727
▁Sen	-10728
numpy	-10729
plitude	-10730
▁Latin	-10731
hemical	-10732
isEmpty	-10733
▁placing	-10734
generated	-10735
▁Back	-10736
▁cash	-10737
▁comments	-10738
hentication	-10739
▁socket	-10740
▁independence	-10741
▁axes	-10742
▁inch	-10743
▁tight	-10744
▁trauma	-10745
ependent	-10746
;;	-10747
▁Medium	-10748
▁disable	-10749
▁extending	-10750
▁ingredients	-10751
▁mouth	-10752
▁usize	-10753
Convert	-10754
cusparse	-10755
▁apparent	-10756
Inf	-10757
nam	-10758
▁vac	-10759
▁becoming	-10760
SAM	-10761
▁BE	-10762
▁Water	-10763
▁nutrient	-10764
EventListener	-10765
rating	-10766
▁infer	-10767
▁turning	-10768
▁eliminating	-10769
LY	-10770
Language	-10771
xe	-10772
enth	-10773
▁utilized	-10774
▁ecosystems	-10775
repos	-10776
GEN	-10777
▁dialogue	-10778
▁pregnancy	-10779
variant	-10780
php	-10781
▁uncertain	-10782
▁stabil	-10783
Copyright	-10784
▁capability	-10785
opic	-10786
shell	-10787
▁aircraft	-10788
ims	-10789
origin	-10790
Protocol	-10791
Processor	-10792
▁mechanics	-10793
▁_)	-10794
ras	-10795
rapped	-10796
▁reput	-10797
▁shall	-10798
isc	-10799
idity	-10800
▁typeof	-10801
▁logarithm	-10802
training	-10803
▁stories	-10804
▁philosophy	-10805
▁leak	-10806
▁residents	-10807
Clear	-10808
▁cone	-10809
▁dose	-10810
▁fluct	-10811
compile	-10812
▁accompan	-10813
▁mortality	-10814
▁utilizing	-10815
Pyx	-10816
▁markets	-10817
LIB	-10818
▁lect	-10819
▁Design	-10820
▁Regular	-10821
uce	-10822
Addr	-10823
oned	-10824
Database	-10825
definition	-10826
▁migration	-10827
▁fre	-10828
▁}{\	-10829
onical	-10830
▁contained	-10831
DM	-10832
▁≠	-10833
cipl	-10834
Produ	-10835
▁separated	-10836
▁employment	-10837
▁alternatives	-10838
⟩,	-10839
dash	-10840
▁Geometry	-10841
▁placement	-10842
berg	-10843
itage	-10844
▁Eucl	-10845
▁intuitive	-10846
Pair	-10847
▁continuity	-10848
▁cu	-10849
▁Language	-10850
▁phrase	-10851
ogeneous	-10852
Visible	-10853
▁comprom	-10854
arguments	-10855
▁Nevertheless	-10856
{'	-10857
▁HIV	-10858
▁blank	-10859
▁folder	-10860
▁Development	-10861
▁developmental	-10862
bial	-10863
▁lessons	-10864
▁degradation	-10865
▁difficulties	-10866
parsed	-10867
ogether	-10868
onym	-10869
▁targeting	-10870
oral	-10871
▁decode	-10872
▁charges	-10873
▁disturb	-10874
▁multiplic	-10875
▁City	-10876
▁eggs	-10877
▁dream	-10878
▁hospital	-10879
 = 	-10880
issing	-10881
▁impossible	-10882
elow	-10883
same	-10884
▁Human	-10885
▁uncover	-10886
ivating	-10887
▁hyd	-10888
orest	-10889
buff	-10890
Fragment	-10891
ataly	-10892
▁crim	-10893
▁diverg	-10894
▁registered	-10895
▁OS	-10896
▁astr	-10897
plugins	-10898
▁copies	-10899
_\	-10900
ARD	-10901
Users	-10902
third	-10903
▁orbit	-10904
ktop	-10905
Groups	-10906
▁distributions	-10907
▁pose	-10908
SOURCE	-10909
iatric	-10910
▁Early	-10911
▁closer	-10912
▁arrangement	-10913
▁contribution	-10914
geq	-10915
▁bacterial	-10916
▁flux	-10917
external	-10918
▁fatigue	-10919
▁corre	-10920
▁investigate	-10921
▁reaches	-10922
%)	-10923
Runtime	-10924
▁subtle	-10925
▁Definition	-10926
bro	-10927
rpc	-10928
▁empower	-10929
▁Cong	-10930
▁Force	-10931
▁revolution	-10932
Pred	-10933
toggle	-10934
composition	-10935
▁dio	-10936
▁agreement	-10937
pf	-10938
▁html	-10939
▁tells	-10940
▁thickness	-10941
Di	-10942
ris	-10943
▁AP	-10944
▁${\	-10945
▁Book	-10946
Security	-10947
{.	-10948
▁Av	-10949
acer	-10950
Extra	-10951
Video	-10952
pathy	-10953
▁proto	-10954
▁representations	-10955
clock	-10956
▁dollars	-10957
▁Der	-10958
▁resp	-10959
▁ABC	-10960
▁pig	-10961
▁saw	-10962
istant	-10963
inomial	-10964
▁curves	-10965
apor	-10966
▁gal	-10967
agraph	-10968
▁Society	-10969
+'	-10970
AO	-10971
ASH	-10972
flex	-10973
Chunk	-10974
▁Three	-10975
▁spher	-10976
▁revenue	-10977
▁explains	-10978
▁ocean	-10979
allenge	-10980
without	-10981
▁Client	-10982
▁employee	-10983
▁necessit	-10984
▁overwhel	-10985
Flow	-10986
licit	-10987
▁origins	-10988
▁Mag	-10989
▁union	-10990
backend	-10991
▁asympt	-10992
▁striking	-10993
▁controller	-10994
▁parab	-10995
▁Exercise	-10996
▁strengthens	-10997
▁CK	-10998
ssue	-10999
Shape	-11000
▁woman	-11001
Counter	-11002
▁Pythag	-11003
▁historically	-11004
▁respective	-11005
Typ	-11006
pulumi	-11007
▁wheel	-11008
Metrics	-11009
▁oscill	-11010
Although	-11011
Fin	-11012
▁Term	-11013
▁incl	-11014
▁versus	-11015
istically	-11016
Optional	-11017
▁accounting	-11018
repr	-11019
▁chol	-11020
cluding	-11021
▁latest	-11022
▁calling	-11023
▁neither	-11024
▁retention	-11025
▁coordination	-11026
ROP	-11027
dm	-11028
▁edited	-11029
▁formulation	-11030
legate	-11031
▁cosine	-11032
▁refine	-11033
Game	-11034
▁Ma	-11035
▁asc	-11036
▁employs	-11037
▁attempts	-11038
▁signature	-11039
AV	-11040
ods	-11041
Move	-11042
hook	-11043
▁paid	-11044
▁utils	-11045
▁debate	-11046
▁simplified	-11047
▁substitute	-11048
GF	-11049
tb	-11050
(['	-11051
Scal	-11052
dims	-11053
Grad	-11054
▁Sat	-11055
▁Core	-11056
Errors	-11057
stringify	-11058
▁artifact	-11059
authorized	-11060
▁Jo	-11061
▁Try	-11062
▁doub	-11063
▁volumes	-11064
▁transportation	-11065
Raw	-11066
gypt	-11067
PARAM	-11068
▁Pass	-11069
▁north	-11070
warning	-11071
basic	-11072
▁codes	-11073
dv	-11074
ouncil	-11075
▁propag	-11076
illa	-11077
▁ple	-11078
▁transforming	-11079
EDIT	-11080
▁pump	-11081
▁possibly	-11082
yc	-11083
Holder	-11084
▁Delete	-11085
▁neighbor	-11086
▁viral	-11087
correct	-11088
gz	-11089
tee	-11090
▁ray	-11091
▁myth	-11092
loads	-11093
▁apart	-11094
-------	-11095
▁Notably	-11096
▁Partial	-11097
▁modifications	-11098
FIX	-11099
amine	-11100
▁consisting	-11101
+=	-11102
▁oxid	-11103
Unknown	-11104
▁retain	-11105
▁elastic	-11106
▁Introduction	-11107
coe	-11108
ressive	-11109
▁indust	-11110
▁consumers	-11111
VAR	-11112
exper	-11113
existing	-11114
▁History	-11115
▁industries	-11116
Bo	-11117
]],	-11118
large	-11119
pages	-11120
usage	-11121
sorted	-11122
▁Consequently	-11123
▁ancest	-11124
▁introducing	-11125
Dig	-11126
▁savings	-11127
▁sectors	-11128
▁Multiply	-11129
NU	-11130
rane	-11131
▁office	-11132
            	-11133
amil	-11134
▁walls	-11135
▁Corpor	-11136
encoding	-11137
▁Digital	-11138
▁ban	-11139
poly	-11140
Chain	-11141
▁resistor	-11142
>{	-11143
Bind	-11144
▁Head	-11145
degree	-11146
striction	-11147
▁requirement	-11148
▁"_	-11149
▁cv	-11150
▁ha	-11151
Mano	-11152
RIGHT	-11153
percent	-11154
star	-11155
▁quiet	-11156
clusions	-11157
iddleware	-11158
▁datasets	-11159
Environment	-11160
sf	-11161
▁bench	-11162
▁bag	-11163
▁Main	-11164
▁conclude	-11165
▁yourself	-11166
`;	-11167
).__	-11168
▁biom	-11169
▁warr	-11170
▁truly	-11171
▁studying	-11172
'<	-11173
▁substr	-11174
▁cooling	-11175
tk	-11176
oir	-11177
days	-11178
▁OUT	-11179
ounce	-11180
▁bright	-11181
▁executed	-11182
▁III	-11183
▁transparency	-11184
EP	-11185
dbo	-11186
ublas	-11187
▁magic	-11188
▁Server	-11189
▁rod	-11190
▁shel	-11191
▁lift	-11192
▁syndrome	-11193
▁emergence	-11194
▁convergence	-11195
izz	-11196
▁Ok	-11197
▁lacks	-11198
▁Circle	-11199
▁fluctu	-11200
▁marine	-11201
▁PyObject	-11202
Direct	-11203
failed	-11204
Producto	-11205
She	-11206
ien	-11207
Chat	-11208
bing	-11209
Chapter	-11210
▁Microsoft	-11211
iating	-11212
Aud	-11213
MAP	-11214
▁aging	-11215
▁zones	-11216
▁restricted	-11217
war	-11218
expression	-11219
vertex	-11220
Partition	-11221
▁shifting	-11222
▁candidates	-11223
MI	-11224
LIN	-11225
},\	-11226
▁irre	-11227
▁Thanks	-11228
▁carries	-11229
▁parties	-11230
COLOR	-11231
▁Age	-11232
▁Acad	-11233
▁laun	-11234
▁citizens	-11235
▁acquisition	-11236
spl	-11237
ArrayList	-11238
generator	-11239
▁ω	-11240
ugh	-11241
('--	-11242
ltim	-11243
▁criminal	-11244
▁nutritional	-11245
rupted	-11246
▁preparing	-11247
▁conversation	-11248
haps	-11249
qquad	-11250
▁patch	-11251
▁lighting	-11252
abla	-11253
anches	-11254
▁packet	-11255
▁feasible	-11256
▁regularly	-11257
▁son	-11258
▁tube	-11259
Mapper	-11260
PORTED	-11261
health	-11262
▁scatter	-11263
▁shorter	-11264
▁Iter	-11265
license	-11266
▁SH	-11267
selector	-11268
TL	-11269
▁pixel	-11270
▁combat	-11271
partition	-11272
▁visually	-11273
▁atmospheric	-11274
PG	-11275
Prime	-11276
▁runtime	-11277
▁childhood	-11278
▁triggered	-11279
▁frequencies	-11280
Public	-11281
▁President	-11282
Conv	-11283
▁Pal	-11284
▁grass	-11285
▁stars	-11286
▁Tensor	-11287
▁monthly	-11288
▁trajectory	-11289
obs	-11290
osh	-11291
allelogram	-11292
▁soph	-11293
▁recurs	-11294
▁combine	-11295
▁overlook	-11296
got	-11297
▁Jun	-11298
▁grasp	-11299
▁denotes	-11300
$ 	-11301
Gu	-11302
mi	-11303
oes	-11304
▁Game	-11305
▁implementing	-11306
"{	-11307
isp	-11308
nod	-11309
▁Arm	-11310
Proxy	-11311
▁moderate	-11312
_____	-11313
BT	-11314
▁Egypt	-11315
▁college	-11316
ymph	-11317
▁consume	-11318
localhost	-11319
▁▁▁▁▁▁▁▁▁	-11320
▁cup	-11321
atted	-11322
Weight	-11323
▁therap	-11324
oked	-11325
hx	-11326
RAY	-11327
▁cls	-11328
sis	-11329
scan	-11330
▁#-}	-11331
Focus	-11332
▁...,	-11333
▁atomic	-11334
▁spanning	-11335
('\	-11336
heduled	-11337
rational	-11338
▁faith	-11339
▁oblig	-11340
Bad	-11341
ressions	-11342
▁limiting	-11343
ctr	-11344
}")	-11345
Wait	-11346
actor	-11347
ProduMano	-11348
translate	-11349
▁Bra	-11350
▁valued	-11351
▁dioxide	-11352
cmp	-11353
▁spent	-11354
▁centre	-11355
environment	-11356
▁competition	-11357
Ali	-11358
▁Pi	-11359
Basic	-11360
Under	-11361
▁Study	-11362
▁decor	-11363
▁Global	-11364
curr	-11365
▁dur	-11366
omatic	-11367
▁participate	-11368
ua	-11369
▁news	-11370
▁weap	-11371
locale	-11372
RED	-11373
▁adds	-11374
▁Social	-11375
▁scheme	-11376
otherapy	-11377
/"	-11378
▁-->	-11379
▁indo	-11380
▁harmony	-11381
▁threads	-11382
▁functioning	-11383
avg	-11384
Stop	-11385
?;	-11386
▁arter	-11387
▁plugin	-11388
▁requested	-11389
etype	-11390
Generator	-11391
▁acknowledged	-11392
▁[`	-11393
ille	-11394
Lower	-11395
aught	-11396
Actions	-11397
istence	-11398
getValue	-11399
▁Complex	-11400
▁suscept	-11401
▁necessity	-11402
▁ion	-11403
▁Contin	-11404
FD	-11405
▁Bal	-11406
eting	-11407
XS	-11408
...)	-11409
Theme	-11410
▁encode	-11411
▁quarter	-11412
▁identities	-11413
Posts	-11414
▁wish	-11415
▁flows	-11416
▁expr	-11417
scores	-11418
▁submit	-11419
TEX	-11420
{-#	-11421
}',	-11422
▁irrit	-11423
MEM	-11424
gra	-11425
cols	-11426
rink	-11427
suffix	-11428
▁denote	-11429
▁Property	-11430
▁username	-11431
▁extremely	-11432
uffle	-11433
agonal	-11434
▁graphql	-11435
▁Na	-11436
▁Mac	-11437
▁absorption	-11438
▁exhibited	-11439
ibl	-11440
▁David	-11441
▁pretty	-11442
▁muscles	-11443
osc	-11444
ATCH	-11445
tile	-11446
▁unf	-11447
▁treating	-11448
YY	-11449
▁father	-11450
uv	-11451
rent	-11452
Place	-11453
ogenic	-11454
▁pipeline	-11455
▁permanent	-11456
LOAD	-11457
▁dst	-11458
▁legit	-11459
▁stats	-11460
selection	-11461
Center	-11462
psilon	-11463
textbf	-11464
▁capacitor	-11465
▁encouraging	-11466
Lib	-11467
High	-11468
▁Box	-11469
▁strictly	-11470
*,	-11471
SR	-11472
▁'_	-11473
BACK	-11474
sym	-11475
▁les	-11476
▁cited	-11477
Payload	-11478
▁guided	-11479
country	-11480
publish	-11481
▁emotion	-11482
▁facilitating	-11483
)|	-11484
▁=\	-11485
▁Bus	-11486
▁situated	-11487
▁incidence	-11488
otor	-11489
rick	-11490
implify	-11491
▁coffee	-11492
▁orders	-11493
▁compass	-11494
▁MC	-11495
▁saying	-11496
glob	-11497
▁Pop	-11498
visible	-11499
▁Arab	-11500
polation	-11501
▁featured	-11502
▁bis	-11503
▁Action	-11504
▁anyone	-11505
▁hazard	-11506
▁Fibonacci	-11507
Own	-11508
irms	-11509
▁insulin	-11510
▁encourages	-11511
▁mold	-11512
Memcpy	-11513
TEXT	-11514
▁induct	-11515
valuation	-11516
▁sought	-11517
▁}}	-11518
▁kit	-11519
▁stone	-11520
数据	-11521
▁fro	-11522
▁accompanied	-11523
▁Ca	-11524
coin	-11525
▁ju	-11526
prob	-11527
usal	-11528
letes	-11529
▁Jewish	-11530
▁bigger	-11531
previous	-11532
▁personnel	-11533
▁mice	-11534
▁Board	-11535
▁saved	-11536
▁adapted	-11537
UST	-11538
Tests	-11539
necess	-11540
▁troub	-11541
▁parity	-11542
▁relief	-11543
▁complicated	-11544
▁transformations	-11545
/'	-11546
mr	-11547
▁Isra	-11548
PV	-11549
``;	-11550
THER	-11551
▁asking	-11552
▁accessibility	-11553
disc	-11554
▁MAX	-11555
encil	-11556
isters	-11557
▁newly	-11558
▁celebr	-11559
▁diminished	-11560
sup	-11561
▁spl	-11562
browser	-11563
▁Account	-11564
▁Command	-11565
▁dil	-11566
▁Theory	-11567
Abstract	-11568
▁disciplines	-11569
ena	-11570
ANCE	-11571
always	-11572
▁ahead	-11573
▁efficacy	-11574
▁centuries	-11575
nx	-11576
aken	-11577
▁"";	-11578
▁Upon	-11579
▁snow	-11580
▁charged	-11581
ching	-11582
uniform	-11583
▁recurring	-11584
UBL	-11585
UTE	-11586
ione	-11587
]\	-11588
gin	-11589
)}^{	-11590
▁Don	-11591
saved	-11592
.')	-11593
FOR	-11594
grpc	-11595
▁gate	-11596
ceiver	-11597
Standard	-11598
:",	-11599
ysql	-11600
dialog	-11601
Binding	-11602
<<<<	-11603
complex	-11604
functions	-11605
▁captured	-11606
cook	-11607
▁transmit	-11608
ita	-11609
▁COMM	-11610
▁entering	-11611
▁partners	-11612
ago	-11613
▁formally	-11614
Bound	-11615
CONST	-11616
whether	-11617
▁Author	-11618
▁preceding	-11619
bul	-11620
van	-11621
canvas	-11622
▁divides	-11623
▁PO	-11624
press	-11625
▁floating	-11626
AIR	-11627
▁chlor	-11628
▁Column	-11629
(@	-11630
pv	-11631
▁Que	-11632
Clone	-11633
Uniform	-11634
▁girls	-11635
▁burden	-11636
Progress	-11637
chor	-11638
▁Does	-11639
▁door	-11640
▁hybrid	-11641
▁reasonable	-11642
there	-11643
Comment	-11644
▁metaph	-11645
shop	-11646
stroke	-11647
Suppose	-11648
+"	-11649
▁fd	-11650
USERID	-11651
▁upward	-11652
xf	-11653
▁DC	-11654
▁NC	-11655
AMPLE	-11656
brace	-11657
▁alph	-11658
Loading	-11659
▁describing	-11660
LD	-11661
ribed	-11662
▁Serv	-11663
▁Print	-11664
▁analyses	-11665
Namespace	-11666
▁assembly	-11667
▁similarly	-11668
bn	-11669
▁soon	-11670
)$,	-11671
GINE	-11672
▁rub	-11673
Retry	-11674
▁rounding	-11675
▁sounds	-11676
udd	-11677
▁Sl	-11678
▁typing	-11679
▁projection	-11680
▁prevalent	-11681
▁coinc	-11682
abb	-11683
strap	-11684
Elements	-11685
▁sophistic	-11686
▁𝑥	-11687
▁aid	-11688
Cloud	-11689
Points	-11690
▁norms	-11691
mg	-11692
swith	-11693
GPU	-11694
▁nth	-11695
▁Princ	-11696
Texture	-11697
▁racial	-11698
▁cfg	-11699
▁fle	-11700
links	-11701
Bucket	-11702
Worker	-11703
▁rural	-11704
▁calcium	-11705
▁triggers	-11706
▁decreases	-11707
▁photograph	-11708
▁{{	-11709
utter	-11710
▁[-	-11711
▁escape	-11712
▁William	-11713
pipe	-11714
agram	-11715
▁Users	-11716
▁variability	-11717
▁MS	-11718
opes	-11719
week	-11720
ituting	-11721
ECTION	-11722
▁stroke	-11723
▁deleted	-11724
▁congruent	-11725
▁isolation	-11726
▁achievement	-11727
▁distinguish	-11728
▁investigated	-11729
Chart	-11730
Factor	-11731
▁musical	-11732
▁partnership	-11733
heit	-11734
ipheral	-11735
character	-11736
▁Japanese	-11737
km	-11738
INST	-11739
Join	-11740
Side	-11741
▁Rights	-11742
Distance	-11743
inux	-11744
▁tact	-11745
branch	-11746
▁dates	-11747
▁Measure	-11748
ura	-11749
disk	-11750
analy	-11751
▁wonder	-11752
ltimately	-11753
▁determines	-11754
peg	-11755
▁cas	-11756
posed	-11757
▁boxes	-11758
▁south	-11759
integer	-11760
▁Beyond	-11761
▁magnet	-11762
dominant	-11763
▁normally	-11764
▁converting	-11765
▁sa	-11766
▁attend	-11767
spr	-11768
▁SI	-11769
coll	-11770
▁born	-11771
approx	-11772
ogonal	-11773
▁incorporates	-11774
ABC	-11775
ATED	-11776
Define	-11777
▁"__	-11778
▁cand	-11779
According	-11780
▁completing	-11781
ctl	-11782
Even	-11783
igration	-11784
▁worldwide	-11785
WIN	-11786
▁Year	-11787
▁architectural	-11788
!}	-11789
▁Ut	-11790
ecycle	-11791
▁lookup	-11792
▁fundamentally	-11793
▁Take	-11794
▁Admin	-11795
reshape	-11796
▁worker	-11797
schedule	-11798
UUID	-11799
plane	-11800
▁holding	-11801
▁outdoor	-11802
▁adjusted	-11803
▁compression	-11804
Car	-11805
LAB	-11806
visor	-11807
▁suit	-11808
▁River	-11809
▁Where	-11810
^-	-11811
sens	-11812
▁San	-11813
▁OTHER	-11814
▁unfold	-11815
▁adherence	-11816
▁Corporation	-11817
ONG	-11818
▁}\	-11819
▁FIG	-11820
▁hol	-11821
camera	-11822
rolling	-11823
setState	-11824
▁biology	-11825
▁cot	-11826
-%	-11827
rant	-11828
refresh	-11829
]"	-11830
▁Cap	-11831
Schedu	-11832
▁realm	-11833
▁verbose	-11834
IMA	-11835
UInt	-11836
▁sky	-11837
Series	-11838
▁Local	-11839
▁Quadr	-11840
Constraints	-11841
▁nitrogen	-11842
▁geographic	-11843
▁navigation	-11844
ISTS	-11845
▁dut	-11846
Bundle	-11847
▁randomly	-11848
▁bounds	-11849
ciplinary	-11850
▁vegetables	-11851
▁Factorization	-11852
tol	-11853
teen	-11854
▁practition	-11855
▁certificate	-11856
▁conditional	-11857
mix	-11858
ander	-11859
Insert	-11860
▁synthetic	-11861
▁tolerance	-11862
Na	-11863
uge	-11864
lectric	-11865
▁barriers	-11866
▁cumulative	-11867
Try	-11868
amel	-11869
ulse	-11870
IOException	-11871
epi	-11872
▁xy	-11873
Pers	-11874
uing	-11875
subject	-11876
▁loaded	-11877
Complete	-11878
▁Medical	-11879
▁expressing	-11880
▁inequalities	-11881
PIN	-11882
FFER	-11883
IENT	-11884
idean	-11885
versal	-11886
▁advisable	-11887
NE	-11888
Req	-11889
demo	-11890
▁Rather	-11891
▁GL	-11892
` `    ``	-11893
bg	-11894
inical	-11895
▁Report	-11896
▁dp	-11897
▁Support	-11898
Used	-11899
insic	-11900
scene	-11901
▁mess	-11902
stride	-11903
prec	-11904
▁storm	-11905
▁conflicts	-11906
RY	-11907
Save	-11908
▁tour	-11909
▁feeding	-11910
▁nutrition	-11911
▁Lim	-11912
▁Home	-11913
▁heads	-11914
▁worked	-11915
▁periodic	-11916
han	-11917
▁phases	-11918
▁housing	-11919
nan	-11920
▁Small	-11921
textcolor	-11922
▁launched	-11923
▁ordinary	-11924
▁subsequently	-11925
▁obst	-11926
▁turb	-11927
▁flood	-11928
▁walking	-11929
▁Construct	-11930
▁derive	-11931
▁Republic	-11932
ahren	-11933
▁Kingdom	-11934
Condition	-11935
provincia	-11936
▁confusion	-11937
wp	-11938
▁'';	-11939
▁telev	-11940
▁Conf	-11941
▁Light	-11942
▁entered	-11943
CLO	-11944
xFF	-11945
▁lived	-11946
▁physic	-11947
▁barrier	-11948
▁Conversely	-11949
▁unable	-11950
▁northern	-11951
▁reproductive	-11952
▁ts	-11953
Tuple	-11954
▁supportive	-11955
ENTI	-11956
▁speeds	-11957
▁queries	-11958
▁refined	-11959
ategories	-11960
RX	-11961
SYN	-11962
▁Cart	-11963
▁Rest	-11964
During	-11965
▁Range	-11966
▁videos	-11967
▁dismiss	-11968
▁frames	-11969
▁insurance	-11970
Ty	-11971
lp	-11972
acion	-11973
▁Context	-11974
▁exhaust	-11975
▁vibrant	-11976
mas	-11977
ften	-11978
▁artic	-11979
▁Struct	-11980
▁satellite	-11981
syn	-11982
▁LED	-11983
▁Green	-11984
▁university	-11985
"."	-11986
URR	-11987
▁mi	-11988
Mouse	-11989
▁Task	-11990
▁gest	-11991
agen	-11992
cout	-11993
omal	-11994
▁emit	-11995
▁eval	-11996
ologist	-11997
rh	-11998
▁bread	-11999
▁heavily	-12000
▁prediction	-12001
Day	-12002
hyd	-12003
Login	-12004
gnore	-12005
schem	-12006
POS	-12007
sto	-12008
▁gains	-12009
▁southern	-12010
▁rendering	-12011
▁Applications	-12012
$("#	-12013
Axis	-12014
Split	-12015
adder	-12016
afety	-12017
Book	-12018
ULAR	-12019
iller	-12020
esterol	-12021
friendly	-12022
▁debug	-12023
Failure	-12024
▁pulumi	-12025
▁interplay	-12026
xff	-12027
▁Mo	-12028
▁imped	-12029
▁computation	-12030
▁incorporated	-12031
▁Du	-12032
imated	-12033
▁filed	-12034
Cancel	-12035
▁Court	-12036
dependent	-12037
``            ``	-12038
aware	-12039
ashion	-12040
▁bases	-12041
.'	-12042
{})	-12043
▁Enter	-12044
▁logger	-12045
▁subtracting	-12046
▁factory	-12047
▁cultures	-12048
▁revealing	-12049
ema	-12050
ARCH	-12051
retry	-12052
▁meat	-12053
▁tall	-12054
environ	-12055
▁promise	-12056
▁vaccine	-12057
Perimeter	-12058
ahrenheit	-12059
▁convenient	-12060
▁underscore	-12061
▁constructing	-12062
party	-12063
sched	-12064
running	-12065
▁gastro	-12066
▁indicator	-12067
▁prevalence	-12068
gc	-12069
sock	-12070
▁Right	-12071
identity	-12072
swig	-12073
iso	-12074
osa	-12075
assets	-12076
▁blend	-12077
▁twenty	-12078
▁replacing	-12079
WORK	-12080
▁cohes	-12081
▁suppose	-12082
▁scholars	-12083
YS	-12084
▁HTML	-12085
standard	-12086
▁vessels	-12087
Expected	-12088
inations	-12089
▁creativity	-12090
attice	-12091
▁meant	-12092
▁usual	-12093
changes	-12094
▁pathway	-12095
▁disabled	-12096
▁compatibility	-12097
:=	-12098
Cred	-12099
▁cer	-12100
ondon	-12101
library	-12102
▁pytest	-12103
▁organisms	-12104
Timer	-12105
▁returning	-12106
walk	-12107
audio	-12108
isted	-12109
▁furn	-12110
▁hinder	-12111
mol	-12112
zyme	-12113
blank	-12114
Folder	-12115
sdk	-12116
▁NG	-12117
pointer	-12118
▁Random	-12119
Export	-12120
unused	-12121
utical	-12122
▁guiding	-12123
▁intercept	-12124
▁sv	-12125
▁'__	-12126
▁elem	-12127
▁essay	-12128
▁exclus	-12129
▁conserv	-12130
pal	-12131
tures	-12132
▁meals	-12133
▁younger	-12134
▁electrom	-12135
▁withdraw	-12136
▁-\	-12137
▁Bi	-12138
▁wet	-12139
▁commut	-12140
▁Spanish	-12141
etary	-12142
▁Item	-12143
veloper	-12144
▁exports	-12145
avigation	-12146
tid	-12147
▁MIT	-12148
Slice	-12149
iline	-12150
Member	-12151
▁fruits	-12152
insertion	-12153
.$$	-12154
cycle	-12155
▁coal	-12156
▁mood	-12157
ourier	-12158
▁Maybe	-12159
confirm	-12160
▁Remove	-12161
▁inject	-12162
Solutions	-12163
Notification	-12164
TD	-12165
cod	-12166
▁durability	-12167
BR	-12168
START	-12169
▁bio	-12170
▁в	-12171
Cmd	-12172
▁Mex	-12173
▁bounded	-12174
▁corporate	-12175
▁Store	-12176
▁moles	-12177
ENSIONS	-12178
▁permitted	-12179
▁prompting	-12180
PK	-12181
▁"+	-12182
otted	-12183
▁printing	-12184
▁tendency	-12185
▁Understanding	-12186
wa	-12187
▁sen	-12188
etics	-12189
▁Pack	-12190
▁institution	-12191
▁rc	-12192
ruit	-12193
folio	-12194
regex	-12195
commun	-12196
▁cataly	-12197
▁witness	-12198
▁proactive	-12199
▁limitation	-12200
DX	-12201
jar	-12202
▁il	-12203
half	-12204
▁Notes	-12205
▁onset	-12206
▁Status	-12207
▁accountability	-12208
▁facing	-12209
Contents	-12210
includes	-12211
▁intermediate	-12212
▁nav	-12213
FloatTensor	-12214
tok	-12215
cker	-12216
Begin	-12217
gging	-12218
▁spirit	-12219
▁markers	-12220
▁simplest	-12221
▁compounding	-12222
▁influencing	-12223
odo	-12224
Headers	-12225
▁parsed	-12226
ationship	-12227
▁Mal	-12228
▁USB	-12229
▁brought	-12230
ographical	-12231
rb	-12232
zoom	-12233
▁`${	-12234
▁Teach	-12235
▁login	-12236
MAC	-12237
▁\{	-12238
▁cups	-12239
▁drain	-12240
▁grant	-12241
plant	-12242
quant	-12243
worker	-12244
▁Indexed	-12245
mn	-12246
.*;	-12247
signal	-12248
Private	-12249
▁France	-12250
▁advice	-12251
▁dispar	-12252
▁manually	-12253
▁profiles	-12254
etry	-12255
Depend	-12256
ال	-12257
Writ	-12258
cule	-12259
wood	-12260
▁irrational	-12261
▁circulation	-12262
▁administrative	-12263
sur	-12264
▁seq	-12265
▁cort	-12266
▁helped	-12267
▁Professor	-12268
▁tt	-12269
acet	-12270
delay	-12271
▁Paul	-12272
utdown	-12273
▁adaptability	-12274
▁plt	-12275
▁torque	-12276
▁speaker	-12277
▁integrates	-12278
XI	-12279
▁*,	-12280
also	-12281
Sorted	-12282
▁suggested	-12283
/***/	-12284
Direction	-12285
▁Subtract	-12286
▁collision	-12287
▁comprehension	-12288
ulates	-12289
kt	-12290
▁embod	-12291
▁funds	-12292
▁Recogn	-12293
ubs	-12294
rian	-12295
▁Asia	-12296
circle	-12297
▁leader	-12298
▁Studies	-12299
▁waiting	-12300
▁thoughtful	-12301
|(	-12302
}{{	-12303
▁odds	-12304
loadUser	-12305
"></	-12306
CLUD	-12307
▁Writ	-12308
▁bonds	-12309
CLUDING	-12310
strings	-12311
▁heritage	-12312
▁collections	-12313
priv	-12314
▁gaps	-12315
necessary	-12316
▁consciousness	-12317
cn	-12318
SPE	-12319
aded	-12320
Joined	-12321
appendChild	-12322
Med	-12323
▁foss	-12324
closure	-12325
ivative	-12326
▁enthus	-12327
▁hearing	-12328
▁resonance	-12329
sible	-12330
llegal	-12331
▁sodium	-12332
▁methodology	-12333
aux	-12334
▁"--	-12335
▁Look	-12336
notify	-12337
▁reviews	-12338
Stat	-12339
scripts	-12340
▁developers	-12341
▁spo	-12342
declare	-12343
▁varied	-12344
reatment	-12345
▁matters	-12346
clip	-12347
▁Case	-12348
otential	-12349
▁failures	-12350
▁mathematic	-12351
BN	-12352
erals	-12353
▁neck	-12354
▁Multiple	-12355
Mix	-12356
}-\	-12357
▁tot	-12358
named	-12359
olden	-12360
positive	-12361
▁Runtime	-12362
▁morning	-12363
ributions	-12364
▁Conversion	-12365
VO	-12366
▁nervous	-12367
▁sunlight	-12368
bat	-12369
Also	-12370
about	-12371
Contact	-12372
▁afford	-12373
▁scales	-12374
▁cooking	-12375
Lat	-12376
▁  	-12377
▁Yes	-12378
mass	-12379
oster	-12380
▁collapse	-12381
unittest	-12382
frequency	-12383
▁referenced	-12384
  ``	-12385
ivari	-12386
reach	-12387
▁Today	-12388
▁fault	-12389
Setting	-12390
▁LICENSE	-12391
▁USE	-12392
Submit	-12393
▁stores	-12394
▁facility	-12395
CALL	-12396
aked	-12397
Topic	-12398
▁crypt	-12399
▁convex	-12400
▁mobility	-12401
▁initiated	-12402
▁transactions	-12403
▁circumference	-12404
▁interconnected	-12405
vr	-12406
▁aqu	-12407
▁Normal	-12408
▁unified	-12409
aceutical	-12410
▁'')	-12411
micro	-12412
▁semi	-12413
▁fusion	-12414
har	-12415
minus	-12416
compose	-12417
▁Variable	-12418
▁acceptable	-12419
&=	-12420
▁WH	-12421
loadIrq	-12422
loadIdle	-12423
loadNice	-12424
▁edition	-12425
PageIndex	-12426
loadSystem	-12427
rawLoadIrq	-12428
rawLoadIdle	-12429
rawLoadNice	-12430
rawLoadUser	-12431
rawLoadSystem	-12432
▁modification	-12433
Zero	-12434
▁explanations	-12435
▁Bit	-12436
binom	-12437
swing	-12438
▁feelings	-12439
▁routines	-12440
built	-12441
▁England	-12442
▁extraction	-12443
ROL	-12444
▁sig	-12445
share	-12446
recated	-12447
▁Answers	-12448
Execution	-12449
▁DB	-12450
udnn	-12451
isons	-12452
▁grep	-12453
▁trip	-12454
Detail	-12455
cached	-12456
▁epoch	-12457
▁privacy	-12458
▁distress	-12459
rog	-12460
Fixed	-12461
▁ritual	-12462
▁summar	-12463
peer	-12464
riage	-12465
▁nerve	-12466
aughter	-12467
▁Though	-12468
calculation	-12469
▁quantitative	-12470
rename	-12471
boldsymbol	-12472
▁vocabulary	-12473
atty	-12474
associ	-12475
redirect	-12476
?”	-12477
▁abdom	-12478
▁spans	-12479
HashMap	-12480
▁trained	-12481
▁occasion	-12482
▁decreasing	-12483
Dat	-12484
spe	-12485
▁Inf	-12486
▁Four	-12487
ivalent	-12488
▁RT	-12489
▁hx	-12490
rize	-12491
PIO	-12492
Uri	-12493
▁yes	-12494
mapping	-12495
▁enrich	-12496
▁wrapper	-12497
▁consuming	-12498
▁restriction	-12499
querySelector	-12500
HOD	-12501
intro	-12502
three	-12503
▁sync	-12504
▁chamb	-12505
▁pursuit	-12506
▁adopting	-12507
▁predominant	-12508
▁da	-12509
▁plas	-12510
energy	-12511
⁻¹	-12512
TAR	-12513
imer	-12514
▁roof	-12515
▁Based	-12516
ndarray	-12517
▁currency	-12518
▁pandemic	-12519
uum	-12520
▁pixels	-12521
▁statistic	-12522
▁pronounced	-12523
▁Fire	-12524
▁Perm	-12525
▁debt	-12526
▁simpler	-12527
▁conducting	-12528
▁triangular	-12529
▁positioning	-12530
dup	-12531
hort	-12532
adoop	-12533
reason	-12534
stable	-12535
▁Student	-12536
▁promising	-12537
/%	-12538
cov	-12539
asket	-12540
▁hygi	-12541
written	-12542
▁pollution	-12543
▁initialize	-12544
<=	-12545
rus	-12546
▁pH	-12547
▁ship	-12548
ologists	-12549
▁Properties	-12550
▁Sam	-12551
▁grows	-12552
Foreign	-12553
Raises	-12554
▁trapez	-12555
annotations	-12556
▁pt	-12557
Fetch	-12558
STATE	-12559
▁abuse	-12560
▁posit	-12561
▁tract	-12562
Gateway	-12563
▁leveraging	-12564
!"	-12565
▁{:	-12566
eras	-12567
alian	-12568
ragma	-12569
erning	-12570
▁memor	-12571
▁parad	-12572
▁audiences	-12573
}}=\	-12574
aired	-12575
▁spot	-12576
▁authorities	-12577
▁transmitted	-12578
HEAD	-12579
▁IMP	-12580
▁tile	-12581
Expect	-12582
Period	-12583
▁arrow	-12584
pany	-12585
▁sensors	-12586
▁reliance	-12587
▁Transform	-12588
will	-12589
▁patents	-12590
▁pharmac	-12591
getString	-12592
closed	-12593
raises	-12594
▁Sample	-12595
▁appoint	-12596
▁raising	-12597
▁arranged	-12598
▁amplitude	-12599
▁recording	-12600
▁cholesterol	-12601
SUN	-12602
▁Jes	-12603
Sprintf	-12604
▁engineered	-12605
▁rectangles	-12606
AI	-12607
▁ambig	-12608
▁immers	-12609
AST	-12610
Buf	-12611
eno	-12612
▁Query	-12613
▁Before	-12614
NAM	-12615
Done	-12616
Play	-12617
▁dust	-12618
▁prohib	-12619
▁maximize	-12620
▁administered	-12621
pres	-12622
aylor	-12623
▁crop	-12624
imitive	-12625
▁shadow	-12626
EVENT	-12627
solving	-12628
▁Nothing	-12629
Resources	-12630
GRO	-12631
▁jump	-12632
egative	-12633
analysis	-12634
▁contradict	-12635
▁Sto	-12636
Additional	-12637
▁differentiation	-12638
▁Ali	-12639
Segment	-12640
▁Special	-12641
▁configured	-12642
QUE	-12643
ratio	-12644
Constantes	-12645
▁inventory	-12646
vals	-12647
▁argue	-12648
▁judgment	-12649
identifier	-12650
▁breathing	-12651
▁Distribution	-12652
LC	-12653
▁grand	-12654
ICT	-12655
bias	-12656
▁Vir	-12657
▁encompasses	-12658
▁possibilities	-12659
Beyond	-12660
▁transparent	-12661
fish	-12662
▁Council	-12663
UINT	-12664
▁DMA	-12665
▁VAR	-12666
▁≥	-12667
appe	-12668
▁Put	-12669
▁Cell	-12670
pts	-12671
}(\	-12672
both	-12673
logs	-12674
▁owners	-12675
▁Content	-12676
▁television	-12677
cx	-12678
eto	-12679
wing	-12680
▁Sal	-12681
▁bath	-12682
havior	-12683
▁Video	-12684
▁facial	-12685
_______,	-12686
▁trading	-12687
▁establishment	-12688
Swing	-12689
marks	-12690
▁sulf	-12691
▁EXISTS	-12692
▁flowers	-12693
CMD	-12694
kub	-12695
▁IV	-12696
emia	-12697
setter	-12698
leading	-12699
Nat	-12700
Sep	-12701
aque	-12702
BUILD	-12703
osity	-12704
▁exceeds	-12705
interpret	-12706
▁compatible	-12707
asis	-12708
Further	-12709
WEBPACK	-12710
▁resolved	-12711
▁constructor	-12712
hello	-12713
▁Steps	-12714
Strategy	-12715
pd	-12716
▁↔	-12717
vin	-12718
INIT	-12719
Hello	-12720
▁somew	-12721
▁hole	-12722
iameter	-12723
▁deaths	-12724
▁buildings	-12725
xb	-12726
opath	-12727
▁alias	-12728
packages	-12729
▁oct	-12730
▁Euler	-12731
▁homework	-12732
axes	-12733
symm	-12734
Price	-12735
▁Card	-12736
detail	-12737
▁Guide	-12738
▁James	-12739
ifiable	-12740
marshal	-12741
▁marker	-12742
▁Americans	-12743
']:	-12744
guild	-12745
panel	-12746
▁Robert	-12747
▁ai	-12748
sage	-12749
issue	-12750
Collect	-12751
icipants	-12752
▁electrons	-12753
▁γ	-12754
esity	-12755
Created	-12756
registry	-12757
omes	-12758
ACTER	-12759
▁agency	-12760
▁rounded	-12761
▁parallelogram	-12762
▁representative	-12763
▁mere	-12764
▁locate	-12765
hd	-12766
mes	-12767
▁Know	-12768
esting	-12769
▁LoDash	-12770
▁falling	-12771
▁repository	-12772
kw	-12773
World	-12774
▁unity	-12775
unknown	-12776
▁district	-12777
ologically	-12778
stmt	-12779
▁rotate	-12780
▁agencies	-12781
ABL	-12782
▁unsafe	-12783
▁generic	-12784
ANS	-12785
pip	-12786
▁tur	-12787
iNdEx	-12788
▁clarify	-12789
infl	-12790
▁Ben	-12791
Called	-12792
getter	-12793
▁screening	-12794
▁stakeholders	-12795
EOF	-12796
▁Ber	-12797
protoc	-12798
▁equity	-12799
▁arrival	-12800
▁connectivity	-12801
alg	-12802
▁Stat	-12803
▁Exper	-12804
▁Double	-12805
Hy	-12806
▁Leg	-12807
ioxid	-12808
▁invert	-12809
resolution	-12810
▁societies	-12811
▁suffering	-12812
Seq	-12813
mesh	-12814
Which	-12815
iture	-12816
overty	-12817
▁fatal	-12818
▁ignored	-12819
▁sorting	-12820
Agg	-12821
▁IT	-12822
Arch	-12823
CTRL	-12824
Home	-12825
Your	-12826
Enable	-12827
itance	-12828
Install	-12829
▁reform	-12830
hn	-12831
calc	-12832
▁Rate	-12833
▁exclusively	-12834
▁ZP	-12835
take	-12836
▁opin	-12837
▁river	-12838
Peer	-12839
review	-12840
▁fifth	-12841
▁gases	-12842
▁lymph	-12843
▁finished	-12844
Cost	-12845
▁inn	-12846
▁WHERE	-12847
▁latter	-12848
atabases	-12849
▁prevents	-12850
▁manipulation	-12851
▁"../	-12852
▁caution	-12853
▁exponents	-12854
$>	-12855
losure	-12856
▁replic	-12857
▁scheduled	-12858
▁elementary	-12859
mx	-12860
acle	-12861
auge	-12862
lene	-12863
enuse	-12864
roles	-12865
▁whom	-12866
▁aspir	-12867
develop	-12868
▁shortest	-12869
▁computers	-12870
phy	-12871
▁([	-12872
>','	-12873
maps	-12874
vectors	-12875
▁sending	-12876
▁literacy	-12877
▁retrieve	-12878
"]),	-12879
Disk	-12880
▁COP	-12881
▁ble	-12882
▁concluded	-12883
▁fo	-12884
amps	-12885
▁tried	-12886
▁Stream	-12887
▁preserved	-12888
}}=	-12889
learn	-12890
union	-12891
Router	-12892
▁inhab	-12893
▁London	-12894
MAN	-12895
▁&'	-12896
Pane	-12897
STRING	-12898
▁Internet	-12899
▁accompany	-12900
▁``=`	-12901
▁allev	-12902
▁peers	-12903
▁broken	-12904
▁correl	-12905
qa	-12906
Fix	-12907
Nil	-12908
▁lay	-12909
▁Food	-12910
▁prism	-12911
%%%%%%%%	-12912
▁Perform	-12913
overnment	-12914
EO	-12915
▁ℝ	-12916
▁Tw	-12917
}$$,	-12918
Encoder	-12919
derived	-12920
▁Online	-12921
▁garden	-12922
▁fashion	-12923
▁crack	-12924
▁outlined	-12925
▁summ	-12926
methods	-12927
▁retail	-12928
▁evaluates	-12929
▁Fahrenheit	-12930
cha	-12931
iph	-12932
▁xml	-12933
uming	-12934
resize	-12935
Children	-12936
▁navigating	-12937
vo	-12938
exas	-12939
▁Auth	-12940
Master	-12941
▁Divide	-12942
▁utilize	-12943
cin	-12944
Java	-12945
Phys	-12946
pick	-12947
▁{})	-12948
▁Help	-12949
▁cursor	-12950
exc	-12951
XSMM	-12952
Objects	-12953
▁appeared	-12954
▁instability	-12955
=_	-12956
▁od	-12957
▁pil	-12958
Ip	-12959
ENS	-12960
▁flash	-12961
▁towards	-12962
placeholder	-12963
\%	-12964
▁Stre	-12965
missing	-12966
natural	-12967
riteria	-12968
Describe	-12969
DIMENSIONS	-12970
▁trigonometric	-12971
▁mL	-12972
▁Tur	-12973
▁bucket	-12974
omorphism	-12975
▁lun	-12976
Speed	-12977
given	-12978
▁fung	-12979
langle	-12980
▁Compar	-12981
▁chemistry	-12982
/-	-12983
hard	-12984
adian	-12985
GC	-12986
)}\	-12987
▁moon	-12988
Remote	-12989
Fi	-12990
SN	-12991
Rot	-12992
Nonnull	-12993
texture	-12994
▁correction	-12995
▁cav	-12996
▁Fund	-12997
Abs	-12998
ths	-12999
cross	-13000
▁taught	-13001
Validation	-13002
▁predictions	-13003
=/	-13004
erator	-13005
NEL	-13006
Tick	-13007
▁cere	-13008
▁theta	-13009
Require	-13010
ivities	-13011
▁Medicine	-13012
▁Security	-13013
▁contamin	-13014
▁OP	-13015
▁arms	-13016
▁inertia	-13017
▁viewing	-13018
Annotation	-13019
▁∧	-13020
ows	-13021
oust	-13022
▁nic	-13023
diction	-13024
▁presenting	-13025
pur	-13026
▁posts	-13027
▁indirect	-13028
adapt	-13029
▁steady	-13030
▁hormone	-13031
▁offline	-13032
Qt	-13033
ITH	-13034
thumb	-13035
coords	-13036
theorem	-13037
▁branches	-13038
▁hundreds	-13039
▁facilitates	-13040
cpp	-13041
reject	-13042
induced	-13043
▁nearby	-13044
▁skilled	-13045
▁diagrams	-13046
TF	-13047
SUR	-13048
LAND	-13049
igon	-13050
▁Dict	-13051
digits	-13052
=['	-13053
endor	-13054
AIRLINE	-13055
▁aligning	-13056
▁systematically	-13057
RNA	-13058
▁Ax	-13059
▁CONTR	-13060
▁adaptive	-13061
▁workplace	-13062
▁Worksheets	-13063
▁coordinated	-13064
lb	-13065
elastic	-13066
ibraries	-13067
notations	-13068
intestinal	-13069
▁gave	-13070
▁gear	-13071
▁king	-13072
shaped	-13073
▁Round	-13074
ypot	-13075
decoder	-13076
▁indeed	-13077
▁instruct	-13078
▁intention	-13079
▁Prot	-13080
▁Rich	-13081
hedron	-13082
helpers	-13083
ashington	-13084
▁$-	-13085
owers	-13086
Dimens	-13087
Packet	-13088
▁puzzle	-13089
racy	-13090
enger	-13091
▁Cond	-13092
▁tangible	-13093
CPP	-13094
------	-13095
▁Sciences	-13096
▁theories	-13097
XML	-13098
NT	-13099
POSE	-13100
dummy	-13101
rotation	-13102
"><	-13103
DEF	-13104
counts	-13105
▁maybe	-13106
▁Hol	-13107
Press	-13108
TABLE	-13109
sections	-13110
Certificate	-13111
▁communicate	-13112
]{	-13113
Ans	-13114
quote	-13115
essment	-13116
▁tokens	-13117
execution	-13118
▁preventive	-13119
▁fav	-13120
▁induced	-13121
▁listener	-13122
UNK	-13123
▁Gal	-13124
▁department	-13125
▁Super	-13126
Generic	-13127
▁signed	-13128
▁websites	-13129
▁democratic	-13130
eks	-13131
oup	-13132
▁ds	-13133
▁ment	-13134
▁thir	-13135
ASSERT	-13136
▁House	-13137
erences	-13138
generic	-13139
▁conjug	-13140
resolved	-13141
▁dimensional	-13142
▁RO	-13143
▁hi	-13144
▁sha	-13145
▁pressing	-13146
CFG	-13147
Year	-13148
team	-13149
▁'{"	-13150
▁Mart	-13151
Angle	-13152
echan	-13153
packet	-13154
▁Mount	-13155
setting	-13156
▁accompl	-13157
===	-13158
▁na	-13159
comb	-13160
-----	-13161
▁lung	-13162
▁coherent	-13163
▁tea	-13164
forall	-13165
▁tends	-13166
▁Should	-13167
▁coming	-13168
onChange	-13169
snapshot	-13170
▁Edition	-13171
▁digestive	-13172
▁permutation	-13173
dn	-13174
glGet	-13175
heast	-13176
▁lose	-13177
filled	-13178
▁Russian	-13179
▁drivers	-13180
▁factorial	-13181
/\	-13182
okes	-13183
examples	-13184
▁mesh	-13185
dating	-13186
▁automatic	-13187
▁strengths	-13188
▁agreements	-13189
apis	-13190
icons	-13191
▁Sets	-13192
▁fertil	-13193
▁determin	-13194
▁satisfies	-13195
;",	-13196
TIVE	-13197
▁Pay	-13198
ermal	-13199
▁nice	-13200
▁receives	-13201
▁substitution	-13202
FAIL	-13203
▁Den	-13204
▁Learn	-13205
defaults	-13206
strictEqual	-13207
{^	-13208
VIS	-13209
Poly	-13210
▁loan	-13211
▁turned	-13212
▁governed	-13213
▁supplied	-13214
▁discipline	-13215
▁Life	-13216
######	-13217
▁baseline	-13218
▁illustrating	-13219
HR	-13220
JS	-13221
ima	-13222
▁<>	-13223
▁Short	-13224
▁Buffer	-13225
▁exclusive	-13226
***	-13227
uris	-13228
▁cable	-13229
pending	-13230
▁doctor	-13231
▁registry	-13232
▁Pythagorean	-13233
defineProperty	-13234
▁interpretations	-13235
Der	-13236
▁draft	-13237
▁speak	-13238
▁proxim	-13239
▁distant	-13240
InputStream	-13241
Apply	-13242
family	-13243
icious	-13244
racing	-13245
▁taste	-13246
idential	-13247
fv	-13248
▁careg	-13249
▁widget	-13250
▁regener	-13251
GroupName	-13252
▁antioxid	-13253
GTH	-13254
..."	-13255
▁receiver	-13256
▁joy	-13257
▁nur	-13258
PLUS	-13259
good	-13260
▁Like	-13261
Driver	-13262
ferred	-13263
ugment	-13264
▁neurological	-13265
cks	-13266
AUTH	-13267
quick	-13268
reply	-13269
legend	-13270
bell	-13271
▁Quant	-13272
verages	-13273
economic	-13274
▁Children	-13275
>=	-13276
▁Labor	-13277
▁toxic	-13278
▁visits	-13279
▁streams	-13280
▁suppress	-13281
▁Application	-13282
SED	-13283
SUB	-13284
ajax	-13285
▁SEC	-13286
▁cam	-13287
azure	-13288
▁modes	-13289
▁unclear	-13290
▁agriculture	-13291
▁RNA	-13292
▁listening	-13293
*.	-13294
bid	-13295
city	-13296
oving	-13297
Effect	-13298
▁Document	-13299
▁allocation	-13300
▁guaranteed	-13301
DL	-13302
night	-13303
THFloatTensor	-13304
”,	-13305
$('.	-13306
ensure	-13307
central	-13308
”.	-13309
Norm	-13310
lder	-13311
maxim	-13312
▁Bool	-13313
▁purs	-13314
wallet	-13315
▁Worksheet	-13316
ele	-13317
▁ending	-13318
▁retriev	-13319
▁Homework	-13320
▁predominantly	-13321
mc	-13322
Rules	-13323
ubble	-13324
▁")	-13325
▁implicit	-13326
▁rom	-13327
▁finger	-13328
▁essence	-13329
performance	-13330
**************	-13331
NG	-13332
DROP	-13333
▁lex	-13334
bench	-13335
▁brings	-13336
▁COMMENT	-13337
▁optimize	-13338
▁adjusting	-13339
tot	-13340
▁payments	-13341
▁perceive	-13342
▁prospect	-13343
▁concerning	-13344
▁occurrence	-13345
▁windows	-13346
▁spending	-13347
▁professor	-13348
▁preference	-13349
▁Distance	-13350
SB	-13351
ivo	-13352
▁Br	-13353
Secret	-13354
▁spark	-13355
addClass	-13356
▁imaginary	-13357
▁authentication	-13358
alink	-13359
bundle	-13360
IMPORTED	-13361
▁attempting	-13362
bur	-13363
Mill	-13364
▁remed	-13365
▁demanding	-13366
Why	-13367
Less	-13368
atility	-13369
▁closure	-13370
▁surpass	-13371
▁seasonal	-13372
▁restrictions	-13373
ein	-13374
chem	-13375
="/	-13376
▁Eq	-13377
▁rail	-13378
▁Length	-13379
neigh	-13380
▁DATA	-13381
▁pace	-13382
▁humanity	-13383
▁predicted	-13384
implies	-13385
aper	-13386
▁pse	-13387
Alloc	-13388
▁flip	-13389
choice	-13390
▁contributors	-13391
▁substantially	-13392
lie	-13393
outs	-13394
useum	-13395
▁Rout	-13396
▁Cloud	-13397
ariance	-13398
▁selector	-13399
▁Washington	-13400
Fill	-13401
('../	-13402
Proof	-13403
▁inspired	-13404
▁innovations	-13405
▁sophisticated	-13406
NODE	-13407
▁radi	-13408
▁radians	-13409
transport	-13410
▁progressive	-13411
▁appreciation	-13412
`),	-13413
▁lb	-13414
larg	-13415
Final	-13416
▁Third	-13417
▁wanted	-13418
▁Compute	-13419
▁advances	-13420
▁transforms	-13421
▁Stand	-13422
ruction	-13423
ximately	-13424
▁distort	-13425
▁singular	-13426
▁definitive	-13427
▁transferred	-13428
ague	-13429
ella	-13430
throp	-13431
▁pitch	-13432
▁inspect	-13433
TOK	-13434
▁NS	-13435
wiki	-13436
liers	-13437
▁inadequate	-13438
▁demographic	-13439
ea	-13440
baz	-13441
▁legs	-13442
ICATION	-13443
▁hygiene	-13444
▁autonomy	-13445
must	-13446
Actual	-13447
BUFFER	-13448
density	-13449
learning	-13450
▁inspection	-13451
jav	-13452
Phone	-13453
▁notably	-13454
▁sciences	-13455
▁compromise	-13456
]):	-13457
was	-13458
aping	-13459
▁detecting	-13460
...,	-13461
▁fitness	-13462
▁visitors	-13463
▁determinant	-13464
▁supplements	-13465
{\"	-13466
iful	-13467
▁{}",	-13468
Radius	-13469
ulty	-13470
▁Alex	-13471
ailing	-13472
▁volts	-13473
Missing	-13474
▁transitions	-13475
lux	-13476
Loss	-13477
freq	-13478
}}_{	-13479
combin	-13480
▁Maint	-13481
▁Texas	-13482
Machine	-13483
▁equivalence	-13484
▁timer	-13485
Material	-13486
ACC	-13487
itt	-13488
Fire	-13489
▁indoor	-13490
lon	-13491
)$$.	-13492
imen	-13493
liest	-13494
▁pert	-13495
▁unus	-13496
plotlib	-13497
▁printed	-13498
GUI	-13499
▁vo	-13500
ernet	-13501
▁incent	-13502
▁Virtual	-13503
▁dividend	-13504
processing	-13505
Ag	-13506
zure	-13507
▁Cos	-13508
▁White	-13509
▁earned	-13510
PyObject	-13511
Sql	-13512
slot	-13513
▁subs	-13514
▁plots	-13515
▁routes	-13516
▁stones	-13517
renderer	-13518
▁Business	-13519
▁Description	-13520
▁conclusions	-13521
AGES	-13522
Feed	-13523
▁ordering	-13524
▁parabola	-13525
▁traditionally	-13526
sz	-13527
<<<	-13528
▁git	-13529
fname	-13530
▁absent	-13531
▁combines	-13532
▁kidney	-13533
▁HashMap	-13534
Available	-13535
Tex	-13536
eless	-13537
▁logs	-13538
▁award	-13539
▁fatty	-13540
setText	-13541
▁Middle	-13542
▁Initial	-13543
▁authenticity	-13544
▁`            ``	-13545
bles	-13546
Kernel	-13547
hadoop	-13548
Decoder	-13549
▁concat	-13550
▁pursue	-13551
▁mountain	-13552
IMAGE	-13553
commons	-13554
▁Module	-13555
▁engines	-13556
▁TypeError	-13557
[],	-13558
men	-13559
▁Mor	-13560
Executor	-13561
iger	-13562
mits	-13563
▁Copy	-13564
Bottom	-13565
▁NCERT	-13566
verting	-13567
descriptor	-13568
▁accordingly	-13569
▁inconsistent	-13570
Disc	-13571
ushing	-13572
prising	-13573
▁Otherwise	-13574
gres	-13575
▁Mary	-13576
▁strip	-13577
▁stuff	-13578
▁statistically	-13579
ounsel	-13580
▁negot	-13581
implement	-13582
Implemented	-13583
ifferential	-13584
▁fractional	-13585
fx	-13586
ssh	-13587
inate	-13588
monoid	-13589
▁Jesus	-13590
|)	-13591
neq	-13592
▁'"	-13593
istan	-13594
ussia	-13595
▁epid	-13596
Support	-13597
personal	-13598
▁threadIdx	-13599
emo	-13600
Make	-13601
posal	-13602
determ	-13603
▁variants	-13604
TT	-13605
▁flaw	-13606
innerHTML	-13607
four	-13608
lass	-13609
between	-13610
▁remarkable	-13611
▁fee	-13612
itories	-13613
requires	-13614
iciencies	-13615
Union	-13616
▁LIMIT	-13617
▁carbo	-13618
▁uniqu	-13619
▁Different	-13620
▁settlement	-13621
EF	-13622
tz	-13623
arded	-13624
FUNCTION	-13625
▁Explain	-13626
▁regulate	-13627
ean	-13628
iro	-13629
▁Bank	-13630
Should	-13631
▁aband	-13632
Through	-13633
▁Member	-13634
▁permit	-13635
Resolver	-13636
gressive	-13637
projects	-13638
▁dysfunction	-13639
ropical	-13640
sources	-13641
products	-13642
▁willing	-13643
migrations	-13644
▁oversight	-13645
▁inflammatory	-13646
▁contamination	-13647
▁Face	-13648
▁encoded	-13649
▁himself	-13650
Emb	-13651
▁SP	-13652
Cuda	-13653
▁GCF	-13654
ampler	-13655
▁agree	-13656
▁irregular	-13657
'-	-13658
tbl	-13659
chen	-13660
Cursor	-13661
telling	-13662
▁pressures	-13663
Hub	-13664
},{"	-13665
▁meal	-13666
estone	-13667
▁attachment	-13668
▁convenience	-13669
MPL	-13670
boxes	-13671
▁resh	-13672
▁finds	-13673
▁forced	-13674
Variables	-13675
▁localized	-13676
uctive	-13677
▁opens	-13678
configure	-13679
statement	-13680
▁visualization	-13681
]])	-13682
CHAN	-13683
inement	-13684
▁hyperb	-13685
▁evaluations	-13686
ENV	-13687
}\,	-13688
▁brown	-13689
positions	-13690
rases	-13691
Screen	-13692
▁safely	-13693
ATOR	-13694
Dataset	-13695
Subscription	-13696
rgb	-13697
▁ns	-13698
inet	-13699
}}{{	-13700
▁Prior	-13701
▁retry	-13702
▁sweet	-13703
dynamic	-13704
scribed	-13705
addEventListener	-13706
Tri	-13707
nnl	-13708
▁membrane	-13709
Reset	-13710
{^}{\	-13711
▁motiv	-13712
Connect	-13713
▁Modern	-13714
repository	-13715
risk	-13716
▁ages	-13717
▁ENGINE	-13718
▁Summary	-13719
▁improper	-13720
ultiplying	-13721
▁sentences	-13722
▁automation	-13723
▁credibility	-13724
blog	-13725
sama	-13726
ATTRIB	-13727
▁Orig	-13728
▁sour	-13729
▁swap	-13730
ducing	-13731
▁clone	-13732
▁papers	-13733
currency	-13734
sure	-13735
▁copper	-13736
imination	-13737
▁approval	-13738
▁packages	-13739
▁observing	-13740
oulut	-13741
▁Circ	-13742
DataFrame	-13743
conds	-13744
members	-13745
targets	-13746
RM	-13747
WI	-13748
▁Arg	-13749
▁mamm	-13750
▁thro	-13751
signature	-13752
▁securing	-13753
▁₹	-13754
Subst	-13755
erated	-13756
deploy	-13757
▁grown	-13758
▁Execut	-13759
▁stride	-13760
▁obesity	-13761
▁translate	-13762
DU	-13763
mw	-13764
asts	-13765
opens	-13766
Arrays	-13767
▁recept	-13768
▁downward	-13769
▁validity	-13770
▁separately	-13771
zym	-13772
▁Sol	-13773
▁bash	-13774
▁Statement	-13775
▁appearing	-13776
NESS	-13777
▁Moon	-13778
iosity	-13779
itarian	-13780
iments	-13781
▁Analy	-13782
oriented	-13783
▁everyone	-13784
Serializer	-13785
▁≈	-13786
Blocks	-13787
▁axiom	-13788
▁elevation	-13789
Emp	-13790
LAY	-13791
NAL	-13792
trl	-13793
pixel	-13794
▁overl	-13795
▁surge	-13796
encoded	-13797
▁Company	-13798
▁enforcement	-13799
▁fluctuations	-13800
listener	-13801
CharField	-13802
▁Abstract	-13803
▁confront	-13804
ANGU	-13805
▁Doc	-13806
irmed	-13807
▁chick	-13808
▁fossil	-13809
Renderer	-13810
▁popularity	-13811
▁fram	-13812
DECLAR	-13813
▁hosts	-13814
▁prompted	-13815
Maybe	-13816
▁plates	-13817
▁assumes	-13818
▁pricing	-13819
amazonaws	-13820
▁carrying	-13821
▁broadcast	-13822
▁reflective	-13823
xa	-13824
▁gut	-13825
▁Connect	-13826
▁scaling	-13827
Validator	-13828
icul	-13829
ewise	-13830
Locale	-13831
▁Church	-13832
▁liters	-13833
▁°	-13834
▁CL	-13835
▁cod	-13836
▁uri	-13837
▁Israel	-13838
▁residential	-13839
Est	-13840
▁knowing	-13841
▁incidents	-13842
▁resilient	-13843
▁FA	-13844
erce	-13845
▁deform	-13846
▁cardiac	-13847
▁shifted	-13848
RAINT	-13849
▁affili	-13850
Management	-13851
concurrent	-13852
▁physically	-13853
Blob	-13854
▁dos	-13855
▁bold	-13856
▁vill	-13857
aratus	-13858
ishment	-13859
▁advertising	-13860
▁maths	-13861
numbers	-13862
onymous	-13863
▁router	-13864
▁discharge	-13865
▁distribute	-13866
▁submission	-13867
▁anticipated	-13868
▁Alternatively	-13869
▁microbial	-13870
▁projected	-13871
▁repeatedly	-13872
▁cooperation	-13873
tex	-13874
major	-13875
omaly	-13876
▁dice	-13877
ivariate	-13878
DECLARATION	-13879
▁determination	-13880
▁SPI	-13881
▁lic	-13882
foreign	-13883
▁suffix	-13884
▁injection	-13885
▁interfaces	-13886
▁pod	-13887
strong	-13888
▁farming	-13889
▁speaking	-13890
▁bundle	-13891
▁evenly	-13892
▁Resources	-13893
▁investigates	-13894
Static	-13895
Signature	-13896
▁temporal	-13897
▁destruction	-13898
▁£	-13899
odd	-13900
acific	-13901
customer	-13902
▁*=	-13903
oviet	-13904
▁Vert	-13905
▁paras	-13906
▁Wikipedia	-13907
?.	-13908
{{\	-13909
▁ul	-13910
heel	-13911
olit	-13912
▁escal	-13913
▁checked	-13914
tu	-13915
Tipo	-13916
orge	-13917
mbols	-13918
▁Good	-13919
▁lifes	-13920
▁styled	-13921
geometry	-13922
▁poverty	-13923
serialize	-13924
▁<$>	-13925
▁ran	-13926
Alias	-13927
hfill	-13928
▁Grid	-13929
▁Send	-13930
▁adhes	-13931
▁Within	-13932
▁discre	-13933
Operator	-13934
▁Fourier	-13935
▁mineral	-13936
▁metabolism	-13937
jInternalFrame	-13938
Qual	-13939
race	-13940
circuit	-13941
Formatter	-13942
Unexpected	-13943
▁qualities	-13944
▁Mathematical	-13945
inp	-13946
▁socio	-13947
CONTROL	-13948
portion	-13949
▁beauty	-13950
Platform	-13951
▁winning	-13952
▁IR	-13953
▁disp	-13954
ograms	-13955
▁chest	-13956
▁semic	-13957
▁Assert	-13958
▁renown	-13959
▁consent	-13960
▁delayed	-13961
▁Commission	-13962
▁estimation	-13963
Mar	-13964
tax	-13965
▁Cons	-13966
▁conce	-13967
Research	-13968
getLogger	-13969
especially	-13970
)'	-13971
Vm	-13972
Ignore	-13973
▁empathy	-13974
▁matched	-13975
RUN	-13976
▁loy	-13977
▁intra	-13978
▁couple	-13979
\;	-13980
▁pv	-13981
proj	-13982
▁Che	-13983
▁curv	-13984
▁tiles	-13985
▁comparisons	-13986
upp	-13987
▁Taylor	-13988
▁gradual	-13989
▁incoming	-13990
▁initiate	-13991
Paths	-13992
yroid	-13993
threads	-13994
}},	-13995
▁"[	-13996
▁md	-13997
▁mim	-13998
▁midpoint	-13999
▁receptor	-14000
▁investors	-14001
▁methodologies	-14002
pac	-14003
Omega	-14004
QUEST	-14005
▁frustr	-14006
▁clusters	-14007
▁verification	-14008
▁Bob	-14009
▁Lik	-14010
▁Care	-14011
LayerParameter	-14012
▁ps	-14013
▁ri	-14014
▁BUT	-14015
▁tet	-14016
▁altered	-14017
▁manufacturer	-14018
"];	-14019
▁pk	-14020
▁poem	-14021
hostname	-14022
▁authored	-14023
▁overcome	-14024
▁exemplifies	-14025
▁Commit	-14026
building	-14027
priority	-14028
▁renowned	-14029
▁arrangements	-14030
▁GNU	-14031
INDEX	-14032
machine	-14033
▁Scientific	-14034
LU	-14035
recv	-14036
Coord	-14037
INVALID	-14038
contents	-14039
▁keyword	-14040
IDE	-14041
itz	-14042
acles	-14043
▁CInt	-14044
Shared	-14045
▁argues	-14046
vertical	-14047
eh	-14048
inx	-14049
▁AWS	-14050
▁proj	-14051
Upload	-14052
▁Angle	-14053
Detalle	-14054
algebra	-14055
▁evolve	-14056
▁silver	-14057
============	-14058
"$	-14059
Scan	-14060
THREAD	-14061
▁artist	-14062
▁rejected	-14063
▁supplies	-14064
▁concludes	-14065
Compar	-14066
▁shock	-14067
▁clothing	-14068
▁currents	-14069
>:	-14070
▁\;	-14071
▁proxy	-14072
contract	-14073
▁dealing	-14074
▁bear	-14075
▁longest	-14076
checkpoint	-14077
▁primitive	-14078
▁preservation	-14079
ashes	-14080
▁cylind	-14081
▁island	-14082
▁polymer	-14083
Ms	-14084
▁vapor	-14085
▁Helper	-14086
▁harvest	-14087
▁passive	-14088
LowerCase	-14089
agination	-14090
Publ	-14091
itches	-14092
exceptions	-14093
▁registration	-14094
ados	-14095
▁addr	-14096
▁weekly	-14097
triangle	-14098
structured	-14099
▁millimeters	-14100
("<	-14101
problem	-14102
hemistry	-14103
ih	-14104
▁vote	-14105
ictional	-14106
▁closest	-14107
▁constitutes	-14108
iem	-14109
▁pivot	-14110
▁swift	-14111
▁keeping	-14112
▁parseInt	-14113
scriptions	-14114
▁consensus	-14115
PIMS	-14116
catalog	-14117
▁Address	-14118
▁Services	-14119
▁performs	-14120
▁unnecessary	-14121
oped	-14122
▁repo	-14123
attach	-14124
reflect	-14125
ochemical	-14126
subscribe	-14127
▁rotating	-14128
▁Polynomial	-14129
▁practitioners	-14130
>/	-14131
empi	-14132
▁bat	-14133
Stage	-14134
▁boys	-14135
unsafe	-14136
itempty	-14137
▁partially	-14138
▁quadrilateral	-14139
ASA	-14140
Sdk	-14141
idable	-14142
inking	-14143
Measure	-14144
▁simulate	-14145
▁expectation	-14146
Sol	-14147
binding	-14148
omitempty	-14149
fi	-14150
ENCE	-14151
rend	-14152
▁/**	-14153
Allow	-14154
▁Place	-14155
▁poses	-14156
______,	-14157
Students	-14158
▁Results	-14159
LP	-14160
edu	-14161
▁Ann	-14162
▁iterations	-14163
REAM	-14164
want	-14165
▁decide	-14166
▁interference	-14167
,\,\	-14168
letter	-14169
shadow	-14170
prepare	-14171
▁refresh	-14172
▁accompanying	-14173
:$	-14174
cers	-14175
CRIPT	-14176
▁bars	-14177
▁kept	-14178
minute	-14179
archive	-14180
▁opened	-14181
▁}$$	-14182
veled	-14183
Runner	-14184
▁Parse	-14185
▁feels	-14186
ANGUAGE	-14187
▁Thread	-14188
▁chains	-14189
modified	-14190
▁closing	-14191
▁pp	-14192
Reals	-14193
vision	-14194
▁guarantee	-14195
Ctx	-14196
attack	-14197
SURPLUS	-14198
▁charts	-14199
▁Lib	-14200
▁fly	-14201
▁swim	-14202
▁calor	-14203
▁horse	-14204
literal	-14205
▁prescribed	-14206
▁assignments	-14207
▁eigenvalues	-14208
Nav	-14209
Jump	-14210
Slot	-14211
Compat	-14212
_______	-14213
▁thoroughly	-14214
▁pm	-14215
▁wa	-14216
Zone	-14217
isdom	-14218
ampled	-14219
▁reads	-14220
▁defaults	-14221
信息	-14222
itu	-14223
▁apt	-14224
▁artists	-14225
▁pharmaceutical	-14226
▁Psych	-14227
▁imper	-14228
▁feeling	-14229
▁holistic	-14230
▁validated	-14231
▁PC	-14232
▁VL	-14233
ETER	-14234
Works	-14235
finish	-14236
▁alumin	-14237
▁breaks	-14238
▁mindful	-14239
▁packaging	-14240
▁Flor	-14241
NUMBER	-14242
apters	-14243
initions	-14244
▁colonial	-14245
CLK	-14246
▁FIT	-14247
ogens	-14248
▁combust	-14249
▁joining	-14250
▁capturing	-14251
▁converter	-14252
ova	-14253
▁fort	-14254
▁multif	-14255
▁infected	-14256
▁containers	-14257
oi	-14258
▁Thank	-14259
▁excluded	-14260
▁supplementary	-14261
>>,	-14262
ethe	-14263
asked	-14264
ented	-14265
▁para	-14266
▁coating	-14267
▁apparatus	-14268
▁consequence	-14269
’,	-14270
xyz	-14271
qual	-14272
▁[]*	-14273
▁deterior	-14274
▁histogram	-14275
▁interview	-14276
spy	-14277
eeze	-14278
▁Bro	-14279
▁Label	-14280
▁vacuum	-14281
▁persons	-14282
▁weakness	-14283
▁excellent	-14284
▁credentials	-14285
▁cultivation	-14286
▁storytelling	-14287
▁instructional	-14288
ARRAY	-14289
▁Expr	-14290
++){	-14291
ENTO	-14292
itus	-14293
Commit	-14294
aiempi	-14295
▁veter	-14296
illance	-14297
▁Channel	-14298
▁'$	-14299
Elem	-14300
__':	-14301
▁boot	-14302
roadcast	-14303
▁linking	-14304
▁revision	-14305
▁influential	-14306
__()	-14307
▁RES	-14308
Analy	-14309
books	-14310
▁crow	-14311
modify	-14312
▁shield	-14313
▁differs	-14314
▁overlap	-14315
setAttribute	-14316
ulp	-14317
nums	-14318
▁'--	-14319
▁trim	-14320
Styles	-14321
▁originated	-14322
${\	-14323
elve	-14324
worth	-14325
Members	-14326
▁invent	-14327
omething	-14328
▁approved	-14329
▁categorized	-14330
dns	-14331
▁Invest	-14332
▁tumors	-14333
conscious	-14334
▁observer	-14335
▁`    ``//	-14336
▁optimized	-14337
▁MO	-14338
irror	-14339
▁Prove	-14340
▁Soviet	-14341
▁ethnic	-14342
▁massive	-14343
▁licensed	-14344
orer	-14345
}/${	-14346
ducer	-14347
rance	-14348
SERVER	-14349
consum	-14350
▁Token	-14351
▁infants	-14352
nf	-14353
▁liv	-14354
URPOSE	-14355
▁decided	-14356
▁captures	-14357
▁compress	-14358
PREFIX	-14359
pragma	-14360
syntax	-14361
optimizer	-14362
▁Implement	-14363
ropri	-14364
clipse	-14365
ilinear	-14366
▁nested	-14367
▁urgent	-14368
▁ga	-14369
▁>>>	-14370
▁blob	-14371
Attrib	-14372
▁quote	-14373
▁seeks	-14374
average	-14375
Constraint	-14376
▁processor	-14377
▁rotational	-14378
Mo	-14379
MPI	-14380
argo	-14381
▁Compare	-14382
▁reputation	-14383
YPE	-14384
React	-14385
charg	-14386
inson	-14387
▁Tags	-14388
▁nom	-14389
▁trunc	-14390
▁expend	-14391
▁mining	-14392
▁servers	-14393
▁entertain	-14394
▁vulnerability	-14395
Sets	-14396
▁ton	-14397
inely	-14398
▁Russia	-14399
▁vascular	-14400
▁acceptance	-14401
▁⇒	-14402
FROM	-14403
ando	-14404
bris	-14405
▁Atl	-14406
Regex	-14407
DELETE	-14408
▁builds	-14409
▁imagery	-14410
▁uniformly	-14411
emed	-14412
seen	-14413
▁penet	-14414
▁contributor	-14415
sd	-14416
("[	-14417
quot	-14418
▁dent	-14419
▁vocal	-14420
transpose	-14421
▁drinking	-14422
(%	-14423
,(	-14424
jsp	-14425
OUTPUT	-14426
▁hypert	-14427
▁dangerous	-14428
▁mutations	-14429
operatorname	-14430
▁EM	-14431
▁OK	-14432
inher	-14433
▁Allow	-14434
▁valve	-14435
▁Success	-14436
▁Challenge	-14437
▁designing	-14438
'/	-14439
RP	-14440
▁≡	-14441
DED	-14442
Could	-14443
▁curr	-14444
DEVICE	-14445
▁heter	-14446
conditions	-14447
AWS	-14448
Bounds	-14449
Following	-14450
LCM	-14451
▁tal	-14452
Delay	-14453
Round	-14454
ACTION	-14455
▁Franc	-14456
▁Academy	-14457
▁governments	-14458
olesc	-14459
▁Future	-14460
▁Illegal	-14461
▁complementary	-14462
▁electromagnetic	-14463
ko	-14464
Plot	-14465
▁damp	-14466
▁amino	-14467
rackets	-14468
▁acquired	-14469
▁dominance	-14470
GROUP	-14471
▁Rect	-14472
repeat	-14473
ADDRESS	-14474
transfer	-14475
▁Creates	-14476
▁depicted	-14477
▁greenhouse	-14478
pw	-14479
}}}	-14480
dense	-14481
CLIENT	-14482
reated	-14483
▁exams	-14484
▁meets	-14485
ascript	-14486
▁warrant	-14487
'];	-14488
azz	-14489
Html	-14490
ders	-14491
Family	-14492
course	-14493
allowed	-14494
bes	-14495
▁coil	-14496
▁drives	-14497
▁comparative	-14498
')).	-14499
▁tid	-14500
LENGTH	-14501
▁masses	-14502
▁leverage	-14503
iy	-14504
THON	-14505
ceil	-14506
gons	-14507
century	-14508
▁absorb	-14509
▁battle	-14510
▁concise	-14511
▁earliest	-14512
ortunately	-14513
▁constitutional	-14514
Dao	-14515
▁Ro	-14516
▁Observ	-14517
Dispatch	-14518
▁belongs	-14519
▁Fraction	-14520
lg	-14521
apps	-14522
▁`//	-14523
lices	-14524
▁Bern	-14525
▁Cost	-14526
Border	-14527
Extract	-14528
▁decomposition	-14529
!)	-14530
pic	-14531
ermat	-14532
▁Debug	-14533
▁crops	-14534
▁Euclidean	-14535
▁accelerate	-14536
▁intentional	-14537
!\	-14538
Und	-14539
Month	-14540
▁unint	-14541
▁miscon	-14542
▁accessed	-14543
▁Algorithm	-14544
▁analytics	-14545
▁compensation	-14546
MIB	-14547
▁sx	-14548
▁pel	-14549
▁males	-14550
▁fu	-14551
flush	-14552
External	-14553
]",	-14554
keyp	-14555
▁ven	-14556
works	-14557
▁Byte	-14558
▁Plot	-14559
▁Natural	-14560
▁incomplete	-14561
▁sequential	-14562
▁Mer	-14563
ussion	-14564
payment	-14565
▁Motion	-14566
▁habitat	-14567
HD	-14568
▁DI	-14569
▁spend	-14570
Subject	-14571
▁scroll	-14572
substring	-14573
▁proficiency	-14574
▁occasionally	-14575
BTM	-14576
ifty	-14577
ghttp	-14578
Thanks	-14579
▁farmers	-14580
▁Remember	-14581
Are	-14582
ISH	-14583
Like	-14584
▁ids	-14585
▁uph	-14586
().__	-14587
design	-14588
▁focal	-14589
Filters	-14590
relative	-14591
▁Congress	-14592
toLowerCase	-14593
)*(	-14594
poll	-14595
▁impedance	-14596
La	-14597
toHave	-14598
▁smoking	-14599
▁unchanged	-14600
▁psychology	-14601
▁THIS	-14602
▁virt	-14603
▁damaged	-14604
▁Material	-14605
\'	-14606
$$-	-14607
(**	-14608
▁DAM	-14609
▁Zero	-14610
▁mile	-14611
▁impaired	-14612
▁equilateral	-14613
eu	-14614
={'	-14615
MSG	-14616
anda	-14617
▁Poly	-14618
Images	-14619
▁Prote	-14620
article	-14621
basename	-14622
▁manufacturers	-14623
('-	-14624
rif	-14625
▁ans	-14626
inject	-14627
▁mindset	-14628
▁activated	-14629
▁curiosity	-14630
▁inquiries	-14631
▁libraries	-14632
▁obtaining	-14633
pn	-14634
cot	-14635
▁Auto	-14636
▁borrow	-14637
▁breaking	-14638
SUP	-14639
▁Bas	-14640
▁cubes	-14641
ynamics	-14642
requests	-14643
▁weighted	-14644
▁decreased	-14645
Instruction	-14646
▁dependencies	-14647
DAT	-14648
ictor	-14649
omics	-14650
ritis	-14651
▁chat	-14652
Labels	-14653
▁Course	-14654
▁numeric	-14655
▁subgroup	-14656
▁submitted	-14657
▁dependency	-14658
▁spont	-14659
▁People	-14660
QUESTION	-14661
▁neurons	-14662
▁symptom	-14663
nabla	-14664
▁Scal	-14665
astype	-14666
evaluate	-14667
▁visited	-14668
evt	-14669
▁biod	-14670
Camera	-14671
otypes	-14672
urated	-14673
▁stating	-14674
OwnProperty	-14675
▁AT	-14676
curl	-14677
hydr	-14678
varphi	-14679
Updated	-14680
▁plasma	-14681
▁Finding	-14682
▁typename	-14683
lst	-14684
▁Has	-14685
CHANT	-14686
▁wrap	-14687
Library	-14688
▁deviations	-14689
mill	-14690
panic	-14691
▁guides	-14692
Transport	-14693
▁iterator	-14694
▁critically	-14695
▁overwhelming	-14696
▁Mr	-14697
ENABLE	-14698
Lookup	-14699
Switch	-14700
establ	-14701
opacity	-14702
▁decade	-14703
▁planes	-14704
▁similarity	-14705
▁MER	-14706
▁blo	-14707
▁www	-14708
Based	-14709
ushed	-14710
▁Options	-14711
▁justify	-14712
▁millions	-14713
Tile	-14714
▁asks	-14715
uscript	-14716
getInstance	-14717
▁lateral	-14718
▁strengthening	-14719
lm	-14720
Ratio	-14721
imental	-14722
▁grades	-14723
capacity	-14724
▁Michael	-14725
▁fragments	-14726
fw	-14727
▁PV	-14728
Exists	-14729
▁Computer	-14730
▁ال	-14731
crypto	-14732
▁emerges	-14733
▁Position	-14734
▁campaigns	-14735
▁inflation	-14736
▁intrinsic	-14737
▁"{	-14738
marker	-14739
▁Apply	-14740
▁solver	-14741
Artifact	-14742
▁wildlife	-14743
BM	-14744
▁∂	-14745
gem	-14746
weet	-14747
hyper	-14748
oscel	-14749
▁cann	-14750
▁firms	-14751
▁debris	-14752
counters	-14753
▁rolling	-14754
continuous	-14755
inch	-14756
▁Tor	-14757
▁deck	-14758
licity	-14759
▁cohort	-14760
▁Sequence	-14761
▁convention	-14762
▁descriptor	-14763
leaf	-14764
▁aren	-14765
▁Memory	-14766
▁backup	-14767
▁descript	-14768
▁compassion	-14769
▁orthogonal	-14770
"<	-14771
▁Li	-14772
CONN	-14773
bean	-14774
relu	-14775
▁jobs	-14776
osceles	-14777
present	-14778
▁investments	-14779
rat	-14780
▁NE	-14781
inery	-14782
▁eleg	-14783
▁fake	-14784
filtered	-14785
▁chemicals	-14786
opp	-14787
LINK	-14788
ckets	-14789
▁Define	-14790
▁whenever	-14791
Components	-14792
DEV	-14793
dark	-14794
▁elig	-14795
▁exec	-14796
adjust	-14797
▁vivid	-14798
▁elabor	-14799
Multiply	-14800
Arguments	-14801
WH	-14802
▁Wil	-14803
▁Frame	-14804
▁harmon	-14805
FileName	-14806
urrences	-14807
▁alphabet	-14808
▁Cartesian	-14809
Constructor	-14810
assertFalse	-14811
CHANTABILITY	-14812
fee	-14813
lan	-14814
acerb	-14815
▁pend	-14816
userId	-14817
▁drops	-14818
▁enzyme	-14819
▁avoided	-14820
▁inaccur	-14821
▁microsc	-14822
▁invasive	-14823
▁belonging	-14824
▁Enc	-14825
▁Size	-14826
choose	-14827
▁counsel	-14828
▁customized	-14829
▁ster	-14830
Comput	-14831
bum	-14832
("--	-14833
starts	-14834
▁Florida	-14835
▁dedication	-14836
▁restoration	-14837
*:	-14838
Src	-14839
omp	-14840
▁hs	-14841
urls	-14842
▁[])	-14843
▁dial	-14844
▁fees	-14845
▁felt	-14846
TICULAR	-14847
▁canvas	-14848
▁nuanced	-14849
represent	-14850
▁diagnosed	-14851
iol	-14852
many	-14853
▁COL	-14854
elled	-14855
▁wast	-14856
▁stance	-14857
▁Notation	-14858
▁recurrence	-14859
UX	-14860
bone	-14861
otive	-14862
atever	-14863
glVertex	-14864
▁encryption	-14865
▁relaxation	-14866
▁inspiration	-14867
▁δ	-14868
Hist	-14869
iest	-14870
▁");	-14871
▁lig	-14872
▁loops	-14873
▁joined	-14874
▁adjustment	-14875
eal	-14876
eding	-14877
▁Play	-14878
▁butter	-14879
versions	-14880
'{	-14881
RD	-14882
rug	-14883
▁enzym	-14884
▁films	-14885
ainable	-14886
▁flowing	-14887
ClassName	-14888
zo	-14889
CURR	-14890
noise	-14891
▁Into	-14892
▁uuid	-14893
▁posed	-14894
contrib	-14895
Requests	-14896
projection	-14897
tv	-14898
Help	-14899
▁fer	-14900
▁Null	-14901
jQuery	-14902
▁Proof	-14903
▁rendered	-14904
BIN	-14905
▁UI	-14906
TODO	-14907
five	-14908
imag	-14909
lift	-14910
▁rice	-14911
▁defend	-14912
▁thrown	-14913
▁exacerb	-14914
Converter	-14915
▁deficiency	-14916
angent	-14917
startswith	-14918
▁PartialEq	-14919
▁conversations	-14920
NF	-14921
▁Tut	-14922
▁gent	-14923
Origin	-14924
Columns	-14925
▁expensive	-14926
▁possesses	-14927
▁spherical	-14928
▁acknowledges	-14929
▁si	-14930
▁County	-14931
▁locally	-14932
temperature	-14933
oidal	-14934
erable	-14935
▁PURPOSE	-14936
normalize	-14937
▁confined	-14938
▁disruptions	-14939
▁Organization	-14940
▁distinguished	-14941
)){	-14942
tor	-14943
▁"@	-14944
pref	-14945
▁\\[	-14946
▁COPY	-14947
frames	-14948
market	-14949
receive	-14950
▁prolif	-14951
▁thesis	-14952
▁Concept	-14953
▁inserted	-14954
▁interpreting	-14955
hang	-14956
malloc	-14957
artifact	-14958
▁provision	-14959
▁intelligent	-14960
OIN	-14961
uan	-14962
INGS	-14963
▁gro	-14964
invoke	-14965
▁Assume	-14966
▁cement	-14967
▁neglect	-14968
DIRECTORY	-14969
▁accommodate	-14970
BI	-14971
GA	-14972
]/	-14973
rg	-14974
▁Hz	-14975
▁pun	-14976
Warning	-14977
▁lifespan	-14978
▁originating	-14979
ENCES	-14980
Sigma	-14981
▁Surface	-14982
Animation	-14983
▁Advanced	-14984
▁PARTICULAR	-14985
igm	-14986
ador	-14987
cury	-14988
▁TEST	-14989
▁TRUE	-14990
icated	-14991
▁Filter	-14992
▁Similar	-14993
▁databases	-14994
}'.	-14995
koulut	-14996
▁organs	-14997
▁gallons	-14998
▁lacking	-14999
▁employing	-15000
▁integrals	-15001
▁cultivating	-15002
olds	-15003
INPUT	-15004
visit	-15005
▁deepen	-15006
inecraft	-15007
▁compile	-15008
▁unpredict	-15009
▁simulations	-15010
▁Sem	-15011
mutex	-15012
rotate	-15013
fixture	-15014
inality	-15015
▁Building	-15016
▁acknowledge	-15017
▁\$$	-15018
▁gun	-15019
backs	-15020
calls	-15021
▁coron	-15022
rollers	-15023
NOWN	-15024
esium	-15025
icide	-15026
▁tiny	-15027
▁informal	-15028
SK	-15029
aba	-15030
Loop	-15031
Board	-15032
iotic	-15033
ourag	-15034
▁dispatch	-15035
▁Environmental	-15036
],[	-15037
ben	-15038
▁{}".	-15039
▁embry	-15040
▁thanks	-15041
▁minerals	-15042
:/	-15043
ERV	-15044
ipy	-15045
▁cars	-15046
▁hall	-15047
▁Target	-15048
▁coastal	-15049
Permission	-15050
▁Mexico	-15051
▁genome	-15052
▁Library	-15053
▁editing	-15054
coordinate	-15055
/',	-15056
awa	-15057
▁CB	-15058
icture	-15059
▁Layer	-15060
Release	-15061
▁slowly	-15062
▁cultivate	-15063
HP	-15064
Been	-15065
▁mes	-15066
Merge	-15067
alter	-15068
VALUES	-15069
▁Notice	-15070
onds	-15071
ancies	-15072
▁unlikely	-15073
▁disruption	-15074
▁publications	-15075
Utf	-15076
▁Publ	-15077
aternal	-15078
▁CHARSET	-15079
▁ellipse	-15080
▁revised	-15081
▁emotionally	-15082
uls	-15083
coeff	-15084
▁Prep	-15085
▁Logger	-15086
▁trivial	-15087
▁Reference	-15088
)\\	-15089
agog	-15090
Depth	-15091
tfrac	-15092
▁WITH	-15093
▁IMPLI	-15094
andidate	-15095
▁percentages	-15096
▁&["	-15097
▁nas	-15098
imacy	-15099
proof	-15100
▁helper	-15101
▁essentially	-15102
OLU	-15103
Phi	-15104
inated	-15105
Running	-15106
▁rewrite	-15107
setTimeout	-15108
▁overlooked	-15109
▁elimination	-15110
▁instrumental	-15111
▁∩	-15112
chi	-15113
born	-15114
▁proc	-15115
[...]
